{
  "version": "1.0",
  "truncation": null,
  "padding": null,
  "added_tokens": [],
  "normalizer": null,
  "pre_tokenizer": {
    "type": "ByteLevel",
    "add_prefix_space": false,
    "trim_offsets": true,
    "use_regex": true
  },
  "post_processor": {
    "type": "ByteLevel",
    "add_prefix_space": true,
    "trim_offsets": false,
    "use_regex": true
  },
  "decoder": {
    "type": "ByteLevel",
    "add_prefix_space": true,
    "trim_offsets": true,
    "use_regex": true
  },
  "model": {
    "type": "BPE",
    "dropout": null,
    "unk_token": null,
    "continuing_subword_prefix": null,
    "end_of_word_suffix": null,
    "fuse_unk": false,
    "byte_fallback": false,
    "ignore_merges": false,
    "vocab": {
      "!": 0,
      "\"": 1,
      "#": 2,
      "$": 3,
      "%": 4,
      "&": 5,
      "'": 6,
      "(": 7,
      ")": 8,
      "*": 9,
      "+": 10,
      ",": 11,
      "-": 12,
      ".": 13,
      "/": 14,
      "0": 15,
      "1": 16,
      "2": 17,
      "3": 18,
      "4": 19,
      "5": 20,
      "6": 21,
      "7": 22,
      "8": 23,
      "9": 24,
      ":": 25,
      ";": 26,
      "<": 27,
      "=": 28,
      ">": 29,
      "?": 30,
      "@": 31,
      "A": 32,
      "B": 33,
      "C": 34,
      "D": 35,
      "E": 36,
      "F": 37,
      "G": 38,
      "H": 39,
      "I": 40,
      "J": 41,
      "K": 42,
      "L": 43,
      "M": 44,
      "N": 45,
      "O": 46,
      "P": 47,
      "Q": 48,
      "R": 49,
      "S": 50,
      "T": 51,
      "U": 52,
      "V": 53,
      "W": 54,
      "X": 55,
      "Y": 56,
      "Z": 57,
      "[": 58,
      "\\": 59,
      "]": 60,
      "^": 61,
      "_": 62,
      "`": 63,
      "a": 64,
      "b": 65,
      "c": 66,
      "d": 67,
      "e": 68,
      "f": 69,
      "g": 70,
      "h": 71,
      "i": 72,
      "j": 73,
      "k": 74,
      "l": 75,
      "m": 76,
      "n": 77,
      "o": 78,
      "p": 79,
      "q": 80,
      "r": 81,
      "s": 82,
      "t": 83,
      "u": 84,
      "v": 85,
      "w": 86,
      "x": 87,
      "y": 88,
      "z": 89,
      "{": 90,
      "|": 91,
      "}": 92,
      "~": 93,
      "¡": 94,
      "¢": 95,
      "£": 96,
      "¤": 97,
      "¥": 98,
      "¦": 99,
      "§": 100,
      "¨": 101,
      "©": 102,
      "ª": 103,
      "«": 104,
      "¬": 105,
      "®": 106,
      "¯": 107,
      "°": 108,
      "±": 109,
      "²": 110,
      "³": 111,
      "´": 112,
      "µ": 113,
      "¶": 114,
      "·": 115,
      "¸": 116,
      "¹": 117,
      "º": 118,
      "»": 119,
      "¼": 120,
      "½": 121,
      "¾": 122,
      "¿": 123,
      "À": 124,
      "Á": 125,
      "Â": 126,
      "Ã": 127,
      "Ä": 128,
      "Å": 129,
      "Æ": 130,
      "Ç": 131,
      "È": 132,
      "É": 133,
      "Ê": 134,
      "Ë": 135,
      "Ì": 136,
      "Í": 137,
      "Î": 138,
      "Ï": 139,
      "Ð": 140,
      "Ñ": 141,
      "Ò": 142,
      "Ó": 143,
      "Ô": 144,
      "Õ": 145,
      "Ö": 146,
      "×": 147,
      "Ø": 148,
      "Ù": 149,
      "Ú": 150,
      "Û": 151,
      "Ü": 152,
      "Ý": 153,
      "Þ": 154,
      "ß": 155,
      "à": 156,
      "á": 157,
      "â": 158,
      "ã": 159,
      "ä": 160,
      "å": 161,
      "æ": 162,
      "ç": 163,
      "è": 164,
      "é": 165,
      "ê": 166,
      "ë": 167,
      "ì": 168,
      "í": 169,
      "î": 170,
      "ï": 171,
      "ð": 172,
      "ñ": 173,
      "ò": 174,
      "ó": 175,
      "ô": 176,
      "õ": 177,
      "ö": 178,
      "÷": 179,
      "ø": 180,
      "ù": 181,
      "ú": 182,
      "û": 183,
      "ü": 184,
      "ý": 185,
      "þ": 186,
      "ÿ": 187,
      "Ā": 188,
      "ā": 189,
      "Ă": 190,
      "ă": 191,
      "Ą": 192,
      "ą": 193,
      "Ć": 194,
      "ć": 195,
      "Ĉ": 196,
      "ĉ": 197,
      "Ċ": 198,
      "ċ": 199,
      "Č": 200,
      "č": 201,
      "Ď": 202,
      "ď": 203,
      "Đ": 204,
      "đ": 205,
      "Ē": 206,
      "ē": 207,
      "Ĕ": 208,
      "ĕ": 209,
      "Ė": 210,
      "ė": 211,
      "Ę": 212,
      "ę": 213,
      "Ě": 214,
      "ě": 215,
      "Ĝ": 216,
      "ĝ": 217,
      "Ğ": 218,
      "ğ": 219,
      "Ġ": 220,
      "ġ": 221,
      "Ģ": 222,
      "ģ": 223,
      "Ĥ": 224,
      "ĥ": 225,
      "Ħ": 226,
      "ħ": 227,
      "Ĩ": 228,
      "ĩ": 229,
      "Ī": 230,
      "ī": 231,
      "Ĭ": 232,
      "ĭ": 233,
      "Į": 234,
      "į": 235,
      "İ": 236,
      "ı": 237,
      "Ĳ": 238,
      "ĳ": 239,
      "Ĵ": 240,
      "ĵ": 241,
      "Ķ": 242,
      "ķ": 243,
      "ĸ": 244,
      "Ĺ": 245,
      "ĺ": 246,
      "Ļ": 247,
      "ļ": 248,
      "Ľ": 249,
      "ľ": 250,
      "Ŀ": 251,
      "ŀ": 252,
      "Ł": 253,
      "ł": 254,
      "Ń": 255,
      "čĊ": 256,
      "es": 257,
      "Ġd": 258,
      "Ġl": 259,
      "Ġp": 260,
      "en": 261,
      "ou": 262,
      "ai": 263,
      "Ġc": 264,
      "Ã©": 265,
      "on": 266,
      "Ġm": 267,
      "Ġs": 268,
      "an": 269,
      "qu": 270,
      "re": 271,
      "er": 272,
      "Ġt": 273,
      "Ġqu": 274,
      "Ġj": 275,
      "Ġde": 276,
      "is": 277,
      "ar": 278,
      "eu": 279,
      "Ġf": 280,
      "Ġa": 281,
      "ent": 282,
      "as": 283,
      "ais": 284,
      "le": 285,
      "Ġb": 286,
      "Ġla": 287,
      "in": 288,
      "un": 289,
      "est": 290,
      "Ġv": 291,
      "Ġles": 292,
      "Ġn": 293,
      "it": 294,
      "me": 295,
      "our": 296,
      "Ġr": 297,
      "et": 298,
      "om": 299,
      "ĠÃ": 300,
      "Ġle": 301,
      "il": 302,
      "or": 303,
      "oi": 304,
      "te": 305,
      "Ġun": 306,
      "Ã¨": 307,
      "Ġdes": 308,
      "Ġpas": 309,
      "ans": 310,
      "ro": 311,
      "Ġg": 312,
      "au": 313,
      "ch": 314,
      "ĠÃł": 315,
      "eur": 316,
      "al": 317,
      "us": 318,
      "ur": 319,
      "Ġen": 320,
      "el": 321,
      "at": 322,
      "Ġet": 323,
      "ous": 324,
      "Ġcom": 325,
      "Ġdu": 326,
      "Ġdans": 327,
      "ant": 328,
      "ve": 329,
      "ont": 330,
      "ait": 331,
      "Â§": 332,
      "os": 333,
      "ra": 334,
      "ce": 335,
      "uis": 336,
      "IN": 337,
      "Ġque": 338,
      "ien": 339,
      "and": 340,
      "'s": 341,
      "ne": 342,
      "Ġpour": 343,
      "Ġau": 344,
      "Ġch": 345,
      "Ãª": 346,
      "ri": 347,
      "Ġpar": 348,
      "Ġpl": 349,
      "Ġqui": 350,
      "am": 351,
      "que": 352,
      "res": 353,
      "se": 354,
      "Ġcomme": 355,
      "ap": 356,
      "ti": 357,
      "Ġmon": 358,
      "out": 359,
      "Ġh": 360,
      "Ġon": 361,
      "les": 362,
      "Ã©t": 363,
      "ie": 364,
      "Ã¨re": 365,
      "ag": 366,
      "tre": 367,
      "Ġje": 368,
      "de": 369,
      "ol": 370,
      "Ġest": 371,
      "Ġsur": 372,
      "eux": 373,
      "'t": 374,
      "Ġou": 375,
      "em": 376,
      "Ã©c": 377,
      "Ġune": 378,
      "'m": 379,
      "Ġre": 380,
      "OU": 381,
      "ir": 382,
      "Ġma": 383,
      "end": 384,
      "ion": 385,
      "aire": 386,
      "Ġplus": 387,
      "ois": 388,
      "ot": 389,
      "ĠM": 390,
      "ment": 391,
      "elle": 392,
      "ain": 393,
      "PL": 394,
      "ET": 395,
      "COU": 396,
      "PLET": 397,
      "COUPLET": 398,
      "ac": 399,
      "ic": 400,
      "Ã©s": 401,
      "ort": 402,
      "Qu": 403,
      "eurs": 404,
      "Ġtu": 405,
      "im": 406,
      "On": 407,
      "§a": 408,
      "ier": 409,
      "oir": 410,
      "Ġy": 411,
      "ab": 412,
      "ang": 413,
      "vec": 414,
      "ils": 415,
      "che": 416,
      "onn": 417,
      "Ġtout": 418,
      "ĠÃ§a": 419,
      "ig": 420,
      "av": 421,
      "Et": 422,
      "ine": 423,
      "Ġpr": 424,
      "tes": 425,
      "ff": 426,
      "Ġse": 427,
      "ĠdÃ©": 428,
      "Ġsi": 429,
      "ĠP": 430,
      "ĠB": 431,
      "Ġmes": 432,
      "Ġmais": 433,
      "ĠS": 434,
      "Je": 435,
      "oin": 436,
      "Ġme": 437,
      "Ãł": 438,
      "Ġfait": 439,
      "Ġavec": 440,
      "la": 441,
      "ul": 442,
      "ers": 443,
      "pr": 444,
      "ons": 445,
      "Ġrap": 446,
      "ens": 447,
      "ux": 448,
      "mes": 449,
      "pe": 450,
      "ard": 451,
      "ĠA": 452,
      "RE": 453,
      "Ġquand": 454,
      "Les": 455,
      "FR": 456,
      "AIN": 457,
      "REFR": 458,
      "REFRAIN": 459,
      "Ġtr": 460,
      "Ġfr": 461,
      "'d": 462,
      "ĠC": 463,
      "Ãªme": 464,
      "Ġcou": 465,
      "ĠD": 466,
      "Ġnous": 467,
      "ros": 468,
      "La": 469,
      "Ã©e": 470,
      "oc": 471,
      "ille": 472,
      "ps": 473,
      "ours": 474,
      "ue": 475,
      "Ġne": 476,
      "EG": 477,
      "EN": 478,
      "BEG": 479,
      "NIN": 480,
      "INNIN": 481,
      "END": 482,
      "BEGINNIN": 483,
      "BEGINNING": 484,
      "Ġfaire": 485,
      "aut": 486,
      "ique": 487,
      "ui": 488,
      "Ã©p": 489,
      "ill": 490,
      "ance": 491,
      "um": 492,
      "Le": 493,
      "ad": 494,
      "Ġgr": 495,
      "Ġo": 496,
      "Ġpro": 497,
      "Ġson": 498,
      "age": 499,
      "Mais": 500,
      "Ġdis": 501,
      "Ġsont": 502,
      "oute": 503,
      "ut": 504,
      "Ġin": 505,
      "Ġar": 506,
      "ass": 507,
      "Ã©d": 508,
      "Ġce": 509,
      "ire": 510,
      "ite": 511,
      "ors": 512,
      "Ġouais": 513,
      "Ġmoi": 514,
      "Ã´": 515,
      "ay": 516,
      "Il": 517,
      "pl": 518,
      "Åĵ": 519,
      "Ġnos": 520,
      "Ġbien": 521,
      "erre": 522,
      "Ġav": 523,
      "Ã©r": 524,
      "ge": 525,
      "une": 526,
      "En": 527,
      "ouv": 528,
      "ĠmÃªme": 529,
      "iens": 530,
      "Ġvi": 531,
      "ques": 532,
      "ĠR": 533,
      "onne": 534,
      "ure": 535,
      "Ã¨res": 536,
      "omme": 537,
      "Ã§": 538,
      "Ġpeu": 539,
      "Ġtro": 540,
      "ter": 541,
      "rai": 542,
      "ler": 543,
      "Ã©g": 544,
      "Ġils": 545,
      "Ġtous": 546,
      "co": 547,
      "ess": 548,
      "Ġvie": 549,
      "id": 550,
      "oit": 551,
      "ĠF": 552,
      "omb": 553,
      "ale": 554,
      "Ã©n": 555,
      "bl": 556,
      "Ġil": 557,
      "aux": 558,
      "Ġont": 559,
      "ĠÃ©t": 560,
      "oire": 561,
      "uc": 562,
      "Ġaux": 563,
      "anc": 564,
      "ette": 565,
      "Ġta": 566,
      "Ġbl": 567,
      "Ġsans": 568,
      "ing": 569,
      "Åĵur": 570,
      "Ġcar": 571,
      "Ou": 572,
      "ex": 573,
      "ĠL": 574,
      "Ã©l": 575,
      "Ġw": 576,
      "Ġgros": 577,
      "Ã¹": 578,
      "Ġcon": 579,
      "ĠG": 580,
      "Ġleurs": 581,
      "Ġcr": 582,
      "ib": 583,
      "Ã®": 584,
      "Ġmal": 585,
      "Ġdev": 586,
      "oul": 587,
      "ord": 588,
      "iss": 589,
      "Ġal": 590,
      "Ãªte": 591,
      "ĠT": 592,
      "Ġrien": 593,
      "Ġk": 594,
      "Ġgrand": 595,
      "Ġleur": 596,
      "Ã¢": 597,
      "ist": 598,
      "Si": 599,
      "ĠH": 600,
      "Ġni": 601,
      "vais": 602,
      "itÃ©": 603,
      "Ã¨s": 604,
      "ah": 605,
      "iv": 606,
      "Ġelle": 607,
      "Ġgu": 608,
      "Ã©es": 609,
      "Ġtou": 610,
      "ĠÃ©c": 611,
      "ation": 612,
      "'re": 613,
      "Ġser": 614,
      "entre": 615,
      "amais": 616,
      "ail": 617,
      "Ġbr": 618,
      "its": 619,
      "rap": 620,
      "Ġtrop": 621,
      "Ġst": 622,
      "Un": 623,
      "Ġcl": 624,
      "ts": 625,
      "ise": 626,
      "all": 627,
      "oo": 628,
      "Ġmar": 629,
      "Ġte": 630,
      "ĠrÃ©": 631,
      "Ġsous": 632,
      "if": 633,
      "Ġrapp": 634,
      "Pour": 635,
      "asse": 636,
      "Quand": 637,
      "Ġdit": 638,
      "eure": 639,
      "op": 640,
      "ĠJ": 641,
      "ars": 642,
      "Al": 643,
      "ĠN": 644,
      "ond": 645,
      "Ġjamais": 646,
      "jours": 647,
      "Ġsa": 648,
      "endre": 649,
      "Tu": 650,
      "esoin": 651,
      "Ils": 652,
      "Ġdi": 653,
      "iÃ¨re": 654,
      "ver": 655,
      "Ãªtre": 656,
      "Ġconn": 657,
      "oy": 658,
      "Ġveu": 659,
      "Ġper": 660,
      "Ġsuis": 661,
      "Ġton": 662,
      "RO": 663,
      "TRO": 664,
      "eau": 665,
      "og": 666,
      "uit": 667,
      "Ġai": 668,
      "ends": 669,
      "ĠÃª": 670,
      "Ġquel": 671,
      "ĠÃ©": 672,
      "ants": 673,
      "'ve": 674,
      "Ġva": 675,
      "nes": 676,
      "ÃĢ": 677,
      "Ġmonde": 678,
      "Ãī": 679,
      "euf": 680,
      "orte": 681,
      "elles": 682,
      "Ġcont": 683,
      "Ġjus": 684,
      "Ġbou": 685,
      "Ġtoujours": 686,
      "Ã»": 687,
      "Ġ,": 688,
      "aine": 689,
      "Ġdeux": 690,
      "ole": 691,
      "Ġmort": 692,
      "Ġfin": 693,
      "Ġpuis": 694,
      "emps": 695,
      "ĠlÃł": 696,
      "Ġpot": 697,
      "Ġseu": 698,
      "ĠÃªtre": 699,
      "El": 700,
      "Ġpet": 701,
      "able": 702,
      "ez": 703,
      "lent": 704,
      "ob": 705,
      "De": 706,
      "ieu": 707,
      "Ġfais": 708,
      "tent": 709,
      "tÃ©": 710,
      "arti": 711,
      "Ġfois": 712,
      "fais": 713,
      "Ġtra": 714,
      "Ã©f": 715,
      "aud": 716,
      "oup": 717,
      "ient": 718,
      "Ġap": 719,
      "ins": 720,
      "illes": 721,
      "Ġpu": 722,
      "Ġjour": 723,
      "ĠoÃ¹": 724,
      "ĠcÅĵur": 725,
      "core": 726,
      "ach": 727,
      "Mon": 728,
      "ple": 729,
      "Ġmi": 730,
      "ble": 731,
      "Ġvrai": 732,
      "Que": 733,
      "Ã©dine": 734,
      "Dans": 735,
      "ec": 736,
      "tr": 737,
      "aime": 738,
      "Ġfaut": 739,
      "rois": 740,
      "od": 741,
      "sa": 742,
      "Ġsais": 743,
      "quer": 744,
      "app": 745,
      "..": 746,
      "tres": 747,
      "ume": 748,
      "Ġfl": 749,
      "Des": 750,
      "Par": 751,
      "nent": 752,
      "rais": 753,
      "tion": 754,
      "cer": 755,
      "Ġtoi": 756,
      "Ġpo": 757,
      "Ouais": 758,
      "rÃ©": 759,
      "Ġfont": 760,
      "Ã¨ne": 761,
      "ci": 762,
      "era": 763,
      "rem": 764,
      "ande": 765,
      "Une": 766,
      "ta": 767,
      "ence": 768,
      "be": 769,
      "ann": 770,
      "Ã©tais": 771,
      "Qui": 772,
      "imsa": 773,
      "ame": 774,
      "Ġder": 775,
      "Ġmain": 776,
      "Ġ1": 777,
      "Ġtemps": 778,
      "moi": 779,
      "puis": 780,
      "Ġpass": 781,
      "ĠK": 782,
      "Ġz": 783,
      "Ã©ri": 784,
      "Ġbar": 785,
      "he": 786,
      "up": 787,
      "cher": 788,
      "Ġrest": 789,
      "ici": 790,
      "are": 791,
      "aque": 792,
      "Ġses": 793,
      "ma": 794,
      "esp": 795,
      "aient": 796,
      "Ġcol": 797,
      "oss": 798,
      "ĠFr": 799,
      "Ã©tait": 800,
      "ĠfrÃ¨res": 801,
      "Ã¯": 802,
      "Ġces": 803,
      "Ġpart": 804,
      "ct": 805,
      "vre": 806,
      "iste": 807,
      "riÃ¨re": 808,
      "ace": 809,
      "jÃł": 810,
      "ĠI": 811,
      "ents": 812,
      "Ã¨me": 813,
      "Ġe": 814,
      "Ġans": 815,
      "ches": 816,
      "anger": 817,
      "Comme": 818,
      "Ġcor": 819,
      "Ġvous": 820,
      "Ġveux": 821,
      "uss": 822,
      "Tout": 823,
      "par": 824,
      "ĩa": 825,
      "Ã¨te": 826,
      "Elle": 827,
      "Ġlui": 828,
      "Ġfor": 829,
      "Ġquelques": 830,
      "aÃ®": 831,
      "Ã©m": 832,
      "aiss": 833,
      "ose": 834,
      "Ġparti": 835,
      "Moi": 836,
      "Ãĩa": 837,
      "ouve": 838,
      "Ġmet": 839,
      "Ġam": 840,
      "oof": 841,
      "ĠdÃ©c": 842,
      "Ġsav": 843,
      "Ġbon": 844,
      "Ġencore": 845,
      "ense": 846,
      "ĠtÃªte": 847,
      "imp": 848,
      "Ġperd": 849,
      "viens": 850,
      "Ġex": 851,
      "Ġmus": 852,
      "Ġtes": 853,
      "Ġat": 854,
      "Ġavant": 855,
      "Ch": 856,
      "ĠV": 857,
      "Ġsou": 858,
      "iers": 859,
      "Ġquarti": 860,
      "Ġvoi": 861,
      "ommes": 862,
      "Ġceux": 863,
      "Ġsal": 864,
      "qui": 865,
      "Ġri": 866,
      "ange": 867,
      "Ġguerre": 868,
      "az": 869,
      "Ġsc": 870,
      "Ġsens": 871,
      "ions": 872,
      "Ġpuiss": 873,
      "Au": 874,
      "aires": 875,
      "Ġco": 876,
      "ert": 877,
      "ress": 878,
      "onc": 879,
      "Ã´t": 880,
      "iff": 881,
      "ow": 882,
      "Ġ2": 883,
      "Ġph": 884,
      "Ġjou": 885,
      "Ġbesoin": 886,
      "ines": 887,
      "Ġvu": 888,
      "Ġcomm": 889,
      "Ġent": 890,
      "Ġdire": 891,
      "Ġman": 892,
      "Ġveut": 893,
      "air": 894,
      "Ġdem": 895,
      "Ġenf": 896,
      "Ġpris": 897,
      "ĠE": 898,
      "anÃ§": 899,
      "istes": 900,
      "istoire": 901,
      "Ãīc": 902,
      "ss": 903,
      "Ġentre": 904,
      "enir": 905,
      "Ġjeu": 906,
      "Ġrue": 907,
      "Ġgars": 908,
      "Ã©ro": 909,
      "Ġparle": 910,
      "eufs": 911,
      "leur": 912,
      "ĠmÃ¨re": 913,
      "INTRO": 914,
      "Ġmieux": 915,
      "Ġpuissance": 916,
      "Car": 917,
      "Pas": 918,
      "ger": 919,
      "Ġdou": 920,
      "st": 921,
      "Ġfem": 922,
      "Ġnoir": 923,
      "Ġchez": 924,
      "ĠÃ©p": 925,
      "oud": 926,
      "Ġgens": 927,
      "Ġpeut": 928,
      "Ġsac": 929,
      "att": 930,
      "ric": 931,
      "Ġtoutes": 932,
      "avre": 933,
      "ĠFrance": 934,
      "iz": 935,
      "mer": 936,
      "Ġple": 937,
      "enf": 938,
      "ong": 939,
      "Ġfond": 940,
      "Ġpoto": 941,
      "Ġpetit": 942,
      "onde": 943,
      "Ġmat": 944,
      "Ġsang": 945,
      "ante": 946,
      "Ġcomp": 947,
      "ies": 948,
      "arde": 949,
      "ĠMÃ©dine": 950,
      "anÃ§ais": 951,
      "br": 952,
      "ash": 953,
      "Ġvis": 954,
      "ats": 955,
      "Ã§on": 956,
      "Ġem": 957,
      "Ġcul": 958,
      "rer": 959,
      "Ġfer": 960,
      "ase": 961,
      "Ġnan": 962,
      "Ã¨ve": 963,
      "ign": 964,
      "ds": 965,
      "Ġdro": 966,
      "Ġcour": 967,
      "Ġth": 968,
      "Ġbal": 969,
      "Ġvoir": 970,
      "uln": 971,
      "coup": 972,
      "ip": 973,
      "Ġcette": 974,
      "Ġvers": 975,
      "Ġrem": 976,
      "vent": 977,
      "oule": 978,
      "arg": 979,
      "ĠLimsa": 980,
      "Ġwoof": 981,
      "ĠHavre": 982,
      "ulnay": 983,
      "faire": 984,
      "ud": 985,
      "Ġsol": 986,
      "Ġbeau": 987,
      "Ġvois": 988,
      "ages": 989,
      "ĠAl": 990,
      "ik": 991,
      "rent": 992,
      "Ġport": 993,
      "Ġfeu": 994,
      "Ġreg": 995,
      "ĠÃ©tait": 996,
      "ia": 997,
      "Ġpers": 998,
      "Ġmis": 999,
      "ĠMar": 1000,
      "ĠfrÃ¨re": 1001,
      "Ġseul": 1002,
      "oque": 1003,
      "per": 1004,
      "OUTRO": 1005,
      "ture": 1006,
      "vois": 1007,
      "Ġsh": 1008,
      "Ġtour": 1009,
      "Ãīcoute": 1010,
      "Besoin": 1011,
      "Ma": 1012,
      "ile": 1013,
      "Ã©ch": 1014,
      "ett": 1015,
      "orti": 1016,
      "Ãªt": 1017,
      "ement": 1018,
      "eah": 1019,
      "ĠO": 1020,
      "ĠčĊ": 1021,
      "Ġdepuis": 1022,
      "Ġrac": 1023,
      "Ġjuste": 1024,
      "ces": 1025,
      "oot": 1026,
      "ves": 1027,
      "Ġmer": 1028,
      "ellement": 1029,
      "ains": 1030,
      "ĠdÃ©jÃł": 1031,
      "oins": 1032,
      "Avec": 1033,
      "Ġpe": 1034,
      "ak": 1035,
      "ice": 1036,
      "ph": 1037,
      "ues": 1038,
      "Ġsort": 1039,
      "Ġsoir": 1040,
      "Ġtoute": 1041,
      "ments": 1042,
      "ack": 1043,
      "pris": 1044,
      "Mes": 1045,
      "ner": 1046,
      "otre": 1047,
      "ub": 1048,
      "Ġpeur": 1049,
      "Ġprem": 1050,
      "Ġmot": 1051,
      "amour": 1052,
      "com": 1053,
      "ey": 1054,
      "Ġpat": 1055,
      "Ġpie": 1056,
      "Ġpens": 1057,
      "quoi": 1058,
      "Ġtomb": 1059,
      "Ġres": 1060,
      "ĠdÃ©f": 1061,
      "ade": 1062,
      "cl": 1063,
      "ĠrÃ©p": 1064,
      "orm": 1065,
      "ouss": 1066,
      "rie": 1067,
      "Ġveulent": 1068,
      "bre": 1069,
      "ore": 1070,
      "th": 1071,
      "tant": 1072,
      "Ġeux": 1073,
      "Ġpol": 1074,
      "oie": 1075,
      "Ġcomb": 1076,
      "anth": 1077,
      "ussi": 1078,
      "Ġpos": 1079,
      "Ġter": 1080,
      "arr": 1081,
      "Ġfam": 1082,
      "ĠnÃ©g": 1083,
      "ettes": 1084,
      "prends": 1085,
      "Ġeh": 1086,
      "af": 1087,
      "vant": 1088,
      "Ġcra": 1089,
      "Ġcons": 1090,
      "Ġsouv": 1091,
      "ures": 1092,
      "ĠfranÃ§ais": 1093,
      "Ġcorps": 1094,
      "mi": 1095,
      "tour": 1096,
      "ĠpÃ¨re": 1097,
      "ition": 1098,
      "oig": 1099,
      "rive": 1100,
      "Ġyeux": 1101,
      "Ġvient": 1102,
      "Ġdern": 1103,
      "ĠdÃ©t": 1104,
      "Ġfau": 1105,
      "Ġenv": 1106,
      "Ġchaque": 1107,
      "ĠCh": 1108,
      "rappe": 1109,
      "',": 1110,
      "ten": 1111,
      "Ġci": 1112,
      "Ġmin": 1113,
      "Ġfort": 1114,
      "Ġvit": 1115,
      "osma": 1116,
      "Ġcoup": 1117,
      "ON": 1118,
      "Ġpay": 1119,
      "Ġporte": 1120,
      "Ġment": 1121,
      "Ġsoit": 1122,
      "Ġbas": 1123,
      "Ġrou": 1124,
      "Ġprop": 1125,
      "Ġniquer": 1126,
      "...": 1127,
      "Ġreste": 1128,
      "Faut": 1129,
      "Sur": 1130,
      "nd": 1131,
      "ris": 1132,
      "Ġici": 1133,
      "Ġcap": 1134,
      "ĠrÃª": 1135,
      "auvais": 1136,
      "ienne": 1137,
      "rit": 1138,
      "ĠW": 1139,
      "Ġput": 1140,
      "Ġmag": 1141,
      "Ġban": 1142,
      "rab": 1143,
      "Ġparler": 1144,
      "Gros": 1145,
      "Ġcrois": 1146,
      "Ã©v": 1147,
      "Ġterre": 1148,
      "art": 1149,
      "iter": 1150,
      "Ġcher": 1151,
      "Ġdix": 1152,
      "MÃªme": 1153,
      "OÃ¹": 1154,
      "esh": 1155,
      "Ġcan": 1156,
      "Ġbe": 1157,
      "Ġhommes": 1158,
      "Alors": 1159,
      "Ce": 1160,
      "fl": 1161,
      "ian": 1162,
      "aie": 1163,
      "ĠDieu": 1164,
      "PON": 1165,
      "ĠdÃ©s": 1166,
      "Ġquoi": 1167,
      "Ġac": 1168,
      "Ġven": 1169,
      "Ġville": 1170,
      "Ġautres": 1171,
      "ĠPort": 1172,
      "prÃ¨s": 1173,
      "ards": 1174,
      "PONT": 1175,
      "Ġim": 1176,
      "Ġmoins": 1177,
      "quÃ©": 1178,
      "erai": 1179,
      "Ġvoit": 1180,
      "ĠrÃ©c": 1181,
      "Ġchaud": 1182,
      "ĠdÃ©p": 1183,
      "ĠPan": 1184,
      "ĠBe": 1185,
      "Ġrappeurs": 1186,
      "Ġseule": 1187,
      "appelle": 1188,
      "tenant": 1189,
      "ha": 1190,
      "Ġaur": 1191,
      "estin": 1192,
      "Ġall": 1193,
      "Ġpote": 1194,
      "homme": 1195,
      "ule": 1196,
      "Ġcro": 1197,
      "Ġsour": 1198,
      "aise": 1199,
      "inc": 1200,
      "ets": 1201,
      "Ġmec": 1202,
      "ses": 1203,
      "Ġann": 1204,
      "ĠsÅĵur": 1205,
      "int": 1206,
      "Ġvos": 1207,
      "oses": 1208,
      "Ġparce": 1209,
      "Ġcouple": 1210,
      "Ġbeaucoup": 1211,
      "00": 1212,
      "hab": 1213,
      "env": 1214,
      "Ġcal": 1215,
      "Ġtir": 1216,
      "Ġfils": 1217,
      "aisse": 1218,
      "Ġvoul": 1219,
      "igne": 1220,
      "ible": 1221,
      "aille": 1222,
      "Ġcontre": 1223,
      "Ã©fÃ¨re": 1224,
      "SB": 1225,
      "Tous": 1226,
      "mÃ©": 1227,
      "ug": 1228,
      "Ġdra": 1229,
      "one": 1230,
      "Ġmauvais": 1231,
      "Ġsait": 1232,
      "Ġab": 1233,
      "Ġhomme": 1234,
      "ick": 1235,
      "Ġmeill": 1236,
      "Ġtruc": 1237,
      "Ġtrois": 1238,
      "Ġvoix": 1239,
      "Eh": 1240,
      "ber": 1241,
      "fait": 1242,
      "io": 1243,
      "rait": 1244,
      "ĠZ": 1245,
      "Ġcri": 1246,
      "Ġtosma": 1247,
      "Ġfout": 1248,
      "Ġnom": 1249,
      "sem": 1250,
      "lah": 1251,
      "aza": 1252,
      "cul": 1253,
      "oil": 1254,
      "port": 1255,
      "Ġdonn": 1256,
      "ane": 1257,
      "ourir": 1258,
      "ĠÃ¢": 1259,
      "ĠPar": 1260,
      "Ġavait": 1261,
      "MÃ©dine": 1262,
      "ate": 1263,
      "Ġpoin": 1264,
      "anche": 1265,
      "Ġaussi": 1266,
      "Ġren": 1267,
      "orce": 1268,
      "ousse": 1269,
      "Entre": 1270,
      "Ġdevant": 1271,
      "ĠderriÃ¨re": 1272,
      "argent": 1273,
      "aff": 1274,
      "ein": 1275,
      "iques": 1276,
      "ov": 1277,
      "Ã§a": 1278,
      "Ġan": 1279,
      "Ġpou": 1280,
      "Ġsau": 1281,
      "Ġsorti": 1282,
      "rir": 1283,
      "apa": 1284,
      "avais": 1285,
      "ĠSoc": 1286,
      "ock": 1287,
      "Ġprof": 1288,
      "Ġjusqu": 1289,
      "Ġfemme": 1290,
      "fr": 1291,
      "oles": 1292,
      "ĠsÃ»": 1293,
      "ern": 1294,
      "Ġquit": 1295,
      "autre": 1296,
      "urs": 1297,
      "iennent": 1298,
      "Ã©coute": 1299,
      "ident": 1300,
      "aill": 1301,
      "Ġquartier": 1302,
      "Ġpersonne": 1303,
      "conn": 1304,
      "heure": 1305,
      "iÃ©": 1306,
      "ĠY": 1307,
      "Ġor": 1308,
      "ĠmÃ©t": 1309,
      "Ġsu": 1310,
      "Ġsem": 1311,
      "Ġsomb": 1312,
      "Ġtri": 1313,
      "Ġtellement": 1314,
      "ourd": 1315,
      "ĠgÃ©n": 1316,
      "ram": 1317,
      "Ġchar": 1318,
      "Ġconnu": 1319,
      "Ġquartiers": 1320,
      "bar": 1321,
      "hett": 1322,
      "Ġlong": 1323,
      "Ġpense": 1324,
      "Ġmo": 1325,
      "ĠmÃ©d": 1326,
      "Ġbit": 1327,
      "Ġnuit": 1328,
      "aurais": 1329,
      "esses": 1330,
      "Ġsera": 1331,
      "Ġputain": 1332,
      "ĠBeach": 1333,
      "ĠSoccer": 1334,
      "In": 1335,
      "bum": 1336,
      "ĠLa": 1337,
      "Ġpi": 1338,
      "Ġfoot": 1339,
      "ente": 1340,
      "ind": 1341,
      "Ġautre": 1342,
      "onnes": 1343,
      "ĠdÃ©g": 1344,
      "Ġmusique": 1345,
      "cours": 1346,
      "Ġloin": 1347,
      "Ġcours": 1348,
      "Ġvoy": 1349,
      "Ġnon": 1350,
      "Ġauc": 1351,
      "Ġchant": 1352,
      "amb": 1353,
      "Ġhum": 1354,
      "ouver": 1355,
      "Aulnay": 1356,
      "des": 1357,
      "histoire": 1358,
      "ide": 1359,
      "Ġmill": 1360,
      "Ġmourir": 1361,
      "Ġvais": 1362,
      "Ġche": 1363,
      "ĠtrÃ¨s": 1364,
      "Ġdisent": 1365,
      "Ġjourn": 1366,
      "Ġforce": 1367,
      "Ġatt": 1368,
      "oh": 1369,
      "Ġlaiss": 1370,
      "Ġpeux": 1371,
      "Ġmeur": 1372,
      "ret": 1373,
      "Ġbut": 1374,
      "este": 1375,
      "chÃ©": 1376,
      "ost": 1377,
      "Ġhaine": 1378,
      "ionn": 1379,
      "oto": 1380,
      "Ġins": 1381,
      "Ġblanc": 1382,
      "aÃ§on": 1383,
      "crois": 1384,
      "ime": 1385,
      "Ġcelle": 1386,
      "Ġsent": 1387,
      "Ġstre": 1388,
      "Ġbelle": 1389,
      "ĠrÃ©s": 1390,
      "Ã¨g": 1391,
      "elui": 1392,
      "ama": 1393,
      "Ġheure": 1394,
      "orsque": 1395,
      "Ġavoir": 1396,
      "Ġgueu": 1397,
      "ĠrÃ©v": 1398,
      "Ġapp": 1399,
      "Du": 1400,
      "ras": 1401,
      "sous": 1402,
      "ution": 1403,
      "ĠÃ©l": 1404,
      "Ġelles": 1405,
      "Ġdur": 1406,
      "Ġlib": 1407,
      "Ġpri": 1408,
      "Ġmeuf": 1409,
      "Ġsup": 1410,
      "Ġnotre": 1411,
      "Ġparlent": 1412,
      "Ġplan": 1413,
      "igh": 1414,
      "ĠdÃ©m": 1415,
      "prÃ©fÃ¨re": 1416,
      "ĠÃ©tÃ©": 1417,
      "Ġplein": 1418,
      "Ġpeine": 1419,
      "Ġpied": 1420,
      "Ġciel": 1421,
      "ich": 1422,
      "nÃ©": 1423,
      "isme": 1424,
      "Ġfai": 1425,
      "Ġfil": 1426,
      "ites": 1427,
      "tel": 1428,
      "Ġpasse": 1429,
      "use": 1430,
      "Ãªmes": 1431,
      "ĠPro": 1432,
      "prendre": 1433,
      "uck": 1434,
      "Ġappris": 1435,
      "Ġpartie": 1436,
      "Ġrempl": 1437,
      "fs": 1438,
      "hum": 1439,
      "iÃ¨res": 1440,
      "lig": 1441,
      "Ġimp": 1442,
      "enc": 1443,
      "Ġcas": 1444,
      "Ġcau": 1445,
      "onte": 1446,
      "isse": 1447,
      "Ġas": 1448,
      "Ġbat": 1449,
      "Ġbra": 1450,
      "Ġgl": 1451,
      "Ġchans": 1452,
      "Ġreb": 1453,
      "acc": 1454,
      "Ġprobl": 1455,
      "asses": 1456,
      "Ġculture": 1457,
      "Limsa": 1458,
      "Pl": 1459,
      "ck": 1460,
      "ser": 1461,
      "yth": 1462,
      "Ġeu": 1463,
      "Ġdar": 1464,
      "ĠpÃ©t": 1465,
      "Ġmont": 1466,
      "quent": 1467,
      "itu": 1468,
      "oires": 1469,
      "Ġgang": 1470,
      "Ġchoses": 1471,
      "Ġkeufs": 1472,
      "Ġfamille": 1473,
      "Ġsouvent": 1474,
      "ball": 1475,
      "lui": 1476,
      "peux": 1477,
      "Ġ9": 1478,
      "Ġes": 1479,
      "Ġcam": 1480,
      "Ġjours": 1481,
      "Ġad": 1482,
      "Ġrentre": 1483,
      "Ġghett": 1484,
      "alitÃ©": 1485,
      "rache": 1486,
      "Ãªtes": 1487,
      "aines": 1488,
      "Ġcoups": 1489,
      "Ġconf": 1490,
      "Ġalbum": 1491,
      "Nos": 1492,
      "lieu": 1493,
      "ze": 1494,
      "Ã©ti": 1495,
      "Ġvite": 1496,
      "Ġpourquoi": 1497,
      "Ġprendre": 1498,
      "pect": 1499,
      "Ġbruit": 1500,
      "Ġpotes": 1501,
      "Ġpetite": 1502,
      "ression": 1503,
      "Ġstreet": 1504,
      "Nous": 1505,
      "hui": 1506,
      "ira": 1507,
      "iÃ¨me": 1508,
      "Ġlar": 1509,
      "Ġmeufs": 1510,
      "Ġsy": 1511,
      "Ġtard": 1512,
      "arre": 1513,
      "Ġbo": 1514,
      "Ġviens": 1515,
      "Ġgal": 1516,
      "ell": 1517,
      "rave": 1518,
      "Ġsec": 1519,
      "Ã©poque": 1520,
      "Enf": 1521,
      "Ġviol": 1522,
      "ĠÃ©coute": 1523,
      "ientÃ´t": 1524,
      "Parce": 1525,
      "brou": 1526,
      "semble": 1527,
      "Af": 1528,
      "vers": 1529,
      "Ġdestin": 1530,
      "Ġliv": 1531,
      "Ġfaux": 1532,
      "Ġver": 1533,
      "Ã¨mes": 1534,
      "Ġchanger": 1535,
      "Ġplume": 1536,
      "resse": 1537,
      "Ġrep": 1538,
      "ables": 1539,
      "Ġtrans": 1540,
      "umiÃ¨re": 1541,
      "Ġob": 1542,
      "Ã´le": 1543,
      "ords": 1544,
      "rapp": 1545,
      "Ġrappeur": 1546,
      "Ġbarbe": 1547,
      "Ġsavoir": 1548,
      "Ġmatin": 1549,
      "Ġcouplets": 1550,
      "ĠParis": 1551,
      "Rien": 1552,
      "rand": 1553,
      "uti": 1554,
      "Ġpau": 1555,
      "ĠcÃ´": 1556,
      "ari": 1557,
      "Ġbord": 1558,
      "ĠvÃ©r": 1559,
      "tem": 1560,
      "ales": 1561,
      "Ġchose": 1562,
      "rique": 1563,
      "Ġhistoire": 1564,
      "Ġpeuple": 1565,
      "Ġbras": 1566,
      "Ġsouff": 1567,
      "Ġriche": 1568,
      "Ġcombat": 1569,
      "Re": 1570,
      "lÃł": 1571,
      "vous": 1572,
      "Ġlang": 1573,
      "Ġmois": 1574,
      "Ġsois": 1575,
      "oix": 1576,
      "alk": 1577,
      "oll": 1578,
      "Ġrev": 1579,
      "Quel": 1580,
      "Ġyeah": 1581,
      "Ġalors": 1582,
      "Ġjeunes": 1583,
      "Ġfemmes": 1584,
      "rabian": 1585,
      "Auc": 1586,
      "Wesh": 1587,
      "cro": 1588,
      "gue": 1589,
      "vÃ©": 1590,
      "Ã©ment": 1591,
      "ĠaprÃ¨s": 1592,
      "unes": 1593,
      "rire": 1594,
      "tice": 1595,
      "Ġhaut": 1596,
      "ĠPanth": 1597,
      "Ġcouilles": 1598,
      "ouvoir": 1599,
      "Ġmains": 1600,
      "aÃ®t": 1601,
      "Ġenfants": 1602,
      "ight": 1603,
      "Avant": 1604,
      "Com": 1605,
      "bles": 1606,
      "jourd": 1607,
      "yle": 1608,
      "Ġanc": 1609,
      "Ġlog": 1610,
      "ennent": 1611,
      "aig": 1612,
      "aix": 1613,
      "Ġcer": 1614,
      "Ġmiss": 1615,
      "arrive": 1616,
      "Ġfoi": 1617,
      "Ġrais": 1618,
      "oient": 1619,
      "osse": 1620,
      "agne": 1621,
      "Ġoh": 1622,
      "asser": 1623,
      "Ġvivre": 1624,
      "ĠÃ©v": 1625,
      "Ġputes": 1626,
      "Ġdemande": 1627,
      "Ġpremier": 1628,
      "Ġenvie": 1629,
      "ĠannÃ©es": 1630,
      "Yeah": 1631,
      "bou": 1632,
      "cou": 1633,
      "di": 1634,
      "lam": 1635,
      "Ġdir": 1636,
      "ĠlÃ©g": 1637,
      "Ġcent": 1638,
      "Ġsale": 1639,
      "Ġthe": 1640,
      "Ġass": 1641,
      "ĠnÃ©": 1642,
      "rier": 1643,
      "Ġhab": 1644,
      "Ġrec": 1645,
      "ĠAulnay": 1646,
      "Ã©rie": 1647,
      "Ġdouble": 1648,
      "Ġmerde": 1649,
      "Ġmots": 1650,
      "Ġdernier": 1651,
      "Ġfootball": 1652,
      "ĠrÃ©vol": 1653,
      "lÃ©": 1654,
      "oti": 1655,
      "ute": 1656,
      "enu": 1657,
      "Ġquest": 1658,
      "isÃ©": 1659,
      "Ġfou": 1660,
      "Ġag": 1661,
      "let": 1662,
      "veau": 1663,
      "Ãªter": 1664,
      "Ġoubl": 1665,
      "endant": 1666,
      "ĠAra": 1667,
      "remier": 1668,
      "Ġmettre": 1669,
      "Ġperdu": 1670,
      "ĠscÃ¨ne": 1671,
      "Ġjoue": 1672,
      "Ġgueule": 1673,
      "ASB": 1674,
      "Mal": 1675,
      "aÃ¯": 1676,
      "gu": 1677,
      "min": 1678,
      "ok": 1679,
      "oÃ»": 1680,
      "ĠU": 1681,
      "Ġid": 1682,
      "Ġpouss": 1683,
      "Ġpouvoir": 1684,
      "Ġpaix": 1685,
      "enre": 1686,
      "Ġcelui": 1687,
      "Ġsuc": 1688,
      "arb": 1689,
      "ĠbÃ¢": 1690,
      "Ġval": 1691,
      "Ġvol": 1692,
      "ĠrÃ©g": 1693,
      "emande": 1694,
      "Ã©cole": 1695,
      "endu": 1696,
      "imm": 1697,
      "onner": 1698,
      "ĠprÃ©s": 1699,
      "Ġtrouve": 1700,
      "adis": 1701,
      "Ġgrandi": 1702,
      "ĠpassÃ©": 1703,
      "espoir": 1704,
      "aÃ®tre": 1705,
      "Ġrebeu": 1706,
      "Oh": 1707,
      "Poto": 1708,
      "ront": 1709,
      "ĠJe": 1710,
      "ĠlÃ¨ve": 1711,
      "oubl": 1712,
      "Ġcash": 1713,
      "ĠtÃ©l": 1714,
      "Ġfum": 1715,
      "Ġbonne": 1716,
      "rop": 1717,
      "Ġgar": 1718,
      "ath": 1719,
      "raÃ®": 1720,
      "iciens": 1721,
      "ĠSe": 1722,
      "oci": 1723,
      "Åĵil": 1724,
      "Ġconse": 1725,
      "Ġdevise": 1726,
      "ecords": 1727,
      "Ġmaintenant": 1728,
      "Ġjeune": 1729,
      "Ġregard": 1730,
      "Ġtombe": 1731,
      "Ġpays": 1732,
      "Ġbanlieu": 1733,
      "Ġaura": 1734,
      "Ġghetto": 1735,
      "Ces": 1736,
      "Lorsque": 1737,
      "Main": 1738,
      "eff": 1739,
      "hors": 1740,
      "rain": 1741,
      "tu": 1742,
      "toi": 1743,
      "ys": 1744,
      "Ġdonne": 1745,
      "once": 1746,
      "ĠmÃ¨res": 1747,
      "reu": 1748,
      "Ġtire": 1749,
      "Ġface": 1750,
      "Ġpleure": 1751,
      "aman": 1752,
      "Ġretour": 1753,
      "imes": 1754,
      "lace": 1755,
      "illÃ©": 1756,
      "Ġarr": 1757,
      "alement": 1758,
      "Ġcroire": 1759,
      "issent": 1760,
      "Ġconnais": 1761,
      "Ġpubl": 1762,
      "Ġvraiment": 1763,
      "Ġdroit": 1764,
      "Ġshit": 1765,
      "Ġbitch": 1766,
      "Ġlarmes": 1767,
      "Arabian": 1768,
      "LÃł": 1769,
      "Ne": 1770,
      "lan": 1771,
      "ran": 1772,
      "Ġoi": 1773,
      "Ġdos": 1774,
      "Ġpapa": 1775,
      "Ã©b": 1776,
      "ĠmÃªmes": 1777,
      "Ġaha": 1778,
      "Ġram": 1779,
      "eter": 1780,
      "Ġgame": 1781,
      "eures": 1782,
      "atre": 1783,
      "rig": 1784,
      "ots": 1785,
      "ĠdÃ©b": 1786,
      "Ġrappe": 1787,
      "ĠDon": 1788,
      "Ġinter": 1789,
      "Ġvies": 1790,
      "Ġgrands": 1791,
      "Ġserv": 1792,
      "ĠÃ©qui": 1793,
      "Ġmorts": 1794,
      "Ġfinir": 1795,
      "Ġsavent": 1796,
      "ĠPaname": 1797,
      "Ġtrib": 1798,
      "Pet": 1799,
      "Ta": 1800,
      "ba": 1801,
      "je": 1802,
      "test": 1803,
      "ĠdÃ»": 1804,
      "ĠlumiÃ¨re": 1805,
      "Ġpig": 1806,
      "Ġpire": 1807,
      "Ġmic": 1808,
      "Ġmod": 1809,
      "Ġtant": 1810,
      "Ġtours": 1811,
      "entends": 1812,
      "Ġbag": 1813,
      "Ġboul": 1814,
      "Ġbiz": 1815,
      "els": 1816,
      "tif": 1817,
      "Ġhein": 1818,
      "Ġmach": 1819,
      "Ġprend": 1820,
      "Ġcoupe": 1821,
      "Ġart": 1822,
      "Ġvieux": 1823,
      "ĠRecords": 1824,
      "ances": 1825,
      "ĠGaza": 1826,
      "Depuis": 1827,
      "Ġcolon": 1828,
      "Ġfaute": 1829,
      "Ar": 1830,
      "Dis": 1831,
      "Hey": 1832,
      "Pr": 1833,
      "cs": 1834,
      "dam": 1835,
      "ed": 1836,
      "ix": 1837,
      "ive": 1838,
      "mp": 1839,
      "mis": 1840,
      "rass": 1841,
      "sh": 1842,
      "ĠLe": 1843,
      "aimer": 1844,
      "Ġcoc": 1845,
      "Ġsp": 1846,
      "rement": 1847,
      "Ġfous": 1848,
      "Ġfrappe": 1849,
      "Ġbout": 1850,
      "Ġbic": 1851,
      "ĠbÃ©n": 1852,
      "Ġvoil": 1853,
      "ust": 1854,
      "Ġenne": 1855,
      "atte": 1856,
      "iend": 1857,
      "Ġchois": 1858,
      "Ã©tÃ©": 1859,
      "Ã©cris": 1860,
      "ĠBl": 1861,
      "ĠDe": 1862,
      "cool": 1863,
      "ĠÃ©cout": 1864,
      "ood": 1865,
      "ife": 1866,
      "ĠcÅĵurs": 1867,
      "enfer": 1868,
      "Ġpetites": 1869,
      "Ġaucune": 1870,
      "Pers": 1871,
      "Son": 1872,
      "Sans": 1873,
      "ache": 1874,
      "dÃ©": 1875,
      "gard": 1876,
      "leurs": 1877,
      "mÃªme": 1878,
      "of": 1879,
      "pense": 1880,
      "tat": 1881,
      "uge": 1882,
      "Ġdigne": 1883,
      "Ġlit": 1884,
      "oupe": 1885,
      "Ġcit": 1886,
      "Ġsk": 1887,
      "Ġsors": 1888,
      "Ġto": 1889,
      "Ġbille": 1890,
      "inqui": 1891,
      "Ġvent": 1892,
      "Ġvont": 1893,
      "omp": 1894,
      "Ġcham": 1895,
      "Ġchem": 1896,
      "emp": 1897,
      "Ġreu": 1898,
      "acle": 1899,
      "abe": 1900,
      "avoir": 1901,
      "Ġsix": 1902,
      "Ġof": 1903,
      "Ġop": 1904,
      "Ġdisque": 1905,
      "Ġind": 1906,
      "Ġarme": 1907,
      "Ġserai": 1908,
      "Elles": 1909,
      "ĠtraÃ®": 1910,
      "Ġpute": 1911,
      "espÃ¨re": 1912,
      "Ġrouge": 1913,
      "Ġfoutre": 1914,
      "Ġsombres": 1915,
      "Ġchev": 1916,
      "ĠÃ©lÃ©ment": 1917,
      "Plus": 1918,
      "Me": 1919,
      "ction": 1920,
      "dro": 1921,
      "garde": 1922,
      "iat": 1923,
      "passe": 1924,
      "ron": 1925,
      "som": 1926,
      "tou": 1927,
      "uer": 1928,
      "yl": 1929,
      "Ġ3": 1930,
      "Ġmil": 1931,
      "Ġmor": 1932,
      "Ġtit": 1933,
      "Ġfut": 1934,
      "Ġfume": 1935,
      "Ġbu": 1936,
      "Ġgard": 1937,
      "Ġprov": 1938,
      "Ġarmes": 1939,
      "Ġgrosse": 1940,
      "Ġaller": 1941,
      "ations": 1942,
      "ĠzÃ©ro": 1943,
      "Chaque": 1944,
      "Ġpieds": 1945,
      "Ġtrucs": 1946,
      "Ġchansons": 1947,
      "ĠvÃ©ritÃ©": 1948,
      "Maintenant": 1949,
      "Donc": 1950,
      "Mar": 1951,
      "cr": 1952,
      "for": 1953,
      "faÃ§on": 1954,
      "iance": 1955,
      "teur": 1956,
      "ya": 1957,
      "Ã¼": 1958,
      "Ġdents": 1959,
      "aite": 1960,
      "Ġsoci": 1961,
      "ano": 1962,
      "Ġtess": 1963,
      "Ġtex": 1964,
      "atti": 1965,
      "ager": 1966,
      "Ġretr": 1967,
      "ico": 1968,
      "onneur": 1969,
      "igg": 1970,
      "prend": 1971,
      "ĠfrÃ©ro": 1972,
      "iller": 1973,
      "Ġdiscours": 1974,
      "ombre": 1975,
      "oph": 1976,
      "ĠÃ©m": 1977,
      "Ġcontr": 1978,
      "Ġpetits": 1979,
      "ĠAlger": 1980,
      "ormal": 1981,
      "Ġmagiciens": 1982,
      "Ġmeilleur": 1983,
      "Ġmeurt": 1984,
      "temps": 1985,
      "Personne": 1986,
      "Bien": 1987,
      "Pro": 1988,
      "ieux": 1989,
      "oj": 1990,
      "uh": 1991,
      "uite": 1992,
      "vie": 1993,
      "Ġdoit": 1994,
      "Ġly": 1995,
      "Ġlife": 1996,
      "enne": 1997,
      "Ġcin": 1998,
      "Ġmen": 1999,
      "Ġsl": 2000,
      "Ġsons": 2001,
      "erl": 2002,
      "erm": 2003,
      "Ġtas": 2004,
      "Ġfuck": 2005,
      "Ġbour": 2006,
      "Ġnight": 2007,
      "Ã¨tes": 2008,
      "aule": 2009,
      "chent": 2010,
      "Ġchang": 2011,
      "Ġparf": 2012,
      "Ġparoles": 2013,
      "Ġplace": 2014,
      "Ġhey": 2015,
      "Ġheures": 2016,
      "olÃ©": 2017,
      "Ġref": 2018,
      "Ġtuer": 2019,
      "ierre": 2020,
      "Ġcouleur": 2021,
      "Ġprod": 2022,
      "Ġarri": 2023,
      "Ġblack": 2024,
      "ivers": 2025,
      "Ġmarche": 2026,
      "All": 2027,
      "Allah": 2028,
      "Ġdiff": 2029,
      "ĠÃ©le": 2030,
      "Ġflow": 2031,
      "angerang": 2032,
      "Ġportes": 2033,
      "ĠOG": 2034,
      "Ġpolit": 2035,
      "ĠnÃ©gro": 2036,
      "ĠrÃªve": 2037,
      "Ġsourire": 2038,
      "ĠÃ¢me": 2039,
      "Ġjournal": 2040,
      "ĠproblÃ¨mes": 2041,
      "Ġlangue": 2042,
      "Ġfootballeur": 2043,
      "!!": 2044,
      "Cette": 2045,
      "Fr": 2046,
      "Ici": 2047,
      "ke": 2048,
      "lÃ¨ve": 2049,
      "nam": 2050,
      "pÃ©": 2051,
      "ules": 2052,
      "Ġlou": 2053,
      "Ġcach": 2054,
      "Ġmille": 2055,
      "ĠmÃ©r": 2056,
      "Ġsommes": 2057,
      "reaux": 2058,
      "ĠtÃªtes": 2059,
      "Ġfesses": 2060,
      "ast": 2061,
      "Ġband": 2062,
      "Ġboss": 2063,
      "Ġnique": 2064,
      "Ġrimes": 2065,
      "Ã¨rent": 2066,
      "Ġgenre": 2067,
      "chem": 2068,
      "alle": 2069,
      "ateur": 2070,
      "Ġhist": 2071,
      "aint": 2072,
      "ics": 2073,
      "Ġprends": 2074,
      "Ġprennent": 2075,
      "ader": 2076,
      "Ġarrache": 2077,
      "aye": 2078,
      "ombe": 2079,
      "Ġbleu": 2080,
      "Ġdevenir": 2081,
      "Ġkiff": 2082,
      "iver": 2083,
      "allait": 2084,
      "Ġmarionn": 2085,
      "Pourquoi": 2086,
      "Ġaime": 2087,
      "Ġbouche": 2088,
      "Ġmets": 2089,
      "Ġvisage": 2090,
      "Ġballe": 2091,
      "Ġballes": 2092,
      "Ġacc": 2093,
      "Ġimm": 2094,
      "ĠsÃ»r": 2095,
      "Afrique": 2096,
      "Force": 2097,
      "Gaza": 2098,
      "Nan": 2099,
      "ges": 2100,
      "iquer": 2101,
      "naie": 2102,
      "rouve": 2103,
      "uits": 2104,
      "vres": 2105,
      "voul": 2106,
      "Ġant": 2107,
      "Ġang": 2108,
      "Ġcert": 2109,
      "Ġmorce": 2110,
      "Ġsch": 2111,
      "ara": 2112,
      "Ġfre": 2113,
      "Ġfier": 2114,
      "led": 2115,
      "Ġbeur": 2116,
      "Ġbelles": 2117,
      "Ġbaise": 2118,
      "ĠbientÃ´t": 2119,
      "Ġrage": 2120,
      "iles": 2121,
      "Ã¨nes": 2122,
      "Ġdesc": 2123,
      "Ġgent": 2124,
      "char": 2125,
      "usement": 2126,
      "Ġparents": 2127,
      "Ġmonnaie": 2128,
      "Ġhan": 2129,
      "Ġret": 2130,
      "imb": 2131,
      "Ġprom": 2132,
      "ĠdÃ©l": 2133,
      "Ġmess": 2134,
      "prit": 2135,
      "Ġtrouver": 2136,
      "Ã©pare": 2137,
      "Encore": 2138,
      "Ġblanche": 2139,
      "ingt": 2140,
      "ĠGu": 2141,
      "Ġdevenu": 2142,
      "ĠÃ©crit": 2143,
      "ĠNe": 2144,
      "ĠNord": 2145,
      "Ġjustice": 2146,
      "Ġ10": 2147,
      "Ġmanque": 2148,
      "Ġenfant": 2149,
      "Ġsold": 2150,
      "ĠPanik": 2151,
      "ĠsÅĵurs": 2152,
      "Ġsortir": 2153,
      "connais": 2154,
      "Ġmode": 2155,
      "ĠcÃ´tÃ©": 2156,
      "Ġmarionnettes": 2157,
      "Ah": 2158,
      "Fais": 2159,
      "Grand": 2160,
      "Ton": 2161,
      "lim": 2162,
      "man": 2163,
      "rÃ©s": 2164,
      "utes": 2165,
      "Ġand": 2166,
      "Ġdoul": 2167,
      "Ġdonc": 2168,
      "Ġpanth": 2169,
      "Ġtable": 2170,
      "Ġber": 2171,
      "Ġbus": 2172,
      "Ġbled": 2173,
      "met": 2174,
      "Ġcomprendre": 2175,
      "rac": 2176,
      "Ġautant": 2177,
      "irai": 2178,
      "ĠMC": 2179,
      "ĠMaf": 2180,
      "ĠSois": 2181,
      "Ġtrain": 2182,
      "Ġarrive": 2183,
      "plus": 2184,
      "Ã©lov": 2185,
      "Ġdevient": 2186,
      "ailles": 2187,
      "Ġstyle": 2188,
      "Ġbouge": 2189,
      "parle": 2190,
      "Ġriches": 2191,
      "Ġpleine": 2192,
      "ĠthÃ©": 2193,
      "Ġregarde": 2194,
      "ĠpremiÃ¨re": 2195,
      "ĠderniÃ¨re": 2196,
      "ĠChar": 2197,
      "ĠrÃªves": 2198,
      "ĠdonnÃ©": 2199,
      "Ġsuppl": 2200,
      "ĠgalÃ¨re": 2201,
      "Ġpauvre": 2202,
      "Aucun": 2203,
      "Ġraison": 2204,
      "Ġbanlieue": 2205,
      "ĠMafia": 2206,
      "43": 2207,
      "DÃ©f": 2208,
      "Est": 2209,
      "Woof": 2210,
      "gÃ©r": 2211,
      "iqu": 2212,
      "ks": 2213,
      "pro": 2214,
      "rase": 2215,
      "to": 2216,
      "vis": 2217,
      "voir": 2218,
      "yais": 2219,
      "Ġdom": 2220,
      "Ġlet": 2221,
      "Ġpur": 2222,
      "Ġpeau": 2223,
      "Ġpousse": 2224,
      "ouff": 2225,
      "ana": 2226,
      "Ġtort": 2227,
      "Ġtaule": 2228,
      "Ġfilles": 2229,
      "enterre": 2230,
      "Ġbois": 2231,
      "iner": 2232,
      "inition": 2233,
      "oid": 2234,
      "Ã¨ce": 2235,
      "ates": 2236,
      "atique": 2237,
      "andonne": 2238,
      "Ġchien": 2239,
      "Ġchiff": 2240,
      "tique": 2241,
      "agn": 2242,
      "Ã©cout": 2243,
      "ĠMal": 2244,
      "ĠprÃªt": 2245,
      "Ġsep": 2246,
      "ĠBen": 2247,
      "ĠBou": 2248,
      "Ġtrouv": 2249,
      "Åĵu": 2250,
      "Ã§ons": 2251,
      "ĠcarriÃ¨re": 2252,
      "Ġconcer": 2253,
      "ails": 2254,
      "ĠrÃ©ve": 2255,
      "Parle": 2256,
      "cherche": 2257,
      "Ġcoll": 2258,
      "Ġsales": 2259,
      "Ġjouer": 2260,
      "oudre": 2261,
      "comp": 2262,
      "Ġcherche": 2263,
      "ĠtirÃ©": 2264,
      "affe": 2265,
      "ĠsÃ»rement": 2266,
      "Ġsombre": 2267,
      "Ġheureux": 2268,
      "Ġfilm": 2269,
      "Ġcause": 2270,
      "Enfant": 2271,
      "utionn": 2272,
      "Quelques": 2273,
      "Ġlogique": 2274,
      "Ġpublic": 2275,
      "ĠvoilÃł": 2276,
      "ojo": 2277,
      "Ã©lovution": 2278,
      "Ap": 2279,
      "honneur": 2280,
      "ty": 2281,
      "uir": 2282,
      "Ġ4": 2283,
      "Ġess": 2284,
      "esse": 2285,
      "Ġcad": 2286,
      "Ġcop": 2287,
      "ĠmÃ©l": 2288,
      "anes": 2289,
      "ises": 2290,
      "Ġfus": 2291,
      "enti": 2292,
      "Ġbons": 2293,
      "Ġbande": 2294,
      "Ġnoire": 2295,
      "Ġrad": 2296,
      "teau": 2297,
      "Ã¨ge": 2298,
      "atat": 2299,
      "atac": 2300,
      "ature": 2301,
      "atif": 2302,
      "Ġchau": 2303,
      "Ãªtres": 2304,
      "tions": 2305,
      "Ġouv": 2306,
      "Ġmaison": 2307,
      "ĠASB": 2308,
      "autres": 2309,
      "Ġinc": 2310,
      "ĠÃ©taient": 2311,
      "ivre": 2312,
      "allon": 2313,
      "oyer": 2314,
      "Ġboule": 2315,
      "appel": 2316,
      "Ġrester": 2317,
      "Ġeff": 2318,
      "ĠÃ©poque": 2319,
      "Ġdrogue": 2320,
      "Ġressemble": 2321,
      "Ġpropre": 2322,
      "encre": 2323,
      "Ã©tier": 2324,
      "alker": 2325,
      "Ġquestion": 2326,
      "Ġboulot": 2327,
      "Tes": 2328,
      "cle": 2329,
      "dre": 2330,
      "gÃ©rie": 2331,
      "mar": 2332,
      "ode": 2333,
      "ton": 2334,
      "tor": 2335,
      "Ġerre": 2336,
      "Ĭtre": 2337,
      "Ġlieu": 2338,
      "Ġpil": 2339,
      "Ġpap": 2340,
      "enus": 2341,
      "ende": 2342,
      "oujours": 2343,
      "ĠcitÃ©": 2344,
      "Ġmy": 2345,
      "Ġsil": 2346,
      "Ġsim": 2347,
      "reux": 2348,
      "ĠtÃ©n": 2349,
      "isent": 2350,
      "euse": 2351,
      "Ġfac": 2352,
      "Ġfille": 2353,
      "Ġbonnes": 2354,
      "Ġvic": 2355,
      "Ġventre": 2356,
      "Ġviennent": 2357,
      "ith": 2358,
      "itent": 2359,
      "ital": 2360,
      "Ġrend": 2361,
      "Ã¨che": 2362,
      "Ġgarde": 2363,
      "Ġcomment": 2364,
      "ience": 2365,
      "Ġparadis": 2366,
      "Ġouver": 2367,
      "aves": 2368,
      "pec": 2369,
      "Ġtrou": 2370,
      "isser": 2371,
      "Ġsert": 2372,
      "Ġclasse": 2373,
      "ograp": 2374,
      "Ġexpl": 2375,
      "Ġsouh": 2376,
      "arrÃªte": 2377,
      "arrÃªter": 2378,
      "ĠnÃ©gros": 2379,
      "Ġlaisser": 2380,
      "Ġmicro": 2381,
      "Ġcoco": 2382,
      "Ġbicrave": 2383,
      "Ġbillets": 2384,
      "Is": 2385,
      "Toi": 2386,
      "Tant": 2387,
      "lle": 2388,
      "mÃ©e": 2389,
      "ote": 2390,
      "off": 2391,
      "pes": 2392,
      "son": 2393,
      "xe": 2394,
      "ÃĬtre": 2395,
      "ĠX": 2396,
      "Ġur": 2397,
      "ĠlÃ¢": 2398,
      "Ġpun": 2399,
      "Ġpal": 2400,
      "Ġposs": 2401,
      "Ġcous": 2402,
      "Ã©bre": 2403,
      "Ġmom": 2404,
      "ĠmÃ©f": 2405,
      "ĠmÃ©m": 2406,
      "Ġmaman": 2407,
      "Ġsin": 2408,
      "Ġdehors": 2409,
      "Ġfera": 2410,
      "Ġaff": 2411,
      "lez": 2412,
      "Ġbles": 2413,
      "Ġvaut": 2414,
      "Ġress": 2415,
      "Ġgue": 2416,
      "Ġgaffe": 2417,
      "atter": 2418,
      "Ġpourtant": 2419,
      "emand": 2420,
      "Ã©cu": 2421,
      "Ġrel": 2422,
      "ĠmaÃ®": 2423,
      "ĠMer": 2424,
      "avait": 2425,
      "ĠBr": 2426,
      "ancer": 2427,
      "ings": 2428,
      "ĠbrÃ»": 2429,
      "Ġstalker": 2430,
      "Ġmari": 2431,
      "Ġbouff": 2432,
      "oleil": 2433,
      "tÃ©ri": 2434,
      "Ġtrav": 2435,
      "ĠIn": 2436,
      "Ġmuslim": 2437,
      "Ġ20": 2438,
      "Ġdemand": 2439,
      "Ġdemain": 2440,
      "Ġembrou": 2441,
      "Ġrespect": 2442,
      "Ġsauf": 2443,
      "Ġasse": 2444,
      "ĠUr": 2445,
      "reuve": 2446,
      "aimerais": 2447,
      "erlaine": 2448,
      "Ġhistoires": 2449,
      "voulais": 2450,
      "imbaud": 2451,
      "ĠpanthÃ¨re": 2452,
      "DÃ©finition": 2453,
      "ataclan": 2454,
      "20": 2455,
      "Ceux": 2456,
      "Homme": 2457,
      "Lui": 2458,
      "ave": 2459,
      "cc": 2460,
      "der": 2461,
      "gment": 2462,
      "han": 2463,
      "ias": 2464,
      "noc": 2465,
      "oche": 2466,
      "oÃ¹": 2467,
      "rou": 2468,
      "uie": 2469,
      "Ġesp": 2470,
      "Ġdoig": 2471,
      "Ġpois": 2472,
      "Ġprie": 2473,
      "oue": 2474,
      "Ġmas": 2475,
      "ĠmÃ©tier": 2476,
      "Ġsel": 2477,
      "Ġfe": 2478,
      "ĠfaÃ§on": 2479,
      "Ġbol": 2480,
      "Ġbob": 2481,
      "Ġras": 2482,
      "Ġrendre": 2483,
      "ĠÃī": 2484,
      "oracle": 2485,
      "ouse": 2486,
      "Ġcompl": 2487,
      "Ġchiens": 2488,
      "Ġparles": 2489,
      "Ġpleur": 2490,
      "ames": 2491,
      "apprends": 2492,
      "Ġhour": 2493,
      "Ã©tro": 2494,
      "endent": 2495,
      "abandonne": 2496,
      "ĠSh": 2497,
      "ĠCÃ©s": 2498,
      "occ": 2499,
      "utÃ´t": 2500,
      "Ġint": 2501,
      "Ġarabe": 2502,
      "Ã´mes": 2503,
      "Ã©rÃ©": 2504,
      "Ã§u": 2505,
      "Ã©nom": 2506,
      "Ġcarte": 2507,
      "Ġcru": 2508,
      "Ġguer": 2509,
      "Ġstop": 2510,
      "Ġstud": 2511,
      "Ġpasser": 2512,
      "osses": 2513,
      "aissent": 2514,
      "impression": 2515,
      "Ġperdre": 2516,
      "attends": 2517,
      "Ġcompte": 2518,
      "ormais": 2519,
      "oign": 2520,
      "Ġvitale": 2521,
      "Ġvoiture": 2522,
      "Ġmecs": 2523,
      "envoie": 2524,
      "Ġvoulais": 2525,
      "Ġpoing": 2526,
      "Ġpoint": 2527,
      "ramÃ¨ne": 2528,
      "Ġlongtemps": 2529,
      "Ġconfiance": 2530,
      "Ġviolence": 2531,
      "ĠrÃ©volutionn": 2532,
      "ĠArabe": 2533,
      "Ġconseils": 2534,
      "Ġennemis": 2535,
      "inquiÃ¨te": 2536,
      "HÃ©": 2537,
      "Ni": 2538,
      "Toujours": 2539,
      "aj": 2540,
      "avec": 2541,
      "bain": 2542,
      "dien": 2543,
      "hi": 2544,
      "ial": 2545,
      "iant": 2546,
      "pri": 2547,
      "porte": 2548,
      "ttes": 2549,
      "ven": 2550,
      "Ã¡": 2551,
      "Ġ?": 2552,
      "Ġdo": 2553,
      "Ġpierre": 2554,
      "enn": 2555,
      "Ġcre": 2556,
      "Ġcord": 2557,
      "ones": 2558,
      "onse": 2559,
      "ĠmÃ©": 2560,
      "Ġmens": 2561,
      "Ġmaud": 2562,
      "Ġsap": 2563,
      "Ġsaig": 2564,
      "Ġtoit": 2565,
      "Ġquoti": 2566,
      "Ġquatre": 2567,
      "iser": 2568,
      "Ġfol": 2569,
      "ley": 2570,
      "lever": 2571,
      "Ġbab": 2572,
      "Ġvrais": 2573,
      "Ġvert": 2574,
      "Ġnour": 2575,
      "Ġnouve": 2576,
      "Ġnormal": 2577,
      "Ġris": 2578,
      "Ġcompris": 2579,
      "antes": 2580,
      "rad": 2581,
      "Ġchance": 2582,
      "Ġhy": 2583,
      "emb": 2584,
      "Ġmaj": 2585,
      "otes": 2586,
      "onnÃ©": 2587,
      "igr": 2588,
      "Ġsiff": 2589,
      "ĠBataclan": 2590,
      "Ġfroid": 2591,
      "uire": 2592,
      "illent": 2593,
      "ouvre": 2594,
      "ĠRimbaud": 2595,
      "Ġblag": 2596,
      "Ġcroix": 2597,
      "verse": 2598,
      "Ġquelque": 2599,
      "Ġvraies": 2600,
      "Ġfleurs": 2601,
      "part": 2602,
      "Ġmettent": 2603,
      "Aujourd": 2604,
      "Ġ200": 2605,
      "Ġphot": 2606,
      "Ġcommun": 2607,
      "ĠEm": 2608,
      "Ġnoirs": 2609,
      "enfants": 2610,
      "Ġpouce": 2611,
      "Ġaucun": 2612,
      "Ġchanter": 2613,
      "oublie": 2614,
      "Ã©bÃ©": 2615,
      "Ġpiges": 2616,
      "rassens": 2617,
      "Ġfreest": 2618,
      "Ġcordes": 2619,
      "AprÃ¨s": 2620,
      "Deux": 2621,
      "Faire": 2622,
      "Heure": 2623,
      "Leurs": 2624,
      "Non": 2625,
      "Puis": 2626,
      "Sous": 2627,
      "Verlaine": 2628,
      "cal": 2629,
      "cÃ¨s": 2630,
      "eb": 2631,
      "feu": 2632,
      "gn": 2633,
      "hy": 2634,
      "heur": 2635,
      "iche": 2636,
      "jec": 2637,
      "ka": 2638,
      "och": 2639,
      "rang": 2640,
      "tin": 2641,
      "tom": 2642,
      "umes": 2643,
      "Ġ7": 2644,
      "ĠQue": 2645,
      "Ġuh": 2646,
      "Ġdr": 2647,
      "Ġlois": 2648,
      "Ġpont": 2649,
      "oun": 2650,
      "Ġcy": 2651,
      "Ġcla": 2652,
      "Ġcasse": 2653,
      "Ġmurs": 2654,
      "Ġsoleil": 2655,
      "Ġtap": 2656,
      "ĠtÃ´t": 2657,
      "enter": 2658,
      "lem": 2659,
      "Ġbre": 2660,
      "Ġbais": 2661,
      "Ġbah": 2662,
      "inter": 2663,
      "Ġvas": 2664,
      "Ġnum": 2665,
      "Ġnouv": 2666,
      "orÃ©": 2667,
      "oids": 2668,
      "Ġgo": 2669,
      "Ġgrave": 2670,
      "chl": 2671,
      "Ġenc": 2672,
      "ateurs": 2673,
      "onter": 2674,
      "Ġparmi": 2675,
      "Ã©cl": 2676,
      "Ġrecherche": 2677,
      "iroir": 2678,
      "acun": 2679,
      "ignes": 2680,
      "ĠPremier": 2681,
      "Ġtrait": 2682,
      "Ġwesh": 2683,
      "ibi": 2684,
      "Ġrapper": 2685,
      "Ali": 2686,
      "very": 2687,
      "Ã©ric": 2688,
      "Chez": 2689,
      "Ġcode": 2690,
      "Ġcoff": 2691,
      "ike": 2692,
      "Ġconsc": 2693,
      "Ġparlerai": 2694,
      "Ġvenu": 2695,
      "ligent": 2696,
      "ĠproblÃ¨me": 2697,
      "ĠÃ©quipe": 2698,
      "Ġlyric": 2699,
      "Ġpolitique": 2700,
      "Ġassez": 2701,
      "DÃ©s": 2702,
      "Jamais": 2703,
      "St": 2704,
      "Tellement": 2705,
      "dition": 2706,
      "ih": 2707,
      "ieur": 2708,
      "iÃ©s": 2709,
      "mÃ©s": 2710,
      "pour": 2711,
      "pars": 2712,
      "uff": 2713,
      "voit": 2714,
      "xi": 2715,
      "esprit": 2716,
      "Ġpresse": 2717,
      "eng": 2718,
      "ences": 2719,
      "ouf": 2720,
      "Ġmyth": 2721,
      "Ġsorte": 2722,
      "arri": 2723,
      "euses": 2724,
      "Ġfour": 2725,
      "entir": 2726,
      "asc": 2727,
      "Ġbul": 2728,
      "Ġbomb": 2729,
      "Ġbails": 2730,
      "Ġverre": 2731,
      "Ġvingt": 2732,
      "itaire": 2733,
      "itÃ©s": 2734,
      "ĠrÃ¨g": 2735,
      "Ġleader": 2736,
      "org": 2737,
      "Ġdess": 2738,
      "ĠgÃ¢": 2739,
      "Ġgosses": 2740,
      "aler": 2741,
      "alcool": 2742,
      "Ġeng": 2743,
      "Ġendro": 2744,
      "atric": 2745,
      "Ġdurer": 2746,
      "Ãªts": 2747,
      "Ġplais": 2748,
      "ĠhÃ©": 2749,
      "Ġsurv": 2750,
      "Ġouh": 2751,
      "Ġoui": 2752,
      "act": 2753,
      "onnent": 2754,
      "ĠprÃ¨s": 2755,
      "ĠdÃ©ch": 2756,
      "Ġfaits": 2757,
      "Ġtriste": 2758,
      "ĠDi": 2759,
      "illage": 2760,
      "Ġgren": 2761,
      "Ġdisques": 2762,
      "Ã´me": 2763,
      "idÃ©": 2764,
      "Ouh": 2765,
      "Ġconv": 2766,
      "Ġdeviennent": 2767,
      "Ġkh": 2768,
      "Ġkil": 2769,
      "Ġkick": 2770,
      "Ġgrandes": 2771,
      "Ã¢ce": 2772,
      "Ġcontin": 2773,
      "Ġforme": 2774,
      "oseille": 2775,
      "Ġpartir": 2776,
      "Ġsavais": 2777,
      "Ġcommence": 2778,
      "ĠmaniÃ¨re": 2779,
      "Ġferme": 2780,
      "ipi": 2781,
      "Ġtourne": 2782,
      "comm": 2783,
      "Ġminutes": 2784,
      "flu": 2785,
      "ĠrÃ©col": 2786,
      "Ġcalme": 2787,
      "Ġvoulait": 2788,
      "ailleurs": 2789,
      "Ġappel": 2790,
      "Ġfaim": 2791,
      "Ġremplir": 2792,
      "Ġlivre": 2793,
      "ĠPanther": 2794,
      "immy": 2795,
      "Ġrebeus": 2796,
      "ĠJean": 2797,
      "Petit": 2798,
      "Ã¼s": 2799,
      "Ġtextes": 2800,
      "Ġmorceau": 2801,
      "Ġhouri": 2802,
      "Ġquotidien": 2803,
      "37": 2804,
      "Am": 2805,
      "An": 2806,
      "BientÃ´t": 2807,
      "Leur": 2808,
      "Mus": 2809,
      "Nique": 2810,
      "bois": 2811,
      "cÃ©": 2812,
      "cont": 2813,
      "hÃ´": 2814,
      "jets": 2815,
      "mment": 2816,
      "pa": 2817,
      "sp": 2818,
      "tte": 2819,
      "ye": 2820,
      "Ġ5": 2821,
      "ĠÃ©g": 2822,
      "encer": 2823,
      "Ġcass": 2824,
      "Ġcann": 2825,
      "Ġmoit": 2826,
      "anch": 2827,
      "Ġtor": 2828,
      "Ġjuge": 2829,
      "arc": 2830,
      "ĠfÃªte": 2831,
      "Ġbac": 2832,
      "Ġboute": 2833,
      "Ġvendre": 2834,
      "Ġner": 2835,
      "Ã¨tres": 2836,
      "auche": 2837,
      "ata": 2838,
      "anter": 2839,
      "osqu": 2840,
      "Ġaujourd": 2841,
      "riÃ¨res": 2842,
      "Ġplac": 2843,
      "timent": 2844,
      "tirÃ©": 2845,
      "Ġhood": 2846,
      "iez": 2847,
      "ottes": 2848,
      "orts": 2849,
      "onnerre": 2850,
      "avenir": 2851,
      "ĠprÃ©f": 2852,
      "ĠBarb": 2853,
      "ull": 2854,
      "ĠAn": 2855,
      "Ġinst": 2856,
      "Ġinflu": 2857,
      "Ã©ration": 2858,
      "ĠRap": 2859,
      "essaie": 2860,
      "Ġwe": 2861,
      "Ġgrosses": 2862,
      "ĠTerre": 2863,
      "ĠÃ©crire": 2864,
      "Ġserait": 2865,
      "Ġclass": 2866,
      "Ġclub": 2867,
      "ĠrÃ©f": 2868,
      "eck": 2869,
      "odes": 2870,
      "Ã©rique": 2871,
      "maÃ¼s": 2872,
      "ĠcolÃ¨re": 2873,
      "Ġamour": 2874,
      "Ġvoile": 2875,
      "Ġrime": 2876,
      "Ġpatrie": 2877,
      "Ġpropres": 2878,
      "ĠdÃ©pou": 2879,
      "Ġcrime": 2880,
      "Ġprofond": 2881,
      "ohn": 2882,
      "Ġbuts": 2883,
      "osteur": 2884,
      "ĠdÃ©mons": 2885,
      "Ġcamp": 2886,
      "Ġcerveau": 2887,
      "Ġdirait": 2888,
      "ĠSeine": 2889,
      "Ġloups": 2890,
      "Ġsupplie": 2891,
      "ĠtÃ©nÃ©bre": 2892,
      "ĠmÃ©moire": 2893,
      "ĠmaÃ®tre": 2894,
      "ĠUrbain": 2895,
      "Ġphotos": 2896,
      "Ġplaisir": 2897,
      "Comb": 2898,
      "Every": 2899,
      "Fuck": 2900,
      "Han": 2901,
      "Premier": 2902,
      "Toute": 2903,
      "don": 2904,
      "fond": 2905,
      "ki": 2906,
      "ky": 2907,
      "lles": 2908,
      "nous": 2909,
      "nation": 2910,
      "ove": 2911,
      "rÃ©e": 2912,
      "sta": 2913,
      "tra": 2914,
      "we": 2915,
      "Ġira": 2916,
      "Ġloi": 2917,
      "Ġpoign": 2918,
      "oux": 2919,
      "Ġcab": 2920,
      "Ġciv": 2921,
      "Ġcelles": 2922,
      "Ġcible": 2923,
      "Ã©qu": 2924,
      "Ã©rer": 2925,
      "Ġsomme": 2926,
      "Ġsport": 2927,
      "anches": 2928,
      "quant": 2929,
      "quette": 2930,
      "erais": 2931,
      "Ġjur": 2932,
      "Ġjette": 2933,
      "Ġjug": 2934,
      "arche": 2935,
      "euve": 2936,
      "Ġfasse": 2937,
      "Ġfoule": 2938,
      "Ġbibi": 2939,
      "Ġlame": 2940,
      "iness": 2941,
      "ĠvÃªte": 2942,
      "itiÃ©": 2943,
      "Ġrom": 2944,
      "Ġriv": 2945,
      "Ġresp": 2946,
      "ĠleÃ§on": 2947,
      "aul": 2948,
      "augment": 2949,
      "antÃ©": 2950,
      "rav": 2951,
      "Ġchier": 2952,
      "ĠchaÃ®": 2953,
      "Ġchange": 2954,
      "Ġchair": 2955,
      "Ġchante": 2956,
      "Ġplomb": 2957,
      "ĠplutÃ´t": 2958,
      "Ã©crire": 2959,
      "Ġred": 2960,
      "Ġtue": 2961,
      "ĠprÃ©c": 2962,
      "ĠSt": 2963,
      "lave": 2964,
      "ĠAir": 2965,
      "Ġtrente": 2966,
      "Ġfront": 2967,
      "ĠDin": 2968,
      "ueil": 2969,
      "ĠgrÃ¢ce": 2970,
      "Ġproch": 2971,
      "Ġcroient": 2972,
      "Ã¢ge": 2973,
      "Ġniveau": 2974,
      "ĠJack": 2975,
      "Ġconnard": 2976,
      "Ãītat": 2977,
      "Ġtravers": 2978,
      "Ġ11": 2979,
      "Ġpassent": 2980,
      "Ġamis": 2981,
      "ĠattirÃ©": 2982,
      "Ġprison": 2983,
      "enfant": 2984,
      "Ġpolice": 2985,
      "ĠdÃ©tr": 2986,
      "Ġfautes": 2987,
      "Ġdrame": 2988,
      "Ġmeilleure": 2989,
      "berg": 2990,
      "Ġanim": 2991,
      "ĠquittÃ©": 2992,
      "Ġcharge": 2993,
      "Ġblancs": 2994,
      "Ġprix": 2995,
      "itude": 2996,
      "Ġbizarre": 2997,
      "shir": 2998,
      "Ġcinq": 2999,
      "Ġslog": 3000,
      "ĠdiffÃ©r": 3001,
      "Ġsoldats": 3002,
      "Ġsimple": 3003,
      "Ġpunchl": 3004,
      "Ġbless": 3005,
      "Ġguez": 3006,
      "ĠrÃ©volutionnaires": 3007,
      "ĠEmmaÃ¼s": 3008,
      "Ġinfluence": 3009,
      "augmentation": 3010,
      "Aux": 3011,
      "Bangerang": 3012,
      "Brassens": 3013,
      "Em": 3014,
      "Gu": 3015,
      "Ind": 3016,
      "Ok": 3017,
      "Peu": 3018,
      "Trop": 3019,
      "aa": 3020,
      "bes": 3021,
      "bon": 3022,
      "car": 3023,
      "cent": 3024,
      "citÃ©": 3025,
      "dit": 3026,
      "ep": 3027,
      "nt": 3028,
      "ops": 3029,
      "pas": 3030,
      "rom": 3031,
      "wer": 3032,
      "Ġit": 3033,
      "Ġout": 3034,
      "ĠOn": 3035,
      "ĠÅĵil": 3036,
      "Ġlu": 3037,
      "Ġlion": 3038,
      "Ġlune": 3039,
      "Ġloup": 3040,
      "Ġlaisse": 3041,
      "Ġlorsque": 3042,
      "Ġpan": 3043,
      "ĠpÃ¨res": 3044,
      "Ġpop": 3045,
      "ĠpÃ©ri": 3046,
      "Ġpendant": 3047,
      "Ġpoids": 3048,
      "aide": 3049,
      "Ġcoin": 3050,
      "Ġcaf": 3051,
      "Ã©h": 3052,
      "onie": 3053,
      "onge": 3054,
      "Ġmit": 3055,
      "Ġmiroir": 3056,
      "Ġmosqu": 3057,
      "Ġsoul": 3058,
      "Ġsub": 3059,
      "isc": 3060,
      "ision": 3061,
      "Ġfonc": 3062,
      "Ġfallait": 3063,
      "lek": 3064,
      "lement": 3065,
      "Ġbi": 3066,
      "ĠbÃªte": 3067,
      "Ġboy": 3068,
      "inÃ©": 3069,
      "inte": 3070,
      "Ġvoud": 3071,
      "Ġvotre": 3072,
      "Ġnu": 3073,
      "itch": 3074,
      "ourÃ©": 3075,
      "Ġrent": 3076,
      "Ġrose": 3077,
      "Ġroule": 3078,
      "Ġrhum": 3079,
      "Ġryth": 3080,
      "ĠrÃ´le": 3081,
      "omm": 3082,
      "oici": 3083,
      "atou": 3084,
      "attent": 3085,
      "antÃ¡": 3086,
      "rim": 3087,
      "rip": 3088,
      "rice": 3089,
      "Ġhonte": 3090,
      "olog": 3091,
      "oise": 3092,
      "iction": 3093,
      "ĠprÃ©nom": 3094,
      "ĠSal": 3095,
      "uls": 3096,
      "ulaire": 3097,
      "prÃ©s": 3098,
      "ĠAnd": 3099,
      "Ġcouler": 3100,
      "autÃ©": 3101,
      "Ġprot": 3102,
      "ouvent": 3103,
      "Ġvide": 3104,
      "expl": 3105,
      "Ġcond": 3106,
      "ĠcrÃ¢": 3107,
      "Ġclair": 3108,
      "ook": 3109,
      "ifie": 3110,
      "ĠJimmy": 3111,
      "oyen": 3112,
      "Ġseum": 3113,
      "Ġappr": 3114,
      "annÃ©e": 3115,
      "imposteur": 3116,
      "Ġatta": 3117,
      "stÃ¨me": 3118,
      "Ġemp": 3119,
      "iceberg": 3120,
      "Ġpensent": 3121,
      "Ġterr": 3122,
      "Ġrouler": 3123,
      "Ġpropos": 3124,
      "Ġmagique": 3125,
      "Ġchercher": 3126,
      "intÃ©g": 3127,
      "oiles": 3128,
      "Ġdonner": 3129,
      "ĠdÃ©goÃ»": 3130,
      "Ġchef": 3131,
      "Ġsenti": 3132,
      "ĠProof": 3133,
      "Ġchanson": 3134,
      "Ġdaronne": 3135,
      "Ġjeunesse": 3136,
      "croyais": 3137,
      "ĠPanthÃ¨re": 3138,
      "ĠancÃªtres": 3139,
      "Ġmachine": 3140,
      "ĠbÃ©nÃ©f": 3141,
      "Ġchoisi": 3142,
      "Ġchemin": 3143,
      "Ġreufs": 3144,
      "Ġtitre": 3145,
      "namo": 3146,
      "Ġmessage": 3147,
      "Ġdouleur": 3148,
      "gÃ©rien": 3149,
      "Ġouvert": 3150,
      "ograph": 3151,
      "Ġmoment": 3152,
      "Ġmariage": 3153,
      "Ġembrouilles": 3154,
      "Ġbobos": 3155,
      "Ġstudio": 3156,
      "Ã©ricain": 3157,
      "ihad": 3158,
      "ĠtÃ©nÃ©breux": 3159,
      "antÃ¡namo": 3160,
      "Ad": 3161,
      "Aut": 3162,
      "Bah": 3163,
      "cri": 3164,
      "cÅĵur": 3165,
      "gle": 3166,
      "her": 3167,
      "ieurs": 3168,
      "jus": 3169,
      "mÃ¨ne": 3170,
      "place": 3171,
      "rÃ¨s": 3172,
      "tout": 3173,
      "teurs": 3174,
      "trois": 3175,
      "ument": 3176,
      "zz": 3177,
      "Ġ6": 3178,
      "ĠEl": 3179,
      "Ġdest": 3180,
      "Ġdim": 3181,
      "Ġday": 3182,
      "Ġlun": 3183,
      "ĠlÃ¨": 3184,
      "Ġlut": 3185,
      "ĠpÃª": 3186,
      "oum": 3187,
      "aim": 3188,
      "Ġcir": 3189,
      "Ġmou": 3190,
      "Ġmise": 3191,
      "Ġsab": 3192,
      "Ġsing": 3193,
      "Ġsoient": 3194,
      "err": 3195,
      "Ġtens": 3196,
      "Ġquar": 3197,
      "Ġjui": 3198,
      "ister": 3199,
      "arres": 3200,
      "Ġfrapp": 3201,
      "Ġach": 3202,
      "entend": 3203,
      "entendre": 3204,
      "Ġbres": 3205,
      "Ġbase": 3206,
      "Ġlab": 3207,
      "inture": 3208,
      "Ġray": 3209,
      "Ġrues": 3210,
      "ĠrÃ©tro": 3211,
      "ettent": 3212,
      "ores": 3213,
      "Ġgag": 3214,
      "Ġgaz": 3215,
      "Ġglace": 3216,
      "chaÃ®": 3217,
      "allah": 3218,
      "urg": 3219,
      "Ġensemble": 3220,
      "cep": 3221,
      "Ġautour": 3222,
      "Ġchap": 3223,
      "Ġchich": 3224,
      "Ġchatte": 3225,
      "rible": 3226,
      "ĠparaÃ®t": 3227,
      "Ġhor": 3228,
      "Ġhard": 3229,
      "Ġrelig": 3230,
      "icule": 3231,
      "igue": 3232,
      "avance": 3233,
      "ĠCl": 3234,
      "ĠChe": 3235,
      "Ã©ph": 3236,
      "ado": 3237,
      "Ġore": 3238,
      "ĠarriÃ¨re": 3239,
      "Ã´les": 3240,
      "Ã§oit": 3241,
      "ides": 3242,
      "ĠFallon": 3243,
      "Ã©ner": 3244,
      "ĠcrÃ©": 3245,
      "Ġcris": 3246,
      "issage": 3247,
      "Ġgrande": 3248,
      "ifier": 3249,
      "Ġdipl": 3250,
      "ĠconnaÃ®tre": 3251,
      "ĠÃ©ch": 3252,
      "Ġfini": 3253,
      "Ġfleur": 3254,
      "Ġperds": 3255,
      "Ġvoie": 3256,
      "oncÃ©": 3257,
      "own": 3258,
      "Ġphras": 3259,
      "Ġphrase": 3260,
      "Ġjouent": 3261,
      "Ġdemi": 3262,
      "sses": 3263,
      "ize": 3264,
      "Ġvision": 3265,
      "Ġvisages": 3266,
      "Ġempl": 3267,
      "ignon": 3268,
      "Ġcourant": 3269,
      "Ġthug": 3270,
      "Ġtourner": 3271,
      "Ġpremiers": 3272,
      "ĠnÃ©gligent": 3273,
      "Ġpayer": 3274,
      "ĠtroisiÃ¨me": 3275,
      "Ġrenois": 3276,
      "Ġquitter": 3277,
      "Ġsembl": 3278,
      "ĠjournÃ©e": 3279,
      "ĠProtest": 3280,
      "issement": 3281,
      "ĠpÃ©tro": 3282,
      "Ġalbums": 3283,
      "Aucune": 3284,
      "Comment": 3285,
      "Ġmission": 3286,
      "Ġoim": 3287,
      "Petite": 3288,
      "iendra": 3289,
      "ylo": 3290,
      "Ġmorale": 3291,
      "Ġbuil": 3292,
      "forme": 3293,
      "ĠchangÃ©": 3294,
      "chemin": 3295,
      "Ġconcert": 3296,
      "Ġtravail": 3297,
      "nocent": 3298,
      "Ġfolie": 3299,
      "Ġlyrics": 3300,
      "Ġbombes": 3301,
      ".:": 3302,
      "Ab": 3303,
      "Celui": 3304,
      "Jus": 3305,
      "Se": 3306,
      "Sau": 3307,
      "Sal": 3308,
      "Voici": 3309,
      "bout": 3310,
      "cus": 3311,
      "ek": 3312,
      "fil": 3313,
      "font": 3314,
      "gl": 3315,
      "gles": 3316,
      "grÃ©": 3317,
      "har": 3318,
      "ires": 3319,
      "jeu": 3320,
      "ls": 3321,
      "lock": 3322,
      "ome": 3323,
      "pos": 3324,
      "put": 3325,
      "rine": 3326,
      "ruc": 3327,
      "sy": 3328,
      "toire": 3329,
      "«l": 3330,
      "Ã«l": 3331,
      "Ġdois": 3332,
      "ĠdÃ¨s": 3333,
      "Ġlire": 3334,
      "ĠpÃ¢": 3335,
      "enait": 3336,
      "ouk": 3337,
      "ĠcÃ©l": 3338,
      "Ġcentre": 3339,
      "Ġcache": 3340,
      "onf": 3341,
      "ĠmÃ©ch": 3342,
      "Ġsoi": 3343,
      "Ġsui": 3344,
      "Ġspl": 3345,
      "quin": 3346,
      "quettes": 3347,
      "erie": 3348,
      "Ġty": 3349,
      "Ġtel": 3350,
      "Ġtient": 3351,
      "Ġtatou": 3352,
      "Ġfen": 3353,
      "Ġfig": 3354,
      "Ġfoudre": 3355,
      "entes": 3356,
      "ĠbÃ©d": 3357,
      "Ġbate": 3358,
      "Ġbiat": 3359,
      "Ġvoc": 3360,
      "Ġvenir": 3361,
      "Ġveste": 3362,
      "Ġnav": 3363,
      "Ġneuf": 3364,
      "Ġnigg": 3365,
      "Ġnombre": 3366,
      "Ġrat": 3367,
      "ĠrÃ©lovution": 3368,
      "oile": 3369,
      "Ã¨le": 3370,
      "Ã¨de": 3371,
      "Ġgam": 3372,
      "Ġgare": 3373,
      "Ġgauche": 3374,
      "aura": 3375,
      "usc": 3376,
      "Ġencul": 3377,
      "atur": 3378,
      "atoire": 3379,
      "Ġdure": 3380,
      "ami": 3381,
      "amp": 3382,
      "tive": 3383,
      "Ġhors": 3384,
      "Ġhall": 3385,
      "Ġhiver": 3386,
      "Ġouvre": 3387,
      "irais": 3388,
      "ĠMont": 3389,
      "ĠMade": 3390,
      "abl": 3391,
      "ige": 3392,
      "Ġprin": 3393,
      "ĠsiÃ¨": 3394,
      "ĠSaint": 3395,
      "oint": 3396,
      "oindre": 3397,
      "late": 3398,
      "uxelles": 3399,
      "ĠDojo": 3400,
      "illeur": 3401,
      "illard": 3402,
      "Ġgris": 3403,
      "Ġok": 3404,
      "assent": 3405,
      "Ġtaff": 3406,
      "ingues": 3407,
      "Ġwh": 3408,
      "Ġwoh": 3409,
      "Ġconc": 3410,
      "ĠGr": 3411,
      "Ġmalad": 3412,
      "ĠÃ©coles": 3413,
      "Ġseront": 3414,
      "ĠrÃ©uss": 3415,
      "ĠrÃ©fl": 3416,
      "Ġrappel": 3417,
      "Alger": 3418,
      "Ġdiable": 3419,
      "Ġconnait": 3420,
      "Ġcontent": 3421,
      "ĠdeuxiÃ¨me": 3422,
      "Ġtraverse": 3423,
      "achÃ¨te": 3424,
      "Ġ16": 3425,
      "ĠFranÃ§ais": 3426,
      "Ã¯d": 3427,
      "ĠdÃ©cl": 3428,
      "Ġ243": 3429,
      "Ġcommand": 3430,
      "Ġentendre": 3431,
      "ĠentourÃ©": 3432,
      "attend": 3433,
      "Ġcourt": 3434,
      "Ġthunes": 3435,
      "Ġpersonnes": 3436,
      "ĠMarse": 3437,
      "Ġsortes": 3438,
      "Ġsortent": 3439,
      "Ġrespec": 3440,
      "oigne": 3441,
      "Ġforts": 3442,
      "ĠcoupÃ©": 3443,
      "Ġpaye": 3444,
      "ĠdÃ©sormais": 3445,
      "Ġcroit": 3446,
      "habat": 3447,
      "habite": 3448,
      "Ġabs": 3449,
      "Ġmeilleurs": 3450,
      "ĠÃ¢ge": 3451,
      "Ġquitte": 3452,
      "Ġorig": 3453,
      "Ġlibre": 3454,
      "Ġfaibles": 3455,
      "human": 3456,
      "Ã©tique": 3457,
      "Ġlivres": 3458,
      "Ġquestions": 3459,
      "ĠidÃ©es": 3460,
      "ĠpoussiÃ¨re": 3461,
      "ĠrÃ©gler": 3462,
      "ĠgarÃ§on": 3463,
      "raÃ®ne": 3464,
      "Ġreuf": 3465,
      "Allons": 3466,
      "Ġbeurre": 3467,
      "Ġlettres": 3468,
      "ĠCÃ©sar": 3469,
      "Ġsapes": 3470,
      "Ġbaiser": 3471,
      "Ġphrases": 3472,
      "Ġbiatch": 3473,
      "ĠrÃ©flÃ©ch": 3474,
      "Acc": 3475,
      "AÃ¯d": 3476,
      "Br": 3477,
      "Beau": 3478,
      "Souvent": 3479,
      "Tosma": 3480,
      "Vu": 3481,
      "aw": 3482,
      "ax": 3483,
      "dou": 3484,
      "eh": 3485,
      "eilleur": 3486,
      "fou": 3487,
      "gent": 3488,
      "lÃ¨": 3489,
      "mÃ¨re": 3490,
      "na": 3491,
      "ny": 3492,
      "rin": 3493,
      "rÃ©p": 3494,
      "uÃ©": 3495,
      "uche": 3496,
      "ubl": 3497,
      "vi": 3498,
      "viv": 3499,
      "Ġ8": 3500,
      "ĠUn": 3501,
      "Ġdoc": 3502,
      "Ġdivers": 3503,
      "Ġpes": 3504,
      "Ġpres": 3505,
      "Ġpoit": 3506,
      "ĠcÃ¢": 3507,
      "Ã©ra": 3508,
      "Ġmur": 3509,
      "Ġmif": 3510,
      "quar": 3511,
      "eries": 3512,
      "Ġjol": 3513,
      "isant": 3514,
      "arme": 3515,
      "Ġfi": 3516,
      "Ġah": 3517,
      "Ġbro": 3518,
      "Ġbad": 3519,
      "Ġbasse": 3520,
      "Ġbangerang": 3521,
      "ĠlaÃ¯": 3522,
      "Ġve": 3523,
      "Ġvillage": 3524,
      "Ġno": 3525,
      "Ġnul": 3526,
      "Ġnett": 3527,
      "itre": 3528,
      "med": 3529,
      "ourn": 3530,
      "Ġroute": 3531,
      "Ġrare": 3532,
      "Ġrats": 3533,
      "ĠgÃ©": 3534,
      "Ġgre": 3535,
      "Ġgosse": 3536,
      "Ġgagne": 3537,
      "aute": 3538,
      "aurai": 3539,
      "chi": 3540,
      "ush": 3541,
      "ela": 3542,
      "vez": 3543,
      "Ġpourrais": 3544,
      "Ġparole": 3545,
      "Ġplas": 3546,
      "Ġpluie": 3547,
      "apt": 3548,
      "apapa": 3549,
      "Ġher": 3550,
      "agÃ©": 3551,
      "empl": 3552,
      "Ġrefr": 3553,
      "ĠMec": 3554,
      "ainte": 3555,
      "oirs": 3556,
      "avant": 3557,
      "ĠprÃ©fÃ¨re": 3558,
      "ĠdÃ©n": 3559,
      "ĠSi": 3560,
      "ĠSn": 3561,
      "ĠSud": 3562,
      "ultes": 3563,
      "ĠCor": 3564,
      "Ġcouper": 3565,
      "Ġcouleurs": 3566,
      "Ã©par": 3567,
      "Ġavent": 3568,
      "Ġpeuvent": 3569,
      "ider": 3570,
      "Ġcrise": 3571,
      "issant": 3572,
      "Ġdiri": 3573,
      "Ġpoche": 3574,
      "Ã©rif": 3575,
      "Ġcolle": 3576,
      "Toutes": 3577,
      "parler": 3578,
      "Ã©min": 3579,
      "Ġamou": 3580,
      "Ġsavait": 3581,
      "Ġbonheur": 3582,
      "iffÃ©r": 3583,
      "Ġdirect": 3584,
      "Ġprisons": 3585,
      "Ġdouze": 3586,
      "Ġemb": 3587,
      "Ġdroite": 3588,
      "Ġregret": 3589,
      "ĠmisÃ¨re": 3590,
      "Ġraconte": 3591,
      "akar": 3592,
      "Ġcombatt": 3593,
      "ĠposÃ©": 3594,
      "Ġfamil": 3595,
      "Ġconstr": 3596,
      "Ġmentir": 3597,
      "Ġbeat": 3598,
      "Ġbelek": 3599,
      "Ġimages": 3600,
      "Ġchauds": 3601,
      "Ġseulement": 3602,
      "Ġaurait": 3603,
      "incar": 3604,
      "Ġcouplet": 3605,
      "Ġtirs": 3606,
      "Ġdrape": 3607,
      "Ġsemaine": 3608,
      "ramme": 3609,
      "Ġvoyous": 3610,
      "Ġhumain": 3611,
      "Ġmillions": 3612,
      "ĠplanÃ¨te": 3613,
      "Ġrentrer": 3614,
      "Ġobs": 3615,
      "ĠtÃ©lÃ©ph": 3616,
      "ĠsociÃ©tÃ©": 3617,
      "attire": 3618,
      "attirent": 3619,
      "ĠfrÃ©rots": 3620,
      "ĠcontrÃ´le": 3621,
      "Ġbourreaux": 3622,
      "Ġparfois": 3623,
      "Ġproduit": 3624,
      "Ġdescend": 3625,
      "Ġgentil": 3626,
      "ĠGuantÃ¡namo": 3627,
      "mettre": 3628,
      "Ġrichesse": 3629,
      "Ġchiffres": 3630,
      "ĠrÃ©veille": 3631,
      "Ġerreurs": 3632,
      "Ġsouhaite": 3633,
      "201": 3634,
      "Ġnouveau": 3635,
      "Ġfreesty": 3636,
      "Stop": 3637,
      "Ġgrenier": 3638,
      "ĠmoitiÃ©": 3639,
      "ĠBarbapapa": 3640,
      "ĠvÃªtements": 3641,
      "Ġslogan": 3642,
      "oiseaux": 3643,
      "Sauf": 3644,
      "Beaucoup": 3645,
      "ĠMecque": 3646,
      "Can": 3647,
      "Din": 3648,
      "DÃ©c": 3649,
      "DiffÃ©r": 3650,
      "Faud": 3651,
      "Hein": 3652,
      "Rap": 3653,
      "Tr": 3654,
      "Vas": 3655,
      "Vous": 3656,
      "cles": 3657,
      "col": 3658,
      "cule": 3659,
      "fin": 3660,
      "gÃ©": 3661,
      "gal": 3662,
      "iment": 3663,
      "ium": 3664,
      "jet": 3665,
      "ly": 3666,
      "lys": 3667,
      "mit": 3668,
      "pir": 3669,
      "pass": 3670,
      "pousse": 3671,
      "pital": 3672,
      "ril": 3673,
      "rant": 3674,
      "roule": 3675,
      "vÃ©s": 3676,
      "yant": 3677,
      "Ġ-": 3678,
      "ĠQu": 3679,
      "ĠÃ©d": 3680,
      "Ġup": 3681,
      "Ġdate": 3682,
      "Ġpare": 3683,
      "Ġpress": 3684,
      "ouer": 3685,
      "Ġcic": 3686,
      "Ġcrie": 3687,
      "Ġcuir": 3688,
      "Ġcaves": 3689,
      "Ġmasse": 3690,
      "Ġsqu": 3691,
      "Ġsinc": 3692,
      "Ġspect": 3693,
      "ĠsÃ©pare": 3694,
      "rez": 3695,
      "Ġtal": 3696,
      "Ġtits": 3697,
      "Ġquelle": 3698,
      "Ġja": 3699,
      "Ġfoul": 3700,
      "Ġbav": 3701,
      "Ġbure": 3702,
      "Ġbanc": 3703,
      "Ġvend": 3704,
      "itte": 3705,
      "meti": 3706,
      "Ġrob": 3707,
      "illa": 3708,
      "oral": 3709,
      "orie": 3710,
      "Ã¨se": 3711,
      "rob": 3712,
      "Ġgun": 3713,
      "Ġgro": 3714,
      "cho": 3715,
      "alise": 3716,
      "atta": 3717,
      "Ġdanse": 3718,
      "oser": 3719,
      "osti": 3720,
      "iennes": 3721,
      "nement": 3722,
      "ĠchÃ¨": 3723,
      "Ãªche": 3724,
      "Ġpars": 3725,
      "amille": 3726,
      "agin": 3727,
      "Ġsurtout": 3728,
      "Ġrer": 3729,
      "otte": 3730,
      "ĠMass": 3731,
      "ĠMonde": 3732,
      "ĠprÃ©": 3733,
      "ĠprÃ©v": 3734,
      "ĠdÃ©v": 3735,
      "ĠPal": 3736,
      "ĠBoule": 3737,
      "Ġnez": 3738,
      "iquement": 3739,
      "illon": 3740,
      "illÃ©s": 3741,
      "ump": 3742,
      "Ġoff": 3743,
      "Ã´ne": 3744,
      "pleu": 3745,
      "Ġavance": 3746,
      "Ã©rit": 3747,
      "ouvrir": 3748,
      "ĠRe": 3749,
      "Ã§us": 3750,
      "raient": 3751,
      "Ġbloc": 3752,
      "ibles": 3753,
      "ĠÃ©cl": 3754,
      "ĠÃ©cole": 3755,
      "Ġstar": 3756,
      "Ġstat": 3757,
      "allume": 3758,
      "Ġmarre": 3759,
      "ĠrÃ©Ã©coute": 3760,
      "ĠJohn": 3761,
      "AlgÃ©rie": 3762,
      "Ġconnaissent": 3763,
      "ogg": 3764,
      "ĠaimÃ©": 3765,
      "ĠÃªtes": 3766,
      "Ġfinit": 3767,
      "Ġpotos": 3768,
      "Dehors": 3769,
      "artier": 3770,
      "Ġtrack": 3771,
      "odeur": 3772,
      "Ġpoil": 3773,
      "Ġpassion": 3774,
      "Ġzenfants": 3775,
      "Ġbarreaux": 3776,
      "espace": 3777,
      "cture": 3778,
      "ĠIs": 3779,
      "ĠamÃ©ricain": 3780,
      "Ġmusic": 3781,
      "Ġattent": 3782,
      "Ġsouc": 3783,
      "Ġsalle": 3784,
      "Ġpersonn": 3785,
      "Ġracistes": 3786,
      "ĠpensÃ©es": 3787,
      "Ġcombien": 3788,
      "Ġpost": 3789,
      "Ġcrache": 3790,
      "ĠdÃ©teste": 3791,
      "Ġcimeti": 3792,
      "Ġcoupable": 3793,
      "Ġcapit": 3794,
      "Ġputains": 3795,
      "Ġcanon": 3796,
      "ĠannÃ©e": 3797,
      "intro": 3798,
      "Ġcrier": 3799,
      "ĠÃ¢mes": 3800,
      "Ġsortie": 3801,
      "Ġsemaines": 3802,
      "Ġbitume": 3803,
      "Ġmillion": 3804,
      "Ġattendu": 3805,
      "ĠlaissÃ©": 3806,
      "Ġliber": 3807,
      "Ġbraque": 3808,
      "accord": 3809,
      "Ġdaronnes": 3810,
      "ĠboÃ®": 3811,
      "brouille": 3812,
      "ĠbÃ¢t": 3813,
      "Ġservir": 3814,
      "Ġcity": 3815,
      "Ġcheval": 3816,
      "Ġfutur": 3817,
      "Ġretrouve": 3818,
      "ĠfrÃ©rot": 3819,
      "ennemi": 3820,
      "Ġjournalistes": 3821,
      "Ġanti": 3822,
      "ĠCharles": 3823,
      "Ġchiffre": 3824,
      "compte": 3825,
      "Ġchauff": 3826,
      "Ġouvrir": 3827,
      "Ġeffet": 3828,
      "Ġsilence": 3829,
      "Islam": 3830,
      "Ġpleurent": 3831,
      "Heureusement": 3832,
      "Ġconscient": 3833,
      "Ġbouteille": 3834,
      "ĠriviÃ¨res": 3835,
      "Ġrespons": 3836,
      "Ġbuild": 3837,
      "ĠbÃ©do": 3838,
      "Ġdirige": 3839,
      "243": 3840,
      "Aussi": 3841,
      "Bou": 3842,
      "Bitch": 3843,
      "Cont": 3844,
      "Dire": 3845,
      "Dieu": 3846,
      "Demande": 3847,
      "Eux": 3848,
      "Hier": 3849,
      "Notre": 3850,
      "RÃ©lovution": 3851,
      "She": 3852,
      "Tra": 3853,
      "Viens": 3854,
      "bin": 3855,
      "bus": 3856,
      "bler": 3857,
      "cra": 3858,
      "cut": 3859,
      "den": 3860,
      "day": 3861,
      "gh": 3862,
      "hall": 3863,
      "my": 3864,
      "ntre": 3865,
      "ope": 3866,
      "oquÃ©": 3867,
      "rat": 3868,
      "sard": 3869,
      "ster": 3870,
      "xes": 3871,
      "zer": 3872,
      "ĠLes": 3873,
      "ĠEn": 3874,
      "ĠOu": 3875,
      "Ġign": 3876,
      "Ġdort": 3877,
      "Ġlot": 3878,
      "Ġpor": 3879,
      "ĠpÃ©n": 3880,
      "Ġpist": 3881,
      "Ġpog": 3882,
      "Ġpomp": 3883,
      "Ġpreuve": 3884,
      "enÃ¨ve": 3885,
      "aimes": 3886,
      "Ġcost": 3887,
      "Ġcell": 3888,
      "Ġcasser": 3889,
      "Ã©te": 3890,
      "ony": 3891,
      "oncer": 3892,
      "Ġmeu": 3893,
      "Ġmord": 3894,
      "Ġsn": 3895,
      "Ġsigne": 3896,
      "ank": 3897,
      "anal": 3898,
      "queur": 3899,
      "Ġtar": 3900,
      "Ġtie": 3901,
      "Ġjun": 3902,
      "istre": 3903,
      "euh": 3904,
      "Ġfat": 3905,
      "Ġfant": 3906,
      "Ġfrig": 3907,
      "Ġbatt": 3908,
      "Ġbats": 3909,
      "ino": 3910,
      "Ġneu": 3911,
      "Ġnation": 3912,
      "Ġnature": 3913,
      "itan": 3914,
      "itter": 3915,
      "Ġrass": 3916,
      "Ġrace": 3917,
      "ettre": 3918,
      "ompe": 3919,
      "ĠleÃ§ons": 3920,
      "iler": 3921,
      "orge": 3922,
      "ĠgÃª": 3923,
      "auc": 3924,
      "chÃ©s": 3925,
      "aller": 3926,
      "usent": 3927,
      "atan": 3928,
      "atonnerre": 3929,
      "Ġpours": 3930,
      "Ġpourra": 3931,
      "Ġaut": 3932,
      "Ãªtent": 3933,
      "Ġparc": 3934,
      "Ġparano": 3935,
      "Ġpardon": 3936,
      "aper": 3937,
      "outh": 3938,
      "outes": 3939,
      "tream": 3940,
      "ols": 3941,
      "emple": 3942,
      "aineux": 3943,
      "acier": 3944,
      "ices": 3945,
      "icole": 3946,
      "Ã©sie": 3947,
      "image": 3948,
      "abri": 3949,
      "Ġsexe": 3950,
      "ĠBigg": 3951,
      "Ġfaites": 3952,
      "ulm": 3953,
      "ĠAf": 3954,
      "ĠtrÃ´ne": 3955,
      "Ġproc": 3956,
      "Ġprojets": 3957,
      "Ġinf": 3958,
      "Ġaveu": 3959,
      "Ã§ois": 3960,
      "ancienne": 3961,
      "ingue": 3962,
      "exc": 3963,
      "Ġwari": 3964,
      "Ġwouf": 3965,
      "ĠGe": 3966,
      "Ġcrou": 3967,
      "issons": 3968,
      "Ġalcool": 3969,
      "ĠTh": 3970,
      "Ġkal": 3971,
      "Ġkah": 3972,
      "ĠÃ©cr": 3973,
      "allais": 3974,
      "Ġteam": 3975,
      "Ġrappelle": 3976,
      "ĠNo": 3977,
      "onds": 3978,
      "Ġdiam": 3979,
      "Ġfinal": 3980,
      "inst": 3981,
      "trait": 3982,
      "Ġ12": 3983,
      "ossible": 3984,
      "ĠIb": 3985,
      "Ġform": 3986,
      "aisser": 3987,
      "aissance": 3988,
      "Ġcommencer": 3989,
      "Ġentier": 3990,
      "Ġenterre": 3991,
      "oudrais": 3992,
      "Ġcomporte": 3993,
      "Ġdroits": 3994,
      "Ġcourir": 3995,
      "udes": 3996,
      "ĠAlgÃ©rie": 3997,
      "Ġtournent": 3998,
      "Ġracont": 3999
    },
    "merges": [
      [
        "č",
        "Ċ"
      ],
      [
        "e",
        "s"
      ],
      [
        "Ġ",
        "d"
      ],
      [
        "Ġ",
        "l"
      ],
      [
        "Ġ",
        "p"
      ],
      [
        "e",
        "n"
      ],
      [
        "o",
        "u"
      ],
      [
        "a",
        "i"
      ],
      [
        "Ġ",
        "c"
      ],
      [
        "Ã",
        "©"
      ],
      [
        "o",
        "n"
      ],
      [
        "Ġ",
        "m"
      ],
      [
        "Ġ",
        "s"
      ],
      [
        "a",
        "n"
      ],
      [
        "q",
        "u"
      ],
      [
        "r",
        "e"
      ],
      [
        "e",
        "r"
      ],
      [
        "Ġ",
        "t"
      ],
      [
        "Ġ",
        "qu"
      ],
      [
        "Ġ",
        "j"
      ],
      [
        "Ġd",
        "e"
      ],
      [
        "i",
        "s"
      ],
      [
        "a",
        "r"
      ],
      [
        "e",
        "u"
      ],
      [
        "Ġ",
        "f"
      ],
      [
        "Ġ",
        "a"
      ],
      [
        "en",
        "t"
      ],
      [
        "a",
        "s"
      ],
      [
        "ai",
        "s"
      ],
      [
        "l",
        "e"
      ],
      [
        "Ġ",
        "b"
      ],
      [
        "Ġl",
        "a"
      ],
      [
        "i",
        "n"
      ],
      [
        "u",
        "n"
      ],
      [
        "es",
        "t"
      ],
      [
        "Ġ",
        "v"
      ],
      [
        "Ġl",
        "es"
      ],
      [
        "Ġ",
        "n"
      ],
      [
        "i",
        "t"
      ],
      [
        "m",
        "e"
      ],
      [
        "ou",
        "r"
      ],
      [
        "Ġ",
        "r"
      ],
      [
        "e",
        "t"
      ],
      [
        "o",
        "m"
      ],
      [
        "Ġ",
        "Ã"
      ],
      [
        "Ġl",
        "e"
      ],
      [
        "i",
        "l"
      ],
      [
        "o",
        "r"
      ],
      [
        "o",
        "i"
      ],
      [
        "t",
        "e"
      ],
      [
        "Ġ",
        "un"
      ],
      [
        "Ã",
        "¨"
      ],
      [
        "Ġd",
        "es"
      ],
      [
        "Ġp",
        "as"
      ],
      [
        "an",
        "s"
      ],
      [
        "r",
        "o"
      ],
      [
        "Ġ",
        "g"
      ],
      [
        "a",
        "u"
      ],
      [
        "c",
        "h"
      ],
      [
        "ĠÃ",
        "ł"
      ],
      [
        "eu",
        "r"
      ],
      [
        "a",
        "l"
      ],
      [
        "u",
        "s"
      ],
      [
        "u",
        "r"
      ],
      [
        "Ġ",
        "en"
      ],
      [
        "e",
        "l"
      ],
      [
        "a",
        "t"
      ],
      [
        "Ġ",
        "et"
      ],
      [
        "ou",
        "s"
      ],
      [
        "Ġc",
        "om"
      ],
      [
        "Ġd",
        "u"
      ],
      [
        "Ġd",
        "ans"
      ],
      [
        "an",
        "t"
      ],
      [
        "v",
        "e"
      ],
      [
        "on",
        "t"
      ],
      [
        "ai",
        "t"
      ],
      [
        "Â",
        "§"
      ],
      [
        "o",
        "s"
      ],
      [
        "r",
        "a"
      ],
      [
        "c",
        "e"
      ],
      [
        "u",
        "is"
      ],
      [
        "I",
        "N"
      ],
      [
        "Ġqu",
        "e"
      ],
      [
        "i",
        "en"
      ],
      [
        "an",
        "d"
      ],
      [
        "'",
        "s"
      ],
      [
        "n",
        "e"
      ],
      [
        "Ġp",
        "our"
      ],
      [
        "Ġa",
        "u"
      ],
      [
        "Ġc",
        "h"
      ],
      [
        "Ã",
        "ª"
      ],
      [
        "r",
        "i"
      ],
      [
        "Ġp",
        "ar"
      ],
      [
        "Ġp",
        "l"
      ],
      [
        "Ġqu",
        "i"
      ],
      [
        "a",
        "m"
      ],
      [
        "qu",
        "e"
      ],
      [
        "r",
        "es"
      ],
      [
        "s",
        "e"
      ],
      [
        "Ġcom",
        "me"
      ],
      [
        "a",
        "p"
      ],
      [
        "t",
        "i"
      ],
      [
        "Ġm",
        "on"
      ],
      [
        "ou",
        "t"
      ],
      [
        "Ġ",
        "h"
      ],
      [
        "Ġ",
        "on"
      ],
      [
        "l",
        "es"
      ],
      [
        "Ã©",
        "t"
      ],
      [
        "i",
        "e"
      ],
      [
        "Ã¨",
        "re"
      ],
      [
        "a",
        "g"
      ],
      [
        "t",
        "re"
      ],
      [
        "Ġj",
        "e"
      ],
      [
        "d",
        "e"
      ],
      [
        "o",
        "l"
      ],
      [
        "Ġ",
        "est"
      ],
      [
        "Ġs",
        "ur"
      ],
      [
        "eu",
        "x"
      ],
      [
        "'",
        "t"
      ],
      [
        "Ġ",
        "ou"
      ],
      [
        "e",
        "m"
      ],
      [
        "Ã©",
        "c"
      ],
      [
        "Ġun",
        "e"
      ],
      [
        "'",
        "m"
      ],
      [
        "Ġ",
        "re"
      ],
      [
        "O",
        "U"
      ],
      [
        "i",
        "r"
      ],
      [
        "Ġm",
        "a"
      ],
      [
        "en",
        "d"
      ],
      [
        "i",
        "on"
      ],
      [
        "ai",
        "re"
      ],
      [
        "Ġpl",
        "us"
      ],
      [
        "o",
        "is"
      ],
      [
        "o",
        "t"
      ],
      [
        "Ġ",
        "M"
      ],
      [
        "m",
        "ent"
      ],
      [
        "el",
        "le"
      ],
      [
        "ai",
        "n"
      ],
      [
        "P",
        "L"
      ],
      [
        "E",
        "T"
      ],
      [
        "C",
        "OU"
      ],
      [
        "PL",
        "ET"
      ],
      [
        "COU",
        "PLET"
      ],
      [
        "a",
        "c"
      ],
      [
        "i",
        "c"
      ],
      [
        "Ã©",
        "s"
      ],
      [
        "or",
        "t"
      ],
      [
        "Q",
        "u"
      ],
      [
        "eur",
        "s"
      ],
      [
        "Ġt",
        "u"
      ],
      [
        "i",
        "m"
      ],
      [
        "O",
        "n"
      ],
      [
        "§",
        "a"
      ],
      [
        "i",
        "er"
      ],
      [
        "oi",
        "r"
      ],
      [
        "Ġ",
        "y"
      ],
      [
        "a",
        "b"
      ],
      [
        "an",
        "g"
      ],
      [
        "ve",
        "c"
      ],
      [
        "il",
        "s"
      ],
      [
        "ch",
        "e"
      ],
      [
        "on",
        "n"
      ],
      [
        "Ġt",
        "out"
      ],
      [
        "ĠÃ",
        "§a"
      ],
      [
        "i",
        "g"
      ],
      [
        "a",
        "v"
      ],
      [
        "E",
        "t"
      ],
      [
        "in",
        "e"
      ],
      [
        "Ġp",
        "r"
      ],
      [
        "t",
        "es"
      ],
      [
        "f",
        "f"
      ],
      [
        "Ġs",
        "e"
      ],
      [
        "Ġd",
        "Ã©"
      ],
      [
        "Ġs",
        "i"
      ],
      [
        "Ġ",
        "P"
      ],
      [
        "Ġ",
        "B"
      ],
      [
        "Ġm",
        "es"
      ],
      [
        "Ġm",
        "ais"
      ],
      [
        "Ġ",
        "S"
      ],
      [
        "J",
        "e"
      ],
      [
        "o",
        "in"
      ],
      [
        "Ġm",
        "e"
      ],
      [
        "Ã",
        "ł"
      ],
      [
        "Ġf",
        "ait"
      ],
      [
        "Ġa",
        "vec"
      ],
      [
        "l",
        "a"
      ],
      [
        "u",
        "l"
      ],
      [
        "er",
        "s"
      ],
      [
        "p",
        "r"
      ],
      [
        "on",
        "s"
      ],
      [
        "Ġr",
        "ap"
      ],
      [
        "en",
        "s"
      ],
      [
        "u",
        "x"
      ],
      [
        "m",
        "es"
      ],
      [
        "p",
        "e"
      ],
      [
        "ar",
        "d"
      ],
      [
        "Ġ",
        "A"
      ],
      [
        "R",
        "E"
      ],
      [
        "Ġqu",
        "and"
      ],
      [
        "L",
        "es"
      ],
      [
        "F",
        "R"
      ],
      [
        "A",
        "IN"
      ],
      [
        "RE",
        "FR"
      ],
      [
        "REFR",
        "AIN"
      ],
      [
        "Ġt",
        "r"
      ],
      [
        "Ġf",
        "r"
      ],
      [
        "'",
        "d"
      ],
      [
        "Ġ",
        "C"
      ],
      [
        "Ãª",
        "me"
      ],
      [
        "Ġc",
        "ou"
      ],
      [
        "Ġ",
        "D"
      ],
      [
        "Ġn",
        "ous"
      ],
      [
        "ro",
        "s"
      ],
      [
        "L",
        "a"
      ],
      [
        "Ã©",
        "e"
      ],
      [
        "o",
        "c"
      ],
      [
        "il",
        "le"
      ],
      [
        "p",
        "s"
      ],
      [
        "our",
        "s"
      ],
      [
        "u",
        "e"
      ],
      [
        "Ġn",
        "e"
      ],
      [
        "E",
        "G"
      ],
      [
        "E",
        "N"
      ],
      [
        "B",
        "EG"
      ],
      [
        "N",
        "IN"
      ],
      [
        "IN",
        "NIN"
      ],
      [
        "EN",
        "D"
      ],
      [
        "BEG",
        "INNIN"
      ],
      [
        "BEGINNIN",
        "G"
      ],
      [
        "Ġf",
        "aire"
      ],
      [
        "au",
        "t"
      ],
      [
        "i",
        "que"
      ],
      [
        "u",
        "i"
      ],
      [
        "Ã©",
        "p"
      ],
      [
        "il",
        "l"
      ],
      [
        "an",
        "ce"
      ],
      [
        "u",
        "m"
      ],
      [
        "L",
        "e"
      ],
      [
        "a",
        "d"
      ],
      [
        "Ġg",
        "r"
      ],
      [
        "Ġ",
        "o"
      ],
      [
        "Ġp",
        "ro"
      ],
      [
        "Ġs",
        "on"
      ],
      [
        "ag",
        "e"
      ],
      [
        "M",
        "ais"
      ],
      [
        "Ġd",
        "is"
      ],
      [
        "Ġs",
        "ont"
      ],
      [
        "ou",
        "te"
      ],
      [
        "u",
        "t"
      ],
      [
        "Ġ",
        "in"
      ],
      [
        "Ġ",
        "ar"
      ],
      [
        "as",
        "s"
      ],
      [
        "Ã©",
        "d"
      ],
      [
        "Ġc",
        "e"
      ],
      [
        "i",
        "re"
      ],
      [
        "it",
        "e"
      ],
      [
        "or",
        "s"
      ],
      [
        "Ġou",
        "ais"
      ],
      [
        "Ġm",
        "oi"
      ],
      [
        "Ã",
        "´"
      ],
      [
        "a",
        "y"
      ],
      [
        "I",
        "l"
      ],
      [
        "p",
        "l"
      ],
      [
        "Å",
        "ĵ"
      ],
      [
        "Ġn",
        "os"
      ],
      [
        "Ġb",
        "ien"
      ],
      [
        "er",
        "re"
      ],
      [
        "Ġa",
        "v"
      ],
      [
        "Ã©",
        "r"
      ],
      [
        "g",
        "e"
      ],
      [
        "un",
        "e"
      ],
      [
        "E",
        "n"
      ],
      [
        "ou",
        "v"
      ],
      [
        "Ġm",
        "Ãªme"
      ],
      [
        "ien",
        "s"
      ],
      [
        "Ġv",
        "i"
      ],
      [
        "qu",
        "es"
      ],
      [
        "Ġ",
        "R"
      ],
      [
        "on",
        "ne"
      ],
      [
        "u",
        "re"
      ],
      [
        "Ã¨",
        "res"
      ],
      [
        "om",
        "me"
      ],
      [
        "Ã",
        "§"
      ],
      [
        "Ġp",
        "eu"
      ],
      [
        "Ġt",
        "ro"
      ],
      [
        "t",
        "er"
      ],
      [
        "r",
        "ai"
      ],
      [
        "l",
        "er"
      ],
      [
        "Ã©",
        "g"
      ],
      [
        "Ġ",
        "ils"
      ],
      [
        "Ġt",
        "ous"
      ],
      [
        "c",
        "o"
      ],
      [
        "es",
        "s"
      ],
      [
        "Ġv",
        "ie"
      ],
      [
        "i",
        "d"
      ],
      [
        "o",
        "it"
      ],
      [
        "Ġ",
        "F"
      ],
      [
        "om",
        "b"
      ],
      [
        "a",
        "le"
      ],
      [
        "Ã©",
        "n"
      ],
      [
        "b",
        "l"
      ],
      [
        "Ġ",
        "il"
      ],
      [
        "au",
        "x"
      ],
      [
        "Ġ",
        "ont"
      ],
      [
        "Ġ",
        "Ã©t"
      ],
      [
        "oi",
        "re"
      ],
      [
        "u",
        "c"
      ],
      [
        "Ġau",
        "x"
      ],
      [
        "an",
        "c"
      ],
      [
        "et",
        "te"
      ],
      [
        "Ġt",
        "a"
      ],
      [
        "Ġb",
        "l"
      ],
      [
        "Ġs",
        "ans"
      ],
      [
        "in",
        "g"
      ],
      [
        "Åĵ",
        "ur"
      ],
      [
        "Ġc",
        "ar"
      ],
      [
        "O",
        "u"
      ],
      [
        "e",
        "x"
      ],
      [
        "Ġ",
        "L"
      ],
      [
        "Ã©",
        "l"
      ],
      [
        "Ġ",
        "w"
      ],
      [
        "Ġg",
        "ros"
      ],
      [
        "Ã",
        "¹"
      ],
      [
        "Ġc",
        "on"
      ],
      [
        "Ġ",
        "G"
      ],
      [
        "Ġl",
        "eurs"
      ],
      [
        "Ġc",
        "r"
      ],
      [
        "i",
        "b"
      ],
      [
        "Ã",
        "®"
      ],
      [
        "Ġm",
        "al"
      ],
      [
        "Ġde",
        "v"
      ],
      [
        "ou",
        "l"
      ],
      [
        "or",
        "d"
      ],
      [
        "is",
        "s"
      ],
      [
        "Ġa",
        "l"
      ],
      [
        "Ãª",
        "te"
      ],
      [
        "Ġ",
        "T"
      ],
      [
        "Ġr",
        "ien"
      ],
      [
        "Ġ",
        "k"
      ],
      [
        "Ġgr",
        "and"
      ],
      [
        "Ġl",
        "eur"
      ],
      [
        "Ã",
        "¢"
      ],
      [
        "is",
        "t"
      ],
      [
        "S",
        "i"
      ],
      [
        "Ġ",
        "H"
      ],
      [
        "Ġn",
        "i"
      ],
      [
        "v",
        "ais"
      ],
      [
        "it",
        "Ã©"
      ],
      [
        "Ã¨",
        "s"
      ],
      [
        "a",
        "h"
      ],
      [
        "i",
        "v"
      ],
      [
        "Ġ",
        "elle"
      ],
      [
        "Ġg",
        "u"
      ],
      [
        "Ã©",
        "es"
      ],
      [
        "Ġt",
        "ou"
      ],
      [
        "Ġ",
        "Ã©c"
      ],
      [
        "at",
        "ion"
      ],
      [
        "'",
        "re"
      ],
      [
        "Ġs",
        "er"
      ],
      [
        "ent",
        "re"
      ],
      [
        "am",
        "ais"
      ],
      [
        "ai",
        "l"
      ],
      [
        "Ġb",
        "r"
      ],
      [
        "it",
        "s"
      ],
      [
        "ra",
        "p"
      ],
      [
        "Ġtro",
        "p"
      ],
      [
        "Ġs",
        "t"
      ],
      [
        "U",
        "n"
      ],
      [
        "Ġc",
        "l"
      ],
      [
        "t",
        "s"
      ],
      [
        "is",
        "e"
      ],
      [
        "al",
        "l"
      ],
      [
        "o",
        "o"
      ],
      [
        "Ġm",
        "ar"
      ],
      [
        "Ġt",
        "e"
      ],
      [
        "Ġr",
        "Ã©"
      ],
      [
        "Ġs",
        "ous"
      ],
      [
        "i",
        "f"
      ],
      [
        "Ġrap",
        "p"
      ],
      [
        "P",
        "our"
      ],
      [
        "as",
        "se"
      ],
      [
        "Qu",
        "and"
      ],
      [
        "Ġd",
        "it"
      ],
      [
        "eu",
        "re"
      ],
      [
        "o",
        "p"
      ],
      [
        "Ġ",
        "J"
      ],
      [
        "ar",
        "s"
      ],
      [
        "A",
        "l"
      ],
      [
        "Ġ",
        "N"
      ],
      [
        "on",
        "d"
      ],
      [
        "Ġj",
        "amais"
      ],
      [
        "j",
        "ours"
      ],
      [
        "Ġs",
        "a"
      ],
      [
        "end",
        "re"
      ],
      [
        "T",
        "u"
      ],
      [
        "es",
        "oin"
      ],
      [
        "Il",
        "s"
      ],
      [
        "Ġd",
        "i"
      ],
      [
        "i",
        "Ã¨re"
      ],
      [
        "v",
        "er"
      ],
      [
        "Ãª",
        "tre"
      ],
      [
        "Ġc",
        "onn"
      ],
      [
        "o",
        "y"
      ],
      [
        "Ġv",
        "eu"
      ],
      [
        "Ġp",
        "er"
      ],
      [
        "Ġs",
        "uis"
      ],
      [
        "Ġt",
        "on"
      ],
      [
        "R",
        "O"
      ],
      [
        "T",
        "RO"
      ],
      [
        "e",
        "au"
      ],
      [
        "o",
        "g"
      ],
      [
        "u",
        "it"
      ],
      [
        "Ġ",
        "ai"
      ],
      [
        "end",
        "s"
      ],
      [
        "ĠÃ",
        "ª"
      ],
      [
        "Ġqu",
        "el"
      ],
      [
        "Ġ",
        "Ã©"
      ],
      [
        "ant",
        "s"
      ],
      [
        "'",
        "ve"
      ],
      [
        "Ġv",
        "a"
      ],
      [
        "n",
        "es"
      ],
      [
        "Ã",
        "Ģ"
      ],
      [
        "Ġmon",
        "de"
      ],
      [
        "Ã",
        "ī"
      ],
      [
        "eu",
        "f"
      ],
      [
        "or",
        "te"
      ],
      [
        "el",
        "les"
      ],
      [
        "Ġc",
        "ont"
      ],
      [
        "Ġj",
        "us"
      ],
      [
        "Ġb",
        "ou"
      ],
      [
        "Ġtou",
        "jours"
      ],
      [
        "Ã",
        "»"
      ],
      [
        "Ġ",
        ","
      ],
      [
        "ai",
        "ne"
      ],
      [
        "Ġde",
        "ux"
      ],
      [
        "o",
        "le"
      ],
      [
        "Ġm",
        "ort"
      ],
      [
        "Ġf",
        "in"
      ],
      [
        "Ġp",
        "uis"
      ],
      [
        "em",
        "ps"
      ],
      [
        "Ġl",
        "Ãł"
      ],
      [
        "Ġp",
        "ot"
      ],
      [
        "Ġs",
        "eu"
      ],
      [
        "ĠÃª",
        "tre"
      ],
      [
        "E",
        "l"
      ],
      [
        "Ġp",
        "et"
      ],
      [
        "ab",
        "le"
      ],
      [
        "e",
        "z"
      ],
      [
        "l",
        "ent"
      ],
      [
        "o",
        "b"
      ],
      [
        "D",
        "e"
      ],
      [
        "i",
        "eu"
      ],
      [
        "Ġf",
        "ais"
      ],
      [
        "t",
        "ent"
      ],
      [
        "t",
        "Ã©"
      ],
      [
        "ar",
        "ti"
      ],
      [
        "Ġf",
        "ois"
      ],
      [
        "f",
        "ais"
      ],
      [
        "Ġt",
        "ra"
      ],
      [
        "Ã©",
        "f"
      ],
      [
        "au",
        "d"
      ],
      [
        "ou",
        "p"
      ],
      [
        "i",
        "ent"
      ],
      [
        "Ġa",
        "p"
      ],
      [
        "in",
        "s"
      ],
      [
        "il",
        "les"
      ],
      [
        "Ġp",
        "u"
      ],
      [
        "Ġj",
        "our"
      ],
      [
        "Ġo",
        "Ã¹"
      ],
      [
        "Ġc",
        "Åĵur"
      ],
      [
        "co",
        "re"
      ],
      [
        "a",
        "ch"
      ],
      [
        "M",
        "on"
      ],
      [
        "p",
        "le"
      ],
      [
        "Ġm",
        "i"
      ],
      [
        "b",
        "le"
      ],
      [
        "Ġv",
        "rai"
      ],
      [
        "Qu",
        "e"
      ],
      [
        "Ã©d",
        "ine"
      ],
      [
        "D",
        "ans"
      ],
      [
        "e",
        "c"
      ],
      [
        "t",
        "r"
      ],
      [
        "ai",
        "me"
      ],
      [
        "Ġf",
        "aut"
      ],
      [
        "ro",
        "is"
      ],
      [
        "o",
        "d"
      ],
      [
        "s",
        "a"
      ],
      [
        "Ġs",
        "ais"
      ],
      [
        "qu",
        "er"
      ],
      [
        "ap",
        "p"
      ],
      [
        ".",
        "."
      ],
      [
        "t",
        "res"
      ],
      [
        "u",
        "me"
      ],
      [
        "Ġf",
        "l"
      ],
      [
        "D",
        "es"
      ],
      [
        "P",
        "ar"
      ],
      [
        "n",
        "ent"
      ],
      [
        "r",
        "ais"
      ],
      [
        "ti",
        "on"
      ],
      [
        "c",
        "er"
      ],
      [
        "Ġt",
        "oi"
      ],
      [
        "Ġp",
        "o"
      ],
      [
        "Ou",
        "ais"
      ],
      [
        "r",
        "Ã©"
      ],
      [
        "Ġf",
        "ont"
      ],
      [
        "Ã¨",
        "ne"
      ],
      [
        "c",
        "i"
      ],
      [
        "er",
        "a"
      ],
      [
        "re",
        "m"
      ],
      [
        "and",
        "e"
      ],
      [
        "U",
        "ne"
      ],
      [
        "t",
        "a"
      ],
      [
        "en",
        "ce"
      ],
      [
        "b",
        "e"
      ],
      [
        "an",
        "n"
      ],
      [
        "Ã©t",
        "ais"
      ],
      [
        "Qu",
        "i"
      ],
      [
        "im",
        "sa"
      ],
      [
        "a",
        "me"
      ],
      [
        "Ġd",
        "er"
      ],
      [
        "Ġm",
        "ain"
      ],
      [
        "Ġ",
        "1"
      ],
      [
        "Ġt",
        "emps"
      ],
      [
        "m",
        "oi"
      ],
      [
        "p",
        "uis"
      ],
      [
        "Ġpas",
        "s"
      ],
      [
        "Ġ",
        "K"
      ],
      [
        "Ġ",
        "z"
      ],
      [
        "Ã©",
        "ri"
      ],
      [
        "Ġb",
        "ar"
      ],
      [
        "h",
        "e"
      ],
      [
        "u",
        "p"
      ],
      [
        "ch",
        "er"
      ],
      [
        "Ġr",
        "est"
      ],
      [
        "ic",
        "i"
      ],
      [
        "a",
        "re"
      ],
      [
        "a",
        "que"
      ],
      [
        "Ġs",
        "es"
      ],
      [
        "m",
        "a"
      ],
      [
        "es",
        "p"
      ],
      [
        "ai",
        "ent"
      ],
      [
        "Ġc",
        "ol"
      ],
      [
        "os",
        "s"
      ],
      [
        "ĠF",
        "r"
      ],
      [
        "Ã©t",
        "ait"
      ],
      [
        "Ġfr",
        "Ã¨res"
      ],
      [
        "Ã",
        "¯"
      ],
      [
        "Ġc",
        "es"
      ],
      [
        "Ġpar",
        "t"
      ],
      [
        "c",
        "t"
      ],
      [
        "v",
        "re"
      ],
      [
        "is",
        "te"
      ],
      [
        "ri",
        "Ã¨re"
      ],
      [
        "a",
        "ce"
      ],
      [
        "j",
        "Ãł"
      ],
      [
        "Ġ",
        "I"
      ],
      [
        "ent",
        "s"
      ],
      [
        "Ã¨",
        "me"
      ],
      [
        "Ġ",
        "e"
      ],
      [
        "Ġ",
        "ans"
      ],
      [
        "ch",
        "es"
      ],
      [
        "ang",
        "er"
      ],
      [
        "C",
        "omme"
      ],
      [
        "Ġc",
        "or"
      ],
      [
        "Ġv",
        "ous"
      ],
      [
        "Ġv",
        "eux"
      ],
      [
        "us",
        "s"
      ],
      [
        "T",
        "out"
      ],
      [
        "p",
        "ar"
      ],
      [
        "ĩ",
        "a"
      ],
      [
        "Ã¨",
        "te"
      ],
      [
        "El",
        "le"
      ],
      [
        "Ġl",
        "ui"
      ],
      [
        "Ġf",
        "or"
      ],
      [
        "Ġquel",
        "ques"
      ],
      [
        "a",
        "Ã®"
      ],
      [
        "Ã©",
        "m"
      ],
      [
        "ais",
        "s"
      ],
      [
        "os",
        "e"
      ],
      [
        "Ġpar",
        "ti"
      ],
      [
        "M",
        "oi"
      ],
      [
        "Ã",
        "ĩa"
      ],
      [
        "ou",
        "ve"
      ],
      [
        "Ġm",
        "et"
      ],
      [
        "Ġa",
        "m"
      ],
      [
        "oo",
        "f"
      ],
      [
        "Ġd",
        "Ã©c"
      ],
      [
        "Ġs",
        "av"
      ],
      [
        "Ġb",
        "on"
      ],
      [
        "Ġen",
        "core"
      ],
      [
        "en",
        "se"
      ],
      [
        "Ġt",
        "Ãªte"
      ],
      [
        "im",
        "p"
      ],
      [
        "Ġper",
        "d"
      ],
      [
        "v",
        "iens"
      ],
      [
        "Ġ",
        "ex"
      ],
      [
        "Ġm",
        "us"
      ],
      [
        "Ġt",
        "es"
      ],
      [
        "Ġa",
        "t"
      ],
      [
        "Ġav",
        "ant"
      ],
      [
        "C",
        "h"
      ],
      [
        "Ġ",
        "V"
      ],
      [
        "Ġs",
        "ou"
      ],
      [
        "ier",
        "s"
      ],
      [
        "Ġqu",
        "arti"
      ],
      [
        "Ġv",
        "oi"
      ],
      [
        "om",
        "mes"
      ],
      [
        "Ġc",
        "eux"
      ],
      [
        "Ġs",
        "al"
      ],
      [
        "qu",
        "i"
      ],
      [
        "Ġr",
        "i"
      ],
      [
        "ang",
        "e"
      ],
      [
        "Ġgu",
        "erre"
      ],
      [
        "a",
        "z"
      ],
      [
        "Ġs",
        "c"
      ],
      [
        "Ġs",
        "ens"
      ],
      [
        "ion",
        "s"
      ],
      [
        "Ġpuis",
        "s"
      ],
      [
        "A",
        "u"
      ],
      [
        "ai",
        "res"
      ],
      [
        "Ġc",
        "o"
      ],
      [
        "er",
        "t"
      ],
      [
        "res",
        "s"
      ],
      [
        "on",
        "c"
      ],
      [
        "Ã´",
        "t"
      ],
      [
        "i",
        "ff"
      ],
      [
        "o",
        "w"
      ],
      [
        "Ġ",
        "2"
      ],
      [
        "Ġp",
        "h"
      ],
      [
        "Ġj",
        "ou"
      ],
      [
        "Ġb",
        "esoin"
      ],
      [
        "in",
        "es"
      ],
      [
        "Ġv",
        "u"
      ],
      [
        "Ġcom",
        "m"
      ],
      [
        "Ġ",
        "ent"
      ],
      [
        "Ġd",
        "ire"
      ],
      [
        "Ġm",
        "an"
      ],
      [
        "Ġveu",
        "t"
      ],
      [
        "ai",
        "r"
      ],
      [
        "Ġde",
        "m"
      ],
      [
        "Ġen",
        "f"
      ],
      [
        "Ġpr",
        "is"
      ],
      [
        "Ġ",
        "E"
      ],
      [
        "an",
        "Ã§"
      ],
      [
        "is",
        "tes"
      ],
      [
        "ist",
        "oire"
      ],
      [
        "Ãī",
        "c"
      ],
      [
        "s",
        "s"
      ],
      [
        "Ġ",
        "entre"
      ],
      [
        "en",
        "ir"
      ],
      [
        "Ġj",
        "eu"
      ],
      [
        "Ġr",
        "ue"
      ],
      [
        "Ġg",
        "ars"
      ],
      [
        "Ã©",
        "ro"
      ],
      [
        "Ġpar",
        "le"
      ],
      [
        "euf",
        "s"
      ],
      [
        "l",
        "eur"
      ],
      [
        "Ġm",
        "Ã¨re"
      ],
      [
        "IN",
        "TRO"
      ],
      [
        "Ġmi",
        "eux"
      ],
      [
        "Ġpuiss",
        "ance"
      ],
      [
        "C",
        "ar"
      ],
      [
        "P",
        "as"
      ],
      [
        "g",
        "er"
      ],
      [
        "Ġd",
        "ou"
      ],
      [
        "s",
        "t"
      ],
      [
        "Ġf",
        "em"
      ],
      [
        "Ġn",
        "oir"
      ],
      [
        "Ġch",
        "ez"
      ],
      [
        "Ġ",
        "Ã©p"
      ],
      [
        "ou",
        "d"
      ],
      [
        "Ġg",
        "ens"
      ],
      [
        "Ġpeu",
        "t"
      ],
      [
        "Ġs",
        "ac"
      ],
      [
        "at",
        "t"
      ],
      [
        "ri",
        "c"
      ],
      [
        "Ġtout",
        "es"
      ],
      [
        "av",
        "re"
      ],
      [
        "ĠFr",
        "ance"
      ],
      [
        "i",
        "z"
      ],
      [
        "m",
        "er"
      ],
      [
        "Ġp",
        "le"
      ],
      [
        "en",
        "f"
      ],
      [
        "on",
        "g"
      ],
      [
        "Ġf",
        "ond"
      ],
      [
        "Ġpot",
        "o"
      ],
      [
        "Ġpet",
        "it"
      ],
      [
        "on",
        "de"
      ],
      [
        "Ġm",
        "at"
      ],
      [
        "Ġs",
        "ang"
      ],
      [
        "an",
        "te"
      ],
      [
        "Ġcom",
        "p"
      ],
      [
        "i",
        "es"
      ],
      [
        "ar",
        "de"
      ],
      [
        "ĠM",
        "Ã©dine"
      ],
      [
        "anÃ§",
        "ais"
      ],
      [
        "b",
        "r"
      ],
      [
        "as",
        "h"
      ],
      [
        "Ġv",
        "is"
      ],
      [
        "at",
        "s"
      ],
      [
        "Ã§",
        "on"
      ],
      [
        "Ġ",
        "em"
      ],
      [
        "Ġc",
        "ul"
      ],
      [
        "re",
        "r"
      ],
      [
        "Ġf",
        "er"
      ],
      [
        "as",
        "e"
      ],
      [
        "Ġn",
        "an"
      ],
      [
        "Ã¨",
        "ve"
      ],
      [
        "ig",
        "n"
      ],
      [
        "d",
        "s"
      ],
      [
        "Ġd",
        "ro"
      ],
      [
        "Ġc",
        "our"
      ],
      [
        "Ġt",
        "h"
      ],
      [
        "Ġb",
        "al"
      ],
      [
        "Ġv",
        "oir"
      ],
      [
        "ul",
        "n"
      ],
      [
        "c",
        "oup"
      ],
      [
        "i",
        "p"
      ],
      [
        "Ġc",
        "ette"
      ],
      [
        "Ġv",
        "ers"
      ],
      [
        "Ġre",
        "m"
      ],
      [
        "v",
        "ent"
      ],
      [
        "ou",
        "le"
      ],
      [
        "ar",
        "g"
      ],
      [
        "ĠL",
        "imsa"
      ],
      [
        "Ġw",
        "oof"
      ],
      [
        "ĠH",
        "avre"
      ],
      [
        "uln",
        "ay"
      ],
      [
        "f",
        "aire"
      ],
      [
        "u",
        "d"
      ],
      [
        "Ġs",
        "ol"
      ],
      [
        "Ġb",
        "eau"
      ],
      [
        "Ġv",
        "ois"
      ],
      [
        "ag",
        "es"
      ],
      [
        "ĠA",
        "l"
      ],
      [
        "i",
        "k"
      ],
      [
        "r",
        "ent"
      ],
      [
        "Ġp",
        "ort"
      ],
      [
        "Ġf",
        "eu"
      ],
      [
        "Ġre",
        "g"
      ],
      [
        "ĠÃ©t",
        "ait"
      ],
      [
        "i",
        "a"
      ],
      [
        "Ġp",
        "ers"
      ],
      [
        "Ġm",
        "is"
      ],
      [
        "ĠM",
        "ar"
      ],
      [
        "Ġfr",
        "Ã¨re"
      ],
      [
        "Ġseu",
        "l"
      ],
      [
        "o",
        "que"
      ],
      [
        "p",
        "er"
      ],
      [
        "OU",
        "TRO"
      ],
      [
        "t",
        "ure"
      ],
      [
        "v",
        "ois"
      ],
      [
        "Ġs",
        "h"
      ],
      [
        "Ġt",
        "our"
      ],
      [
        "Ãīc",
        "oute"
      ],
      [
        "B",
        "esoin"
      ],
      [
        "M",
        "a"
      ],
      [
        "i",
        "le"
      ],
      [
        "Ã©",
        "ch"
      ],
      [
        "et",
        "t"
      ],
      [
        "or",
        "ti"
      ],
      [
        "Ãª",
        "t"
      ],
      [
        "em",
        "ent"
      ],
      [
        "e",
        "ah"
      ],
      [
        "Ġ",
        "O"
      ],
      [
        "Ġ",
        "čĊ"
      ],
      [
        "Ġde",
        "puis"
      ],
      [
        "Ġr",
        "ac"
      ],
      [
        "Ġjus",
        "te"
      ],
      [
        "c",
        "es"
      ],
      [
        "o",
        "ot"
      ],
      [
        "v",
        "es"
      ],
      [
        "Ġm",
        "er"
      ],
      [
        "elle",
        "ment"
      ],
      [
        "ain",
        "s"
      ],
      [
        "ĠdÃ©",
        "jÃł"
      ],
      [
        "oin",
        "s"
      ],
      [
        "A",
        "vec"
      ],
      [
        "Ġp",
        "e"
      ],
      [
        "a",
        "k"
      ],
      [
        "i",
        "ce"
      ],
      [
        "p",
        "h"
      ],
      [
        "u",
        "es"
      ],
      [
        "Ġs",
        "ort"
      ],
      [
        "Ġs",
        "oir"
      ],
      [
        "Ġt",
        "oute"
      ],
      [
        "ment",
        "s"
      ],
      [
        "ac",
        "k"
      ],
      [
        "pr",
        "is"
      ],
      [
        "M",
        "es"
      ],
      [
        "n",
        "er"
      ],
      [
        "o",
        "tre"
      ],
      [
        "u",
        "b"
      ],
      [
        "Ġp",
        "eur"
      ],
      [
        "Ġp",
        "rem"
      ],
      [
        "Ġm",
        "ot"
      ],
      [
        "am",
        "our"
      ],
      [
        "c",
        "om"
      ],
      [
        "e",
        "y"
      ],
      [
        "Ġp",
        "at"
      ],
      [
        "Ġp",
        "ie"
      ],
      [
        "Ġp",
        "ens"
      ],
      [
        "qu",
        "oi"
      ],
      [
        "Ġt",
        "omb"
      ],
      [
        "Ġr",
        "es"
      ],
      [
        "ĠdÃ©",
        "f"
      ],
      [
        "a",
        "de"
      ],
      [
        "c",
        "l"
      ],
      [
        "Ġr",
        "Ã©p"
      ],
      [
        "or",
        "m"
      ],
      [
        "ous",
        "s"
      ],
      [
        "ri",
        "e"
      ],
      [
        "Ġveu",
        "lent"
      ],
      [
        "b",
        "re"
      ],
      [
        "o",
        "re"
      ],
      [
        "t",
        "h"
      ],
      [
        "t",
        "ant"
      ],
      [
        "Ġ",
        "eux"
      ],
      [
        "Ġp",
        "ol"
      ],
      [
        "oi",
        "e"
      ],
      [
        "Ġcom",
        "b"
      ],
      [
        "ant",
        "h"
      ],
      [
        "uss",
        "i"
      ],
      [
        "Ġp",
        "os"
      ],
      [
        "Ġt",
        "er"
      ],
      [
        "ar",
        "r"
      ],
      [
        "Ġf",
        "am"
      ],
      [
        "Ġn",
        "Ã©g"
      ],
      [
        "et",
        "tes"
      ],
      [
        "pr",
        "ends"
      ],
      [
        "Ġe",
        "h"
      ],
      [
        "a",
        "f"
      ],
      [
        "v",
        "ant"
      ],
      [
        "Ġc",
        "ra"
      ],
      [
        "Ġc",
        "ons"
      ],
      [
        "Ġs",
        "ouv"
      ],
      [
        "ur",
        "es"
      ],
      [
        "Ġfr",
        "anÃ§ais"
      ],
      [
        "Ġcor",
        "ps"
      ],
      [
        "m",
        "i"
      ],
      [
        "t",
        "our"
      ],
      [
        "Ġp",
        "Ã¨re"
      ],
      [
        "it",
        "ion"
      ],
      [
        "oi",
        "g"
      ],
      [
        "ri",
        "ve"
      ],
      [
        "Ġy",
        "eux"
      ],
      [
        "Ġvi",
        "ent"
      ],
      [
        "Ġder",
        "n"
      ],
      [
        "Ġd",
        "Ã©t"
      ],
      [
        "Ġf",
        "au"
      ],
      [
        "Ġen",
        "v"
      ],
      [
        "Ġch",
        "aque"
      ],
      [
        "ĠC",
        "h"
      ],
      [
        "rap",
        "pe"
      ],
      [
        "'",
        ","
      ],
      [
        "t",
        "en"
      ],
      [
        "Ġc",
        "i"
      ],
      [
        "Ġm",
        "in"
      ],
      [
        "Ġf",
        "ort"
      ],
      [
        "Ġv",
        "it"
      ],
      [
        "os",
        "ma"
      ],
      [
        "Ġcou",
        "p"
      ],
      [
        "O",
        "N"
      ],
      [
        "Ġp",
        "ay"
      ],
      [
        "Ġp",
        "orte"
      ],
      [
        "Ġm",
        "ent"
      ],
      [
        "Ġs",
        "oit"
      ],
      [
        "Ġb",
        "as"
      ],
      [
        "Ġr",
        "ou"
      ],
      [
        "Ġpro",
        "p"
      ],
      [
        "Ġni",
        "quer"
      ],
      [
        "..",
        "."
      ],
      [
        "Ġrest",
        "e"
      ],
      [
        "F",
        "aut"
      ],
      [
        "S",
        "ur"
      ],
      [
        "n",
        "d"
      ],
      [
        "r",
        "is"
      ],
      [
        "Ġ",
        "ici"
      ],
      [
        "Ġc",
        "ap"
      ],
      [
        "Ġr",
        "Ãª"
      ],
      [
        "au",
        "vais"
      ],
      [
        "ien",
        "ne"
      ],
      [
        "r",
        "it"
      ],
      [
        "Ġ",
        "W"
      ],
      [
        "Ġp",
        "ut"
      ],
      [
        "Ġm",
        "ag"
      ],
      [
        "Ġb",
        "an"
      ],
      [
        "ra",
        "b"
      ],
      [
        "Ġpar",
        "ler"
      ],
      [
        "G",
        "ros"
      ],
      [
        "Ġc",
        "rois"
      ],
      [
        "Ã©",
        "v"
      ],
      [
        "Ġt",
        "erre"
      ],
      [
        "ar",
        "t"
      ],
      [
        "it",
        "er"
      ],
      [
        "Ġch",
        "er"
      ],
      [
        "Ġdi",
        "x"
      ],
      [
        "M",
        "Ãªme"
      ],
      [
        "O",
        "Ã¹"
      ],
      [
        "es",
        "h"
      ],
      [
        "Ġc",
        "an"
      ],
      [
        "Ġb",
        "e"
      ],
      [
        "Ġh",
        "ommes"
      ],
      [
        "Al",
        "ors"
      ],
      [
        "C",
        "e"
      ],
      [
        "f",
        "l"
      ],
      [
        "i",
        "an"
      ],
      [
        "ai",
        "e"
      ],
      [
        "ĠD",
        "ieu"
      ],
      [
        "P",
        "ON"
      ],
      [
        "Ġd",
        "Ã©s"
      ],
      [
        "Ġqu",
        "oi"
      ],
      [
        "Ġa",
        "c"
      ],
      [
        "Ġv",
        "en"
      ],
      [
        "Ġv",
        "ille"
      ],
      [
        "Ġau",
        "tres"
      ],
      [
        "ĠP",
        "ort"
      ],
      [
        "pr",
        "Ã¨s"
      ],
      [
        "ard",
        "s"
      ],
      [
        "PON",
        "T"
      ],
      [
        "Ġ",
        "im"
      ],
      [
        "Ġm",
        "oins"
      ],
      [
        "qu",
        "Ã©"
      ],
      [
        "er",
        "ai"
      ],
      [
        "Ġv",
        "oit"
      ],
      [
        "Ġr",
        "Ã©c"
      ],
      [
        "Ġch",
        "aud"
      ],
      [
        "ĠdÃ©",
        "p"
      ],
      [
        "ĠP",
        "an"
      ],
      [
        "ĠB",
        "e"
      ],
      [
        "Ġrapp",
        "eurs"
      ],
      [
        "Ġseu",
        "le"
      ],
      [
        "app",
        "elle"
      ],
      [
        "ten",
        "ant"
      ],
      [
        "h",
        "a"
      ],
      [
        "Ġa",
        "ur"
      ],
      [
        "est",
        "in"
      ],
      [
        "Ġal",
        "l"
      ],
      [
        "Ġpo",
        "te"
      ],
      [
        "h",
        "omme"
      ],
      [
        "u",
        "le"
      ],
      [
        "Ġc",
        "ro"
      ],
      [
        "Ġs",
        "our"
      ],
      [
        "ais",
        "e"
      ],
      [
        "in",
        "c"
      ],
      [
        "et",
        "s"
      ],
      [
        "Ġme",
        "c"
      ],
      [
        "s",
        "es"
      ],
      [
        "Ġ",
        "ann"
      ],
      [
        "Ġs",
        "Åĵur"
      ],
      [
        "in",
        "t"
      ],
      [
        "Ġv",
        "os"
      ],
      [
        "os",
        "es"
      ],
      [
        "Ġpar",
        "ce"
      ],
      [
        "Ġcou",
        "ple"
      ],
      [
        "Ġbeau",
        "coup"
      ],
      [
        "0",
        "0"
      ],
      [
        "h",
        "ab"
      ],
      [
        "en",
        "v"
      ],
      [
        "Ġc",
        "al"
      ],
      [
        "Ġt",
        "ir"
      ],
      [
        "Ġf",
        "ils"
      ],
      [
        "ais",
        "se"
      ],
      [
        "Ġv",
        "oul"
      ],
      [
        "ig",
        "ne"
      ],
      [
        "ib",
        "le"
      ],
      [
        "ail",
        "le"
      ],
      [
        "Ġcont",
        "re"
      ],
      [
        "Ã©f",
        "Ã¨re"
      ],
      [
        "S",
        "B"
      ],
      [
        "T",
        "ous"
      ],
      [
        "m",
        "Ã©"
      ],
      [
        "u",
        "g"
      ],
      [
        "Ġd",
        "ra"
      ],
      [
        "on",
        "e"
      ],
      [
        "Ġm",
        "auvais"
      ],
      [
        "Ġs",
        "ait"
      ],
      [
        "Ġa",
        "b"
      ],
      [
        "Ġh",
        "omme"
      ],
      [
        "ic",
        "k"
      ],
      [
        "Ġme",
        "ill"
      ],
      [
        "Ġtr",
        "uc"
      ],
      [
        "Ġtro",
        "is"
      ],
      [
        "Ġvoi",
        "x"
      ],
      [
        "E",
        "h"
      ],
      [
        "b",
        "er"
      ],
      [
        "f",
        "ait"
      ],
      [
        "i",
        "o"
      ],
      [
        "r",
        "ait"
      ],
      [
        "Ġ",
        "Z"
      ],
      [
        "Ġc",
        "ri"
      ],
      [
        "Ġt",
        "osma"
      ],
      [
        "Ġf",
        "out"
      ],
      [
        "Ġn",
        "om"
      ],
      [
        "se",
        "m"
      ],
      [
        "la",
        "h"
      ],
      [
        "az",
        "a"
      ],
      [
        "c",
        "ul"
      ],
      [
        "o",
        "il"
      ],
      [
        "p",
        "ort"
      ],
      [
        "Ġd",
        "onn"
      ],
      [
        "an",
        "e"
      ],
      [
        "our",
        "ir"
      ],
      [
        "ĠÃ",
        "¢"
      ],
      [
        "ĠP",
        "ar"
      ],
      [
        "Ġav",
        "ait"
      ],
      [
        "M",
        "Ã©dine"
      ],
      [
        "a",
        "te"
      ],
      [
        "Ġp",
        "oin"
      ],
      [
        "an",
        "che"
      ],
      [
        "Ġa",
        "ussi"
      ],
      [
        "Ġr",
        "en"
      ],
      [
        "or",
        "ce"
      ],
      [
        "ous",
        "se"
      ],
      [
        "En",
        "tre"
      ],
      [
        "Ġdev",
        "ant"
      ],
      [
        "Ġder",
        "riÃ¨re"
      ],
      [
        "arg",
        "ent"
      ],
      [
        "a",
        "ff"
      ],
      [
        "e",
        "in"
      ],
      [
        "i",
        "ques"
      ],
      [
        "o",
        "v"
      ],
      [
        "Ã",
        "§a"
      ],
      [
        "Ġ",
        "an"
      ],
      [
        "Ġp",
        "ou"
      ],
      [
        "Ġs",
        "au"
      ],
      [
        "Ġs",
        "orti"
      ],
      [
        "ri",
        "r"
      ],
      [
        "ap",
        "a"
      ],
      [
        "av",
        "ais"
      ],
      [
        "ĠS",
        "oc"
      ],
      [
        "oc",
        "k"
      ],
      [
        "Ġpro",
        "f"
      ],
      [
        "Ġjus",
        "qu"
      ],
      [
        "Ġfem",
        "me"
      ],
      [
        "f",
        "r"
      ],
      [
        "o",
        "les"
      ],
      [
        "Ġs",
        "Ã»"
      ],
      [
        "er",
        "n"
      ],
      [
        "Ġqu",
        "it"
      ],
      [
        "au",
        "tre"
      ],
      [
        "ur",
        "s"
      ],
      [
        "ien",
        "nent"
      ],
      [
        "Ã©c",
        "oute"
      ],
      [
        "id",
        "ent"
      ],
      [
        "ail",
        "l"
      ],
      [
        "Ġquarti",
        "er"
      ],
      [
        "Ġpers",
        "onne"
      ],
      [
        "c",
        "onn"
      ],
      [
        "h",
        "eure"
      ],
      [
        "i",
        "Ã©"
      ],
      [
        "Ġ",
        "Y"
      ],
      [
        "Ġ",
        "or"
      ],
      [
        "Ġm",
        "Ã©t"
      ],
      [
        "Ġs",
        "u"
      ],
      [
        "Ġs",
        "em"
      ],
      [
        "Ġs",
        "omb"
      ],
      [
        "Ġt",
        "ri"
      ],
      [
        "Ġt",
        "ellement"
      ],
      [
        "our",
        "d"
      ],
      [
        "Ġg",
        "Ã©n"
      ],
      [
        "ra",
        "m"
      ],
      [
        "Ġch",
        "ar"
      ],
      [
        "Ġconn",
        "u"
      ],
      [
        "Ġquarti",
        "ers"
      ],
      [
        "b",
        "ar"
      ],
      [
        "h",
        "ett"
      ],
      [
        "Ġl",
        "ong"
      ],
      [
        "Ġp",
        "ense"
      ],
      [
        "Ġm",
        "o"
      ],
      [
        "Ġm",
        "Ã©d"
      ],
      [
        "Ġb",
        "it"
      ],
      [
        "Ġn",
        "uit"
      ],
      [
        "au",
        "rais"
      ],
      [
        "ess",
        "es"
      ],
      [
        "Ġser",
        "a"
      ],
      [
        "Ġput",
        "ain"
      ],
      [
        "ĠBe",
        "ach"
      ],
      [
        "ĠSoc",
        "cer"
      ],
      [
        "I",
        "n"
      ],
      [
        "b",
        "um"
      ],
      [
        "Ġ",
        "La"
      ],
      [
        "Ġp",
        "i"
      ],
      [
        "Ġf",
        "oot"
      ],
      [
        "ent",
        "e"
      ],
      [
        "in",
        "d"
      ],
      [
        "Ġau",
        "tre"
      ],
      [
        "onn",
        "es"
      ],
      [
        "ĠdÃ©",
        "g"
      ],
      [
        "Ġmus",
        "ique"
      ],
      [
        "c",
        "ours"
      ],
      [
        "Ġl",
        "oin"
      ],
      [
        "Ġc",
        "ours"
      ],
      [
        "Ġv",
        "oy"
      ],
      [
        "Ġn",
        "on"
      ],
      [
        "Ġau",
        "c"
      ],
      [
        "Ġch",
        "ant"
      ],
      [
        "am",
        "b"
      ],
      [
        "Ġh",
        "um"
      ],
      [
        "ouv",
        "er"
      ],
      [
        "A",
        "ulnay"
      ],
      [
        "d",
        "es"
      ],
      [
        "h",
        "istoire"
      ],
      [
        "i",
        "de"
      ],
      [
        "Ġm",
        "ill"
      ],
      [
        "Ġm",
        "ourir"
      ],
      [
        "Ġv",
        "ais"
      ],
      [
        "Ġch",
        "e"
      ],
      [
        "Ġtr",
        "Ã¨s"
      ],
      [
        "Ġdis",
        "ent"
      ],
      [
        "Ġjour",
        "n"
      ],
      [
        "Ġfor",
        "ce"
      ],
      [
        "Ġat",
        "t"
      ],
      [
        "o",
        "h"
      ],
      [
        "Ġl",
        "aiss"
      ],
      [
        "Ġp",
        "eux"
      ],
      [
        "Ġm",
        "eur"
      ],
      [
        "re",
        "t"
      ],
      [
        "Ġb",
        "ut"
      ],
      [
        "est",
        "e"
      ],
      [
        "ch",
        "Ã©"
      ],
      [
        "os",
        "t"
      ],
      [
        "Ġh",
        "aine"
      ],
      [
        "ion",
        "n"
      ],
      [
        "ot",
        "o"
      ],
      [
        "Ġin",
        "s"
      ],
      [
        "Ġbl",
        "anc"
      ],
      [
        "a",
        "Ã§on"
      ],
      [
        "c",
        "rois"
      ],
      [
        "i",
        "me"
      ],
      [
        "Ġc",
        "elle"
      ],
      [
        "Ġs",
        "ent"
      ],
      [
        "Ġs",
        "tre"
      ],
      [
        "Ġb",
        "elle"
      ],
      [
        "Ġr",
        "Ã©s"
      ],
      [
        "Ã¨",
        "g"
      ],
      [
        "el",
        "ui"
      ],
      [
        "am",
        "a"
      ],
      [
        "Ġh",
        "eure"
      ],
      [
        "ors",
        "que"
      ],
      [
        "Ġav",
        "oir"
      ],
      [
        "Ġgu",
        "eu"
      ],
      [
        "ĠrÃ©",
        "v"
      ],
      [
        "Ġap",
        "p"
      ],
      [
        "D",
        "u"
      ],
      [
        "r",
        "as"
      ],
      [
        "s",
        "ous"
      ],
      [
        "u",
        "tion"
      ],
      [
        "Ġ",
        "Ã©l"
      ],
      [
        "Ġ",
        "elles"
      ],
      [
        "Ġd",
        "ur"
      ],
      [
        "Ġl",
        "ib"
      ],
      [
        "Ġp",
        "ri"
      ],
      [
        "Ġm",
        "euf"
      ],
      [
        "Ġs",
        "up"
      ],
      [
        "Ġn",
        "otre"
      ],
      [
        "Ġpar",
        "lent"
      ],
      [
        "Ġpl",
        "an"
      ],
      [
        "ig",
        "h"
      ],
      [
        "ĠdÃ©",
        "m"
      ],
      [
        "pr",
        "Ã©fÃ¨re"
      ],
      [
        "ĠÃ©t",
        "Ã©"
      ],
      [
        "Ġple",
        "in"
      ],
      [
        "Ġpe",
        "ine"
      ],
      [
        "Ġpie",
        "d"
      ],
      [
        "Ġci",
        "el"
      ],
      [
        "i",
        "ch"
      ],
      [
        "n",
        "Ã©"
      ],
      [
        "is",
        "me"
      ],
      [
        "Ġf",
        "ai"
      ],
      [
        "Ġf",
        "il"
      ],
      [
        "it",
        "es"
      ],
      [
        "te",
        "l"
      ],
      [
        "Ġpas",
        "se"
      ],
      [
        "us",
        "e"
      ],
      [
        "Ãª",
        "mes"
      ],
      [
        "ĠP",
        "ro"
      ],
      [
        "pr",
        "endre"
      ],
      [
        "uc",
        "k"
      ],
      [
        "Ġap",
        "pris"
      ],
      [
        "Ġparti",
        "e"
      ],
      [
        "Ġrem",
        "pl"
      ],
      [
        "f",
        "s"
      ],
      [
        "h",
        "um"
      ],
      [
        "i",
        "Ã¨res"
      ],
      [
        "l",
        "ig"
      ],
      [
        "Ġ",
        "imp"
      ],
      [
        "en",
        "c"
      ],
      [
        "Ġc",
        "as"
      ],
      [
        "Ġc",
        "au"
      ],
      [
        "on",
        "te"
      ],
      [
        "is",
        "se"
      ],
      [
        "Ġa",
        "s"
      ],
      [
        "Ġb",
        "at"
      ],
      [
        "Ġb",
        "ra"
      ],
      [
        "Ġg",
        "l"
      ],
      [
        "Ġch",
        "ans"
      ],
      [
        "Ġre",
        "b"
      ],
      [
        "ac",
        "c"
      ],
      [
        "Ġpro",
        "bl"
      ],
      [
        "ass",
        "es"
      ],
      [
        "Ġcul",
        "ture"
      ],
      [
        "L",
        "imsa"
      ],
      [
        "P",
        "l"
      ],
      [
        "c",
        "k"
      ],
      [
        "s",
        "er"
      ],
      [
        "y",
        "th"
      ],
      [
        "Ġ",
        "eu"
      ],
      [
        "Ġd",
        "ar"
      ],
      [
        "Ġp",
        "Ã©t"
      ],
      [
        "Ġm",
        "ont"
      ],
      [
        "qu",
        "ent"
      ],
      [
        "it",
        "u"
      ],
      [
        "oi",
        "res"
      ],
      [
        "Ġg",
        "ang"
      ],
      [
        "Ġch",
        "oses"
      ],
      [
        "Ġk",
        "eufs"
      ],
      [
        "Ġfam",
        "ille"
      ],
      [
        "Ġsouv",
        "ent"
      ],
      [
        "b",
        "all"
      ],
      [
        "l",
        "ui"
      ],
      [
        "p",
        "eux"
      ],
      [
        "Ġ",
        "9"
      ],
      [
        "Ġ",
        "es"
      ],
      [
        "Ġc",
        "am"
      ],
      [
        "Ġj",
        "ours"
      ],
      [
        "Ġa",
        "d"
      ],
      [
        "Ġr",
        "entre"
      ],
      [
        "Ġg",
        "hett"
      ],
      [
        "al",
        "itÃ©"
      ],
      [
        "ra",
        "che"
      ],
      [
        "Ãª",
        "tes"
      ],
      [
        "ain",
        "es"
      ],
      [
        "Ġcou",
        "ps"
      ],
      [
        "Ġcon",
        "f"
      ],
      [
        "Ġal",
        "bum"
      ],
      [
        "N",
        "os"
      ],
      [
        "l",
        "ieu"
      ],
      [
        "z",
        "e"
      ],
      [
        "Ã©",
        "ti"
      ],
      [
        "Ġv",
        "ite"
      ],
      [
        "Ġpour",
        "quoi"
      ],
      [
        "Ġpr",
        "endre"
      ],
      [
        "pe",
        "ct"
      ],
      [
        "Ġbr",
        "uit"
      ],
      [
        "Ġpot",
        "es"
      ],
      [
        "Ġpet",
        "ite"
      ],
      [
        "ress",
        "ion"
      ],
      [
        "Ġstre",
        "et"
      ],
      [
        "N",
        "ous"
      ],
      [
        "h",
        "ui"
      ],
      [
        "i",
        "ra"
      ],
      [
        "i",
        "Ã¨me"
      ],
      [
        "Ġl",
        "ar"
      ],
      [
        "Ġm",
        "eufs"
      ],
      [
        "Ġs",
        "y"
      ],
      [
        "Ġt",
        "ard"
      ],
      [
        "ar",
        "re"
      ],
      [
        "Ġb",
        "o"
      ],
      [
        "Ġv",
        "iens"
      ],
      [
        "Ġg",
        "al"
      ],
      [
        "el",
        "l"
      ],
      [
        "ra",
        "ve"
      ],
      [
        "Ġse",
        "c"
      ],
      [
        "Ã©p",
        "oque"
      ],
      [
        "En",
        "f"
      ],
      [
        "Ġvi",
        "ol"
      ],
      [
        "ĠÃ©c",
        "oute"
      ],
      [
        "ient",
        "Ã´t"
      ],
      [
        "Par",
        "ce"
      ],
      [
        "br",
        "ou"
      ],
      [
        "sem",
        "ble"
      ],
      [
        "A",
        "f"
      ],
      [
        "v",
        "ers"
      ],
      [
        "Ġd",
        "estin"
      ],
      [
        "Ġl",
        "iv"
      ],
      [
        "Ġf",
        "aux"
      ],
      [
        "Ġv",
        "er"
      ],
      [
        "Ã¨",
        "mes"
      ],
      [
        "Ġch",
        "anger"
      ],
      [
        "Ġpl",
        "ume"
      ],
      [
        "res",
        "se"
      ],
      [
        "Ġre",
        "p"
      ],
      [
        "ab",
        "les"
      ],
      [
        "Ġtr",
        "ans"
      ],
      [
        "um",
        "iÃ¨re"
      ],
      [
        "Ġo",
        "b"
      ],
      [
        "Ã´",
        "le"
      ],
      [
        "ord",
        "s"
      ],
      [
        "rap",
        "p"
      ],
      [
        "Ġrapp",
        "eur"
      ],
      [
        "Ġbar",
        "be"
      ],
      [
        "Ġsav",
        "oir"
      ],
      [
        "Ġmat",
        "in"
      ],
      [
        "Ġcouple",
        "ts"
      ],
      [
        "ĠPar",
        "is"
      ],
      [
        "R",
        "ien"
      ],
      [
        "r",
        "and"
      ],
      [
        "u",
        "ti"
      ],
      [
        "Ġp",
        "au"
      ],
      [
        "Ġc",
        "Ã´"
      ],
      [
        "ar",
        "i"
      ],
      [
        "Ġb",
        "ord"
      ],
      [
        "Ġv",
        "Ã©r"
      ],
      [
        "te",
        "m"
      ],
      [
        "al",
        "es"
      ],
      [
        "Ġch",
        "ose"
      ],
      [
        "ri",
        "que"
      ],
      [
        "Ġh",
        "istoire"
      ],
      [
        "Ġpeu",
        "ple"
      ],
      [
        "Ġbr",
        "as"
      ],
      [
        "Ġsou",
        "ff"
      ],
      [
        "Ġri",
        "che"
      ],
      [
        "Ġcomb",
        "at"
      ],
      [
        "R",
        "e"
      ],
      [
        "l",
        "Ãł"
      ],
      [
        "v",
        "ous"
      ],
      [
        "Ġl",
        "ang"
      ],
      [
        "Ġm",
        "ois"
      ],
      [
        "Ġs",
        "ois"
      ],
      [
        "oi",
        "x"
      ],
      [
        "al",
        "k"
      ],
      [
        "ol",
        "l"
      ],
      [
        "Ġre",
        "v"
      ],
      [
        "Qu",
        "el"
      ],
      [
        "Ġy",
        "eah"
      ],
      [
        "Ġal",
        "ors"
      ],
      [
        "Ġjeu",
        "nes"
      ],
      [
        "Ġfem",
        "mes"
      ],
      [
        "rab",
        "ian"
      ],
      [
        "A",
        "uc"
      ],
      [
        "W",
        "esh"
      ],
      [
        "c",
        "ro"
      ],
      [
        "g",
        "ue"
      ],
      [
        "v",
        "Ã©"
      ],
      [
        "Ã©",
        "ment"
      ],
      [
        "Ġa",
        "prÃ¨s"
      ],
      [
        "un",
        "es"
      ],
      [
        "ri",
        "re"
      ],
      [
        "ti",
        "ce"
      ],
      [
        "Ġh",
        "aut"
      ],
      [
        "ĠP",
        "anth"
      ],
      [
        "Ġcou",
        "illes"
      ],
      [
        "ouv",
        "oir"
      ],
      [
        "Ġmain",
        "s"
      ],
      [
        "aÃ®",
        "t"
      ],
      [
        "Ġenf",
        "ants"
      ],
      [
        "igh",
        "t"
      ],
      [
        "A",
        "vant"
      ],
      [
        "C",
        "om"
      ],
      [
        "b",
        "les"
      ],
      [
        "j",
        "ourd"
      ],
      [
        "y",
        "le"
      ],
      [
        "Ġ",
        "anc"
      ],
      [
        "Ġl",
        "og"
      ],
      [
        "en",
        "nent"
      ],
      [
        "ai",
        "g"
      ],
      [
        "ai",
        "x"
      ],
      [
        "Ġc",
        "er"
      ],
      [
        "Ġm",
        "iss"
      ],
      [
        "ar",
        "rive"
      ],
      [
        "Ġf",
        "oi"
      ],
      [
        "Ġr",
        "ais"
      ],
      [
        "oi",
        "ent"
      ],
      [
        "os",
        "se"
      ],
      [
        "ag",
        "ne"
      ],
      [
        "Ġo",
        "h"
      ],
      [
        "ass",
        "er"
      ],
      [
        "Ġvi",
        "vre"
      ],
      [
        "ĠÃ©",
        "v"
      ],
      [
        "Ġpu",
        "tes"
      ],
      [
        "Ġdem",
        "ande"
      ],
      [
        "Ġprem",
        "ier"
      ],
      [
        "Ġenv",
        "ie"
      ],
      [
        "Ġann",
        "Ã©es"
      ],
      [
        "Y",
        "eah"
      ],
      [
        "b",
        "ou"
      ],
      [
        "c",
        "ou"
      ],
      [
        "d",
        "i"
      ],
      [
        "l",
        "am"
      ],
      [
        "Ġd",
        "ir"
      ],
      [
        "Ġl",
        "Ã©g"
      ],
      [
        "Ġc",
        "ent"
      ],
      [
        "Ġs",
        "ale"
      ],
      [
        "Ġt",
        "he"
      ],
      [
        "Ġa",
        "ss"
      ],
      [
        "Ġn",
        "Ã©"
      ],
      [
        "ri",
        "er"
      ],
      [
        "Ġh",
        "ab"
      ],
      [
        "Ġre",
        "c"
      ],
      [
        "ĠA",
        "ulnay"
      ],
      [
        "Ã©ri",
        "e"
      ],
      [
        "Ġdou",
        "ble"
      ],
      [
        "Ġmer",
        "de"
      ],
      [
        "Ġmot",
        "s"
      ],
      [
        "Ġdern",
        "ier"
      ],
      [
        "Ġfoot",
        "ball"
      ],
      [
        "ĠrÃ©v",
        "ol"
      ],
      [
        "l",
        "Ã©"
      ],
      [
        "o",
        "ti"
      ],
      [
        "u",
        "te"
      ],
      [
        "en",
        "u"
      ],
      [
        "Ġqu",
        "est"
      ],
      [
        "is",
        "Ã©"
      ],
      [
        "Ġf",
        "ou"
      ],
      [
        "Ġa",
        "g"
      ],
      [
        "le",
        "t"
      ],
      [
        "ve",
        "au"
      ],
      [
        "Ãª",
        "ter"
      ],
      [
        "Ġou",
        "bl"
      ],
      [
        "end",
        "ant"
      ],
      [
        "ĠA",
        "ra"
      ],
      [
        "rem",
        "ier"
      ],
      [
        "Ġmet",
        "tre"
      ],
      [
        "Ġperd",
        "u"
      ],
      [
        "Ġsc",
        "Ã¨ne"
      ],
      [
        "Ġjou",
        "e"
      ],
      [
        "Ġgueu",
        "le"
      ],
      [
        "A",
        "SB"
      ],
      [
        "M",
        "al"
      ],
      [
        "a",
        "Ã¯"
      ],
      [
        "g",
        "u"
      ],
      [
        "m",
        "in"
      ],
      [
        "o",
        "k"
      ],
      [
        "o",
        "Ã»"
      ],
      [
        "Ġ",
        "U"
      ],
      [
        "Ġ",
        "id"
      ],
      [
        "Ġp",
        "ouss"
      ],
      [
        "Ġp",
        "ouvoir"
      ],
      [
        "Ġp",
        "aix"
      ],
      [
        "en",
        "re"
      ],
      [
        "Ġc",
        "elui"
      ],
      [
        "Ġs",
        "uc"
      ],
      [
        "ar",
        "b"
      ],
      [
        "Ġb",
        "Ã¢"
      ],
      [
        "Ġv",
        "al"
      ],
      [
        "Ġv",
        "ol"
      ],
      [
        "Ġr",
        "Ã©g"
      ],
      [
        "em",
        "ande"
      ],
      [
        "Ã©c",
        "ole"
      ],
      [
        "end",
        "u"
      ],
      [
        "im",
        "m"
      ],
      [
        "onn",
        "er"
      ],
      [
        "Ġpr",
        "Ã©s"
      ],
      [
        "Ġtr",
        "ouve"
      ],
      [
        "ad",
        "is"
      ],
      [
        "Ġgrand",
        "i"
      ],
      [
        "Ġpass",
        "Ã©"
      ],
      [
        "esp",
        "oir"
      ],
      [
        "aÃ®",
        "tre"
      ],
      [
        "Ġreb",
        "eu"
      ],
      [
        "O",
        "h"
      ],
      [
        "P",
        "oto"
      ],
      [
        "r",
        "ont"
      ],
      [
        "Ġ",
        "Je"
      ],
      [
        "Ġl",
        "Ã¨ve"
      ],
      [
        "ou",
        "bl"
      ],
      [
        "Ġc",
        "ash"
      ],
      [
        "Ġt",
        "Ã©l"
      ],
      [
        "Ġf",
        "um"
      ],
      [
        "Ġb",
        "onne"
      ],
      [
        "ro",
        "p"
      ],
      [
        "Ġg",
        "ar"
      ],
      [
        "at",
        "h"
      ],
      [
        "ra",
        "Ã®"
      ],
      [
        "ic",
        "iens"
      ],
      [
        "ĠS",
        "e"
      ],
      [
        "oc",
        "i"
      ],
      [
        "Åĵ",
        "il"
      ],
      [
        "Ġcon",
        "se"
      ],
      [
        "Ġdev",
        "ise"
      ],
      [
        "ec",
        "ords"
      ],
      [
        "Ġmain",
        "tenant"
      ],
      [
        "Ġjeu",
        "ne"
      ],
      [
        "Ġreg",
        "ard"
      ],
      [
        "Ġtomb",
        "e"
      ],
      [
        "Ġpay",
        "s"
      ],
      [
        "Ġban",
        "lieu"
      ],
      [
        "Ġaur",
        "a"
      ],
      [
        "Ġghett",
        "o"
      ],
      [
        "C",
        "es"
      ],
      [
        "L",
        "orsque"
      ],
      [
        "M",
        "ain"
      ],
      [
        "e",
        "ff"
      ],
      [
        "h",
        "ors"
      ],
      [
        "r",
        "ain"
      ],
      [
        "t",
        "u"
      ],
      [
        "t",
        "oi"
      ],
      [
        "y",
        "s"
      ],
      [
        "Ġd",
        "onne"
      ],
      [
        "on",
        "ce"
      ],
      [
        "Ġm",
        "Ã¨res"
      ],
      [
        "re",
        "u"
      ],
      [
        "Ġt",
        "ire"
      ],
      [
        "Ġf",
        "ace"
      ],
      [
        "Ġpl",
        "eure"
      ],
      [
        "am",
        "an"
      ],
      [
        "Ġre",
        "tour"
      ],
      [
        "im",
        "es"
      ],
      [
        "la",
        "ce"
      ],
      [
        "ill",
        "Ã©"
      ],
      [
        "Ġar",
        "r"
      ],
      [
        "ale",
        "ment"
      ],
      [
        "Ġcr",
        "oire"
      ],
      [
        "iss",
        "ent"
      ],
      [
        "Ġconn",
        "ais"
      ],
      [
        "Ġpu",
        "bl"
      ],
      [
        "Ġvrai",
        "ment"
      ],
      [
        "Ġdro",
        "it"
      ],
      [
        "Ġsh",
        "it"
      ],
      [
        "Ġbit",
        "ch"
      ],
      [
        "Ġlar",
        "mes"
      ],
      [
        "A",
        "rabian"
      ],
      [
        "L",
        "Ãł"
      ],
      [
        "N",
        "e"
      ],
      [
        "l",
        "an"
      ],
      [
        "r",
        "an"
      ],
      [
        "Ġ",
        "oi"
      ],
      [
        "Ġd",
        "os"
      ],
      [
        "Ġp",
        "apa"
      ],
      [
        "Ã©",
        "b"
      ],
      [
        "Ġm",
        "Ãªmes"
      ],
      [
        "Ġa",
        "ha"
      ],
      [
        "Ġr",
        "am"
      ],
      [
        "et",
        "er"
      ],
      [
        "Ġg",
        "ame"
      ],
      [
        "eur",
        "es"
      ],
      [
        "at",
        "re"
      ],
      [
        "ri",
        "g"
      ],
      [
        "ot",
        "s"
      ],
      [
        "ĠdÃ©",
        "b"
      ],
      [
        "Ġrap",
        "pe"
      ],
      [
        "ĠD",
        "on"
      ],
      [
        "Ġin",
        "ter"
      ],
      [
        "Ġvi",
        "es"
      ],
      [
        "Ġgrand",
        "s"
      ],
      [
        "Ġser",
        "v"
      ],
      [
        "ĠÃ©",
        "qui"
      ],
      [
        "Ġmort",
        "s"
      ],
      [
        "Ġfin",
        "ir"
      ],
      [
        "Ġsav",
        "ent"
      ],
      [
        "ĠPan",
        "ame"
      ],
      [
        "Ġtri",
        "b"
      ],
      [
        "P",
        "et"
      ],
      [
        "T",
        "a"
      ],
      [
        "b",
        "a"
      ],
      [
        "j",
        "e"
      ],
      [
        "t",
        "est"
      ],
      [
        "Ġd",
        "Ã»"
      ],
      [
        "Ġl",
        "umiÃ¨re"
      ],
      [
        "Ġp",
        "ig"
      ],
      [
        "Ġp",
        "ire"
      ],
      [
        "Ġm",
        "ic"
      ],
      [
        "Ġm",
        "od"
      ],
      [
        "Ġt",
        "ant"
      ],
      [
        "Ġt",
        "ours"
      ],
      [
        "ent",
        "ends"
      ],
      [
        "Ġb",
        "ag"
      ],
      [
        "Ġb",
        "oul"
      ],
      [
        "Ġb",
        "iz"
      ],
      [
        "el",
        "s"
      ],
      [
        "ti",
        "f"
      ],
      [
        "Ġh",
        "ein"
      ],
      [
        "Ġma",
        "ch"
      ],
      [
        "Ġpr",
        "end"
      ],
      [
        "Ġcou",
        "pe"
      ],
      [
        "Ġar",
        "t"
      ],
      [
        "Ġvi",
        "eux"
      ],
      [
        "ĠR",
        "ecords"
      ],
      [
        "anc",
        "es"
      ],
      [
        "ĠG",
        "aza"
      ],
      [
        "De",
        "puis"
      ],
      [
        "Ġcol",
        "on"
      ],
      [
        "Ġfau",
        "te"
      ],
      [
        "A",
        "r"
      ],
      [
        "D",
        "is"
      ],
      [
        "H",
        "ey"
      ],
      [
        "P",
        "r"
      ],
      [
        "c",
        "s"
      ],
      [
        "d",
        "am"
      ],
      [
        "e",
        "d"
      ],
      [
        "i",
        "x"
      ],
      [
        "i",
        "ve"
      ],
      [
        "m",
        "p"
      ],
      [
        "m",
        "is"
      ],
      [
        "r",
        "ass"
      ],
      [
        "s",
        "h"
      ],
      [
        "Ġ",
        "Le"
      ],
      [
        "ai",
        "mer"
      ],
      [
        "Ġc",
        "oc"
      ],
      [
        "Ġs",
        "p"
      ],
      [
        "re",
        "ment"
      ],
      [
        "Ġf",
        "ous"
      ],
      [
        "Ġf",
        "rappe"
      ],
      [
        "Ġb",
        "out"
      ],
      [
        "Ġb",
        "ic"
      ],
      [
        "Ġb",
        "Ã©n"
      ],
      [
        "Ġv",
        "oil"
      ],
      [
        "us",
        "t"
      ],
      [
        "Ġen",
        "ne"
      ],
      [
        "at",
        "te"
      ],
      [
        "ien",
        "d"
      ],
      [
        "Ġch",
        "ois"
      ],
      [
        "Ã©t",
        "Ã©"
      ],
      [
        "Ã©c",
        "ris"
      ],
      [
        "ĠB",
        "l"
      ],
      [
        "ĠD",
        "e"
      ],
      [
        "co",
        "ol"
      ],
      [
        "ĠÃ©c",
        "out"
      ],
      [
        "oo",
        "d"
      ],
      [
        "if",
        "e"
      ],
      [
        "ĠcÅĵur",
        "s"
      ],
      [
        "enf",
        "er"
      ],
      [
        "Ġpetit",
        "es"
      ],
      [
        "Ġauc",
        "une"
      ],
      [
        "P",
        "ers"
      ],
      [
        "S",
        "on"
      ],
      [
        "S",
        "ans"
      ],
      [
        "a",
        "che"
      ],
      [
        "d",
        "Ã©"
      ],
      [
        "g",
        "ard"
      ],
      [
        "l",
        "eurs"
      ],
      [
        "m",
        "Ãªme"
      ],
      [
        "o",
        "f"
      ],
      [
        "p",
        "ense"
      ],
      [
        "t",
        "at"
      ],
      [
        "u",
        "ge"
      ],
      [
        "Ġd",
        "igne"
      ],
      [
        "Ġl",
        "it"
      ],
      [
        "ou",
        "pe"
      ],
      [
        "Ġc",
        "it"
      ],
      [
        "Ġs",
        "k"
      ],
      [
        "Ġs",
        "ors"
      ],
      [
        "Ġt",
        "o"
      ],
      [
        "Ġb",
        "ille"
      ],
      [
        "in",
        "qui"
      ],
      [
        "Ġv",
        "ent"
      ],
      [
        "Ġv",
        "ont"
      ],
      [
        "om",
        "p"
      ],
      [
        "Ġch",
        "am"
      ],
      [
        "Ġch",
        "em"
      ],
      [
        "em",
        "p"
      ],
      [
        "Ġre",
        "u"
      ],
      [
        "ac",
        "le"
      ],
      [
        "ab",
        "e"
      ],
      [
        "av",
        "oir"
      ],
      [
        "Ġsi",
        "x"
      ],
      [
        "Ġo",
        "f"
      ],
      [
        "Ġo",
        "p"
      ],
      [
        "Ġdis",
        "que"
      ],
      [
        "Ġin",
        "d"
      ],
      [
        "Ġar",
        "me"
      ],
      [
        "Ġser",
        "ai"
      ],
      [
        "El",
        "les"
      ],
      [
        "Ġtra",
        "Ã®"
      ],
      [
        "Ġpu",
        "te"
      ],
      [
        "esp",
        "Ã¨re"
      ],
      [
        "Ġrou",
        "ge"
      ],
      [
        "Ġfout",
        "re"
      ],
      [
        "Ġsomb",
        "res"
      ],
      [
        "Ġche",
        "v"
      ],
      [
        "ĠÃ©l",
        "Ã©ment"
      ],
      [
        "Pl",
        "us"
      ],
      [
        "M",
        "e"
      ],
      [
        "c",
        "tion"
      ],
      [
        "d",
        "ro"
      ],
      [
        "g",
        "arde"
      ],
      [
        "i",
        "at"
      ],
      [
        "p",
        "asse"
      ],
      [
        "r",
        "on"
      ],
      [
        "s",
        "om"
      ],
      [
        "t",
        "ou"
      ],
      [
        "u",
        "er"
      ],
      [
        "y",
        "l"
      ],
      [
        "Ġ",
        "3"
      ],
      [
        "Ġm",
        "il"
      ],
      [
        "Ġm",
        "or"
      ],
      [
        "Ġt",
        "it"
      ],
      [
        "Ġf",
        "ut"
      ],
      [
        "Ġf",
        "ume"
      ],
      [
        "Ġb",
        "u"
      ],
      [
        "Ġg",
        "ard"
      ],
      [
        "Ġpro",
        "v"
      ],
      [
        "Ġar",
        "mes"
      ],
      [
        "Ġgros",
        "se"
      ],
      [
        "Ġal",
        "ler"
      ],
      [
        "ation",
        "s"
      ],
      [
        "Ġz",
        "Ã©ro"
      ],
      [
        "Ch",
        "aque"
      ],
      [
        "Ġpie",
        "ds"
      ],
      [
        "Ġtruc",
        "s"
      ],
      [
        "Ġchans",
        "ons"
      ],
      [
        "ĠvÃ©r",
        "itÃ©"
      ],
      [
        "Main",
        "tenant"
      ],
      [
        "D",
        "onc"
      ],
      [
        "M",
        "ar"
      ],
      [
        "c",
        "r"
      ],
      [
        "f",
        "or"
      ],
      [
        "f",
        "aÃ§on"
      ],
      [
        "i",
        "ance"
      ],
      [
        "t",
        "eur"
      ],
      [
        "y",
        "a"
      ],
      [
        "Ã",
        "¼"
      ],
      [
        "Ġd",
        "ents"
      ],
      [
        "ai",
        "te"
      ],
      [
        "Ġs",
        "oci"
      ],
      [
        "an",
        "o"
      ],
      [
        "Ġt",
        "ess"
      ],
      [
        "Ġt",
        "ex"
      ],
      [
        "at",
        "ti"
      ],
      [
        "ag",
        "er"
      ],
      [
        "Ġre",
        "tr"
      ],
      [
        "ic",
        "o"
      ],
      [
        "onn",
        "eur"
      ],
      [
        "ig",
        "g"
      ],
      [
        "pr",
        "end"
      ],
      [
        "Ġfr",
        "Ã©ro"
      ],
      [
        "ill",
        "er"
      ],
      [
        "Ġdis",
        "cours"
      ],
      [
        "omb",
        "re"
      ],
      [
        "op",
        "h"
      ],
      [
        "ĠÃ©",
        "m"
      ],
      [
        "Ġcont",
        "r"
      ],
      [
        "Ġpet",
        "its"
      ],
      [
        "ĠAl",
        "ger"
      ],
      [
        "orm",
        "al"
      ],
      [
        "Ġmag",
        "iciens"
      ],
      [
        "Ġmeill",
        "eur"
      ],
      [
        "Ġmeur",
        "t"
      ],
      [
        "tem",
        "ps"
      ],
      [
        "Pers",
        "onne"
      ],
      [
        "B",
        "ien"
      ],
      [
        "P",
        "ro"
      ],
      [
        "i",
        "eux"
      ],
      [
        "o",
        "j"
      ],
      [
        "u",
        "h"
      ],
      [
        "u",
        "ite"
      ],
      [
        "v",
        "ie"
      ],
      [
        "Ġd",
        "oit"
      ],
      [
        "Ġl",
        "y"
      ],
      [
        "Ġl",
        "ife"
      ],
      [
        "en",
        "ne"
      ],
      [
        "Ġc",
        "in"
      ],
      [
        "Ġm",
        "en"
      ],
      [
        "Ġs",
        "l"
      ],
      [
        "Ġs",
        "ons"
      ],
      [
        "er",
        "l"
      ],
      [
        "er",
        "m"
      ],
      [
        "Ġt",
        "as"
      ],
      [
        "Ġf",
        "uck"
      ],
      [
        "Ġb",
        "our"
      ],
      [
        "Ġn",
        "ight"
      ],
      [
        "Ã¨",
        "tes"
      ],
      [
        "au",
        "le"
      ],
      [
        "ch",
        "ent"
      ],
      [
        "Ġch",
        "ang"
      ],
      [
        "Ġpar",
        "f"
      ],
      [
        "Ġpar",
        "oles"
      ],
      [
        "Ġpl",
        "ace"
      ],
      [
        "Ġh",
        "ey"
      ],
      [
        "Ġh",
        "eures"
      ],
      [
        "ol",
        "Ã©"
      ],
      [
        "Ġre",
        "f"
      ],
      [
        "Ġtu",
        "er"
      ],
      [
        "ier",
        "re"
      ],
      [
        "Ġcou",
        "leur"
      ],
      [
        "Ġpro",
        "d"
      ],
      [
        "Ġar",
        "ri"
      ],
      [
        "Ġbl",
        "ack"
      ],
      [
        "iv",
        "ers"
      ],
      [
        "Ġmar",
        "che"
      ],
      [
        "Al",
        "l"
      ],
      [
        "Al",
        "lah"
      ],
      [
        "Ġdi",
        "ff"
      ],
      [
        "ĠÃ©",
        "le"
      ],
      [
        "Ġfl",
        "ow"
      ],
      [
        "anger",
        "ang"
      ],
      [
        "Ġport",
        "es"
      ],
      [
        "ĠO",
        "G"
      ],
      [
        "Ġpol",
        "it"
      ],
      [
        "ĠnÃ©g",
        "ro"
      ],
      [
        "ĠrÃª",
        "ve"
      ],
      [
        "Ġsour",
        "ire"
      ],
      [
        "ĠÃ¢",
        "me"
      ],
      [
        "Ġjourn",
        "al"
      ],
      [
        "Ġprobl",
        "Ã¨mes"
      ],
      [
        "Ġlang",
        "ue"
      ],
      [
        "Ġfootball",
        "eur"
      ],
      [
        "!",
        "!"
      ],
      [
        "C",
        "ette"
      ],
      [
        "F",
        "r"
      ],
      [
        "I",
        "ci"
      ],
      [
        "k",
        "e"
      ],
      [
        "l",
        "Ã¨ve"
      ],
      [
        "n",
        "am"
      ],
      [
        "p",
        "Ã©"
      ],
      [
        "u",
        "les"
      ],
      [
        "Ġl",
        "ou"
      ],
      [
        "Ġc",
        "ach"
      ],
      [
        "Ġm",
        "ille"
      ],
      [
        "Ġm",
        "Ã©r"
      ],
      [
        "Ġs",
        "ommes"
      ],
      [
        "re",
        "aux"
      ],
      [
        "Ġt",
        "Ãªtes"
      ],
      [
        "Ġf",
        "esses"
      ],
      [
        "as",
        "t"
      ],
      [
        "Ġb",
        "and"
      ],
      [
        "Ġb",
        "oss"
      ],
      [
        "Ġn",
        "ique"
      ],
      [
        "Ġr",
        "imes"
      ],
      [
        "Ã¨",
        "rent"
      ],
      [
        "Ġg",
        "enre"
      ],
      [
        "ch",
        "em"
      ],
      [
        "al",
        "le"
      ],
      [
        "at",
        "eur"
      ],
      [
        "Ġh",
        "ist"
      ],
      [
        "ain",
        "t"
      ],
      [
        "ic",
        "s"
      ],
      [
        "Ġpr",
        "ends"
      ],
      [
        "Ġpr",
        "ennent"
      ],
      [
        "ad",
        "er"
      ],
      [
        "Ġar",
        "rache"
      ],
      [
        "ay",
        "e"
      ],
      [
        "omb",
        "e"
      ],
      [
        "Ġbl",
        "eu"
      ],
      [
        "Ġdev",
        "enir"
      ],
      [
        "Ġk",
        "iff"
      ],
      [
        "iv",
        "er"
      ],
      [
        "all",
        "ait"
      ],
      [
        "Ġmar",
        "ionn"
      ],
      [
        "Pour",
        "quoi"
      ],
      [
        "Ġai",
        "me"
      ],
      [
        "Ġbou",
        "che"
      ],
      [
        "Ġmet",
        "s"
      ],
      [
        "Ġvis",
        "age"
      ],
      [
        "Ġbal",
        "le"
      ],
      [
        "Ġbal",
        "les"
      ],
      [
        "Ġac",
        "c"
      ],
      [
        "Ġim",
        "m"
      ],
      [
        "ĠsÃ»",
        "r"
      ],
      [
        "Af",
        "rique"
      ],
      [
        "F",
        "orce"
      ],
      [
        "G",
        "aza"
      ],
      [
        "N",
        "an"
      ],
      [
        "g",
        "es"
      ],
      [
        "i",
        "quer"
      ],
      [
        "n",
        "aie"
      ],
      [
        "r",
        "ouve"
      ],
      [
        "u",
        "its"
      ],
      [
        "v",
        "res"
      ],
      [
        "v",
        "oul"
      ],
      [
        "Ġ",
        "ant"
      ],
      [
        "Ġ",
        "ang"
      ],
      [
        "Ġc",
        "ert"
      ],
      [
        "Ġm",
        "orce"
      ],
      [
        "Ġs",
        "ch"
      ],
      [
        "ar",
        "a"
      ],
      [
        "Ġf",
        "re"
      ],
      [
        "Ġf",
        "ier"
      ],
      [
        "le",
        "d"
      ],
      [
        "Ġb",
        "eur"
      ],
      [
        "Ġb",
        "elles"
      ],
      [
        "Ġb",
        "aise"
      ],
      [
        "Ġb",
        "ientÃ´t"
      ],
      [
        "Ġr",
        "age"
      ],
      [
        "il",
        "es"
      ],
      [
        "Ã¨",
        "nes"
      ],
      [
        "Ġdes",
        "c"
      ],
      [
        "Ġg",
        "ent"
      ],
      [
        "ch",
        "ar"
      ],
      [
        "us",
        "ement"
      ],
      [
        "Ġpar",
        "ents"
      ],
      [
        "Ġmon",
        "naie"
      ],
      [
        "Ġh",
        "an"
      ],
      [
        "Ġre",
        "t"
      ],
      [
        "im",
        "b"
      ],
      [
        "Ġpr",
        "om"
      ],
      [
        "ĠdÃ©",
        "l"
      ],
      [
        "Ġmes",
        "s"
      ],
      [
        "pr",
        "it"
      ],
      [
        "Ġtr",
        "ouver"
      ],
      [
        "Ã©p",
        "are"
      ],
      [
        "En",
        "core"
      ],
      [
        "Ġbl",
        "anche"
      ],
      [
        "ing",
        "t"
      ],
      [
        "ĠG",
        "u"
      ],
      [
        "Ġdev",
        "enu"
      ],
      [
        "ĠÃ©c",
        "rit"
      ],
      [
        "ĠN",
        "e"
      ],
      [
        "ĠN",
        "ord"
      ],
      [
        "Ġjus",
        "tice"
      ],
      [
        "Ġ1",
        "0"
      ],
      [
        "Ġman",
        "que"
      ],
      [
        "Ġenf",
        "ant"
      ],
      [
        "Ġsol",
        "d"
      ],
      [
        "ĠPan",
        "ik"
      ],
      [
        "ĠsÅĵur",
        "s"
      ],
      [
        "Ġsorti",
        "r"
      ],
      [
        "conn",
        "ais"
      ],
      [
        "Ġmo",
        "de"
      ],
      [
        "ĠcÃ´",
        "tÃ©"
      ],
      [
        "Ġmarionn",
        "ettes"
      ],
      [
        "A",
        "h"
      ],
      [
        "F",
        "ais"
      ],
      [
        "G",
        "rand"
      ],
      [
        "T",
        "on"
      ],
      [
        "l",
        "im"
      ],
      [
        "m",
        "an"
      ],
      [
        "r",
        "Ã©s"
      ],
      [
        "u",
        "tes"
      ],
      [
        "Ġ",
        "and"
      ],
      [
        "Ġd",
        "oul"
      ],
      [
        "Ġd",
        "onc"
      ],
      [
        "Ġp",
        "anth"
      ],
      [
        "Ġt",
        "able"
      ],
      [
        "Ġb",
        "er"
      ],
      [
        "Ġb",
        "us"
      ],
      [
        "Ġb",
        "led"
      ],
      [
        "me",
        "t"
      ],
      [
        "Ġcom",
        "prendre"
      ],
      [
        "ra",
        "c"
      ],
      [
        "Ġau",
        "tant"
      ],
      [
        "ir",
        "ai"
      ],
      [
        "ĠM",
        "C"
      ],
      [
        "ĠM",
        "af"
      ],
      [
        "ĠS",
        "ois"
      ],
      [
        "Ġtr",
        "ain"
      ],
      [
        "Ġar",
        "rive"
      ],
      [
        "pl",
        "us"
      ],
      [
        "Ã©l",
        "ov"
      ],
      [
        "Ġdev",
        "ient"
      ],
      [
        "ail",
        "les"
      ],
      [
        "Ġst",
        "yle"
      ],
      [
        "Ġbou",
        "ge"
      ],
      [
        "par",
        "le"
      ],
      [
        "Ġri",
        "ches"
      ],
      [
        "Ġple",
        "ine"
      ],
      [
        "Ġth",
        "Ã©"
      ],
      [
        "Ġreg",
        "arde"
      ],
      [
        "Ġprem",
        "iÃ¨re"
      ],
      [
        "Ġdern",
        "iÃ¨re"
      ],
      [
        "ĠCh",
        "ar"
      ],
      [
        "ĠrÃª",
        "ves"
      ],
      [
        "Ġdonn",
        "Ã©"
      ],
      [
        "Ġsup",
        "pl"
      ],
      [
        "Ġgal",
        "Ã¨re"
      ],
      [
        "Ġpau",
        "vre"
      ],
      [
        "Auc",
        "un"
      ],
      [
        "Ġrais",
        "on"
      ],
      [
        "Ġbanlieu",
        "e"
      ],
      [
        "ĠMaf",
        "ia"
      ],
      [
        "4",
        "3"
      ],
      [
        "D",
        "Ã©f"
      ],
      [
        "E",
        "st"
      ],
      [
        "W",
        "oof"
      ],
      [
        "g",
        "Ã©r"
      ],
      [
        "i",
        "qu"
      ],
      [
        "k",
        "s"
      ],
      [
        "p",
        "ro"
      ],
      [
        "r",
        "ase"
      ],
      [
        "t",
        "o"
      ],
      [
        "v",
        "is"
      ],
      [
        "v",
        "oir"
      ],
      [
        "y",
        "ais"
      ],
      [
        "Ġd",
        "om"
      ],
      [
        "Ġl",
        "et"
      ],
      [
        "Ġp",
        "ur"
      ],
      [
        "Ġp",
        "eau"
      ],
      [
        "Ġp",
        "ousse"
      ],
      [
        "ou",
        "ff"
      ],
      [
        "an",
        "a"
      ],
      [
        "Ġt",
        "ort"
      ],
      [
        "Ġt",
        "aule"
      ],
      [
        "Ġf",
        "illes"
      ],
      [
        "ent",
        "erre"
      ],
      [
        "Ġb",
        "ois"
      ],
      [
        "in",
        "er"
      ],
      [
        "in",
        "ition"
      ],
      [
        "oi",
        "d"
      ],
      [
        "Ã¨",
        "ce"
      ],
      [
        "at",
        "es"
      ],
      [
        "at",
        "ique"
      ],
      [
        "and",
        "onne"
      ],
      [
        "Ġch",
        "ien"
      ],
      [
        "Ġch",
        "iff"
      ],
      [
        "ti",
        "que"
      ],
      [
        "ag",
        "n"
      ],
      [
        "Ã©c",
        "out"
      ],
      [
        "ĠM",
        "al"
      ],
      [
        "Ġpr",
        "Ãªt"
      ],
      [
        "Ġse",
        "p"
      ],
      [
        "ĠB",
        "en"
      ],
      [
        "ĠB",
        "ou"
      ],
      [
        "Ġtr",
        "ouv"
      ],
      [
        "Åĵ",
        "u"
      ],
      [
        "Ã§",
        "ons"
      ],
      [
        "Ġcar",
        "riÃ¨re"
      ],
      [
        "Ġcon",
        "cer"
      ],
      [
        "ail",
        "s"
      ],
      [
        "ĠrÃ©",
        "ve"
      ],
      [
        "Par",
        "le"
      ],
      [
        "cher",
        "che"
      ],
      [
        "Ġcol",
        "l"
      ],
      [
        "Ġsal",
        "es"
      ],
      [
        "Ġjou",
        "er"
      ],
      [
        "oud",
        "re"
      ],
      [
        "com",
        "p"
      ],
      [
        "Ġcher",
        "che"
      ],
      [
        "Ġtir",
        "Ã©"
      ],
      [
        "aff",
        "e"
      ],
      [
        "ĠsÃ»",
        "rement"
      ],
      [
        "Ġsomb",
        "re"
      ],
      [
        "Ġheure",
        "ux"
      ],
      [
        "Ġfil",
        "m"
      ],
      [
        "Ġcau",
        "se"
      ],
      [
        "Enf",
        "ant"
      ],
      [
        "uti",
        "onn"
      ],
      [
        "Quel",
        "ques"
      ],
      [
        "Ġlog",
        "ique"
      ],
      [
        "Ġpubl",
        "ic"
      ],
      [
        "Ġvoil",
        "Ãł"
      ],
      [
        "oj",
        "o"
      ],
      [
        "Ã©lov",
        "ution"
      ],
      [
        "A",
        "p"
      ],
      [
        "h",
        "onneur"
      ],
      [
        "t",
        "y"
      ],
      [
        "u",
        "ir"
      ],
      [
        "Ġ",
        "4"
      ],
      [
        "Ġ",
        "ess"
      ],
      [
        "es",
        "se"
      ],
      [
        "Ġc",
        "ad"
      ],
      [
        "Ġc",
        "op"
      ],
      [
        "Ġm",
        "Ã©l"
      ],
      [
        "an",
        "es"
      ],
      [
        "is",
        "es"
      ],
      [
        "Ġf",
        "us"
      ],
      [
        "ent",
        "i"
      ],
      [
        "Ġb",
        "ons"
      ],
      [
        "Ġb",
        "ande"
      ],
      [
        "Ġn",
        "oire"
      ],
      [
        "Ġr",
        "ad"
      ],
      [
        "te",
        "au"
      ],
      [
        "Ã¨",
        "ge"
      ],
      [
        "at",
        "at"
      ],
      [
        "at",
        "ac"
      ],
      [
        "at",
        "ure"
      ],
      [
        "at",
        "if"
      ],
      [
        "Ġch",
        "au"
      ],
      [
        "Ãª",
        "tres"
      ],
      [
        "ti",
        "ons"
      ],
      [
        "Ġou",
        "v"
      ],
      [
        "Ġmais",
        "on"
      ],
      [
        "ĠA",
        "SB"
      ],
      [
        "aut",
        "res"
      ],
      [
        "Ġin",
        "c"
      ],
      [
        "ĠÃ©t",
        "aient"
      ],
      [
        "iv",
        "re"
      ],
      [
        "all",
        "on"
      ],
      [
        "oy",
        "er"
      ],
      [
        "Ġbou",
        "le"
      ],
      [
        "app",
        "el"
      ],
      [
        "Ġrest",
        "er"
      ],
      [
        "Ġe",
        "ff"
      ],
      [
        "ĠÃ©p",
        "oque"
      ],
      [
        "Ġdro",
        "gue"
      ],
      [
        "Ġres",
        "semble"
      ],
      [
        "Ġprop",
        "re"
      ],
      [
        "enc",
        "re"
      ],
      [
        "Ã©ti",
        "er"
      ],
      [
        "alk",
        "er"
      ],
      [
        "Ġquest",
        "ion"
      ],
      [
        "Ġboul",
        "ot"
      ],
      [
        "T",
        "es"
      ],
      [
        "c",
        "le"
      ],
      [
        "d",
        "re"
      ],
      [
        "g",
        "Ã©rie"
      ],
      [
        "m",
        "ar"
      ],
      [
        "o",
        "de"
      ],
      [
        "t",
        "on"
      ],
      [
        "t",
        "or"
      ],
      [
        "Ġ",
        "erre"
      ],
      [
        "Ĭ",
        "tre"
      ],
      [
        "Ġl",
        "ieu"
      ],
      [
        "Ġp",
        "il"
      ],
      [
        "Ġp",
        "ap"
      ],
      [
        "en",
        "us"
      ],
      [
        "en",
        "de"
      ],
      [
        "ou",
        "jours"
      ],
      [
        "Ġc",
        "itÃ©"
      ],
      [
        "Ġm",
        "y"
      ],
      [
        "Ġs",
        "il"
      ],
      [
        "Ġs",
        "im"
      ],
      [
        "re",
        "ux"
      ],
      [
        "Ġt",
        "Ã©n"
      ],
      [
        "is",
        "ent"
      ],
      [
        "eu",
        "se"
      ],
      [
        "Ġf",
        "ac"
      ],
      [
        "Ġf",
        "ille"
      ],
      [
        "Ġb",
        "onnes"
      ],
      [
        "Ġv",
        "ic"
      ],
      [
        "Ġv",
        "entre"
      ],
      [
        "Ġv",
        "iennent"
      ],
      [
        "it",
        "h"
      ],
      [
        "it",
        "ent"
      ],
      [
        "it",
        "al"
      ],
      [
        "Ġr",
        "end"
      ],
      [
        "Ã¨",
        "che"
      ],
      [
        "Ġg",
        "arde"
      ],
      [
        "Ġcom",
        "ment"
      ],
      [
        "ien",
        "ce"
      ],
      [
        "Ġpar",
        "adis"
      ],
      [
        "Ġou",
        "ver"
      ],
      [
        "av",
        "es"
      ],
      [
        "pe",
        "c"
      ],
      [
        "Ġtr",
        "ou"
      ],
      [
        "iss",
        "er"
      ],
      [
        "Ġser",
        "t"
      ],
      [
        "Ġcl",
        "asse"
      ],
      [
        "og",
        "rap"
      ],
      [
        "Ġex",
        "pl"
      ],
      [
        "Ġsou",
        "h"
      ],
      [
        "arr",
        "Ãªte"
      ],
      [
        "arr",
        "Ãªter"
      ],
      [
        "ĠnÃ©g",
        "ros"
      ],
      [
        "Ġlaiss",
        "er"
      ],
      [
        "Ġmic",
        "ro"
      ],
      [
        "Ġcoc",
        "o"
      ],
      [
        "Ġbic",
        "rave"
      ],
      [
        "Ġbille",
        "ts"
      ],
      [
        "I",
        "s"
      ],
      [
        "T",
        "oi"
      ],
      [
        "T",
        "ant"
      ],
      [
        "l",
        "le"
      ],
      [
        "m",
        "Ã©e"
      ],
      [
        "o",
        "te"
      ],
      [
        "o",
        "ff"
      ],
      [
        "p",
        "es"
      ],
      [
        "s",
        "on"
      ],
      [
        "x",
        "e"
      ],
      [
        "Ã",
        "Ĭtre"
      ],
      [
        "Ġ",
        "X"
      ],
      [
        "Ġ",
        "ur"
      ],
      [
        "Ġl",
        "Ã¢"
      ],
      [
        "Ġp",
        "un"
      ],
      [
        "Ġp",
        "al"
      ],
      [
        "Ġp",
        "oss"
      ],
      [
        "Ġc",
        "ous"
      ],
      [
        "Ã©",
        "bre"
      ],
      [
        "Ġm",
        "om"
      ],
      [
        "Ġm",
        "Ã©f"
      ],
      [
        "Ġm",
        "Ã©m"
      ],
      [
        "Ġm",
        "aman"
      ],
      [
        "Ġs",
        "in"
      ],
      [
        "Ġde",
        "hors"
      ],
      [
        "Ġf",
        "era"
      ],
      [
        "Ġa",
        "ff"
      ],
      [
        "le",
        "z"
      ],
      [
        "Ġb",
        "les"
      ],
      [
        "Ġv",
        "aut"
      ],
      [
        "Ġr",
        "ess"
      ],
      [
        "Ġg",
        "ue"
      ],
      [
        "Ġg",
        "affe"
      ],
      [
        "at",
        "ter"
      ],
      [
        "Ġpour",
        "tant"
      ],
      [
        "em",
        "and"
      ],
      [
        "Ã©c",
        "u"
      ],
      [
        "Ġre",
        "l"
      ],
      [
        "Ġma",
        "Ã®"
      ],
      [
        "ĠM",
        "er"
      ],
      [
        "av",
        "ait"
      ],
      [
        "ĠB",
        "r"
      ],
      [
        "anc",
        "er"
      ],
      [
        "ing",
        "s"
      ],
      [
        "Ġbr",
        "Ã»"
      ],
      [
        "Ġst",
        "alker"
      ],
      [
        "Ġmar",
        "i"
      ],
      [
        "Ġbou",
        "ff"
      ],
      [
        "ole",
        "il"
      ],
      [
        "tÃ©",
        "ri"
      ],
      [
        "Ġtra",
        "v"
      ],
      [
        "ĠI",
        "n"
      ],
      [
        "Ġmus",
        "lim"
      ],
      [
        "Ġ2",
        "0"
      ],
      [
        "Ġdem",
        "and"
      ],
      [
        "Ġdem",
        "ain"
      ],
      [
        "Ġem",
        "brou"
      ],
      [
        "Ġres",
        "pect"
      ],
      [
        "Ġsau",
        "f"
      ],
      [
        "Ġas",
        "se"
      ],
      [
        "ĠU",
        "r"
      ],
      [
        "reu",
        "ve"
      ],
      [
        "aimer",
        "ais"
      ],
      [
        "erl",
        "aine"
      ],
      [
        "Ġhist",
        "oires"
      ],
      [
        "voul",
        "ais"
      ],
      [
        "imb",
        "aud"
      ],
      [
        "Ġpanth",
        "Ã¨re"
      ],
      [
        "DÃ©f",
        "inition"
      ],
      [
        "atac",
        "lan"
      ],
      [
        "2",
        "0"
      ],
      [
        "C",
        "eux"
      ],
      [
        "H",
        "omme"
      ],
      [
        "L",
        "ui"
      ],
      [
        "a",
        "ve"
      ],
      [
        "c",
        "c"
      ],
      [
        "d",
        "er"
      ],
      [
        "g",
        "ment"
      ],
      [
        "h",
        "an"
      ],
      [
        "i",
        "as"
      ],
      [
        "n",
        "oc"
      ],
      [
        "o",
        "che"
      ],
      [
        "o",
        "Ã¹"
      ],
      [
        "r",
        "ou"
      ],
      [
        "u",
        "ie"
      ],
      [
        "Ġ",
        "esp"
      ],
      [
        "Ġd",
        "oig"
      ],
      [
        "Ġp",
        "ois"
      ],
      [
        "Ġp",
        "rie"
      ],
      [
        "ou",
        "e"
      ],
      [
        "Ġm",
        "as"
      ],
      [
        "Ġm",
        "Ã©tier"
      ],
      [
        "Ġs",
        "el"
      ],
      [
        "Ġf",
        "e"
      ],
      [
        "Ġf",
        "aÃ§on"
      ],
      [
        "Ġb",
        "ol"
      ],
      [
        "Ġb",
        "ob"
      ],
      [
        "Ġr",
        "as"
      ],
      [
        "Ġr",
        "endre"
      ],
      [
        "ĠÃ",
        "ī"
      ],
      [
        "or",
        "acle"
      ],
      [
        "ous",
        "e"
      ],
      [
        "Ġcom",
        "pl"
      ],
      [
        "Ġch",
        "iens"
      ],
      [
        "Ġpar",
        "les"
      ],
      [
        "Ġpl",
        "eur"
      ],
      [
        "am",
        "es"
      ],
      [
        "ap",
        "prends"
      ],
      [
        "Ġh",
        "our"
      ],
      [
        "Ã©t",
        "ro"
      ],
      [
        "end",
        "ent"
      ],
      [
        "ab",
        "andonne"
      ],
      [
        "ĠS",
        "h"
      ],
      [
        "ĠC",
        "Ã©s"
      ],
      [
        "oc",
        "c"
      ],
      [
        "ut",
        "Ã´t"
      ],
      [
        "Ġin",
        "t"
      ],
      [
        "Ġar",
        "abe"
      ],
      [
        "Ã´",
        "mes"
      ],
      [
        "Ã©r",
        "Ã©"
      ],
      [
        "Ã§",
        "u"
      ],
      [
        "Ã©n",
        "om"
      ],
      [
        "Ġcar",
        "te"
      ],
      [
        "Ġcr",
        "u"
      ],
      [
        "Ġgu",
        "er"
      ],
      [
        "Ġst",
        "op"
      ],
      [
        "Ġst",
        "ud"
      ],
      [
        "Ġpass",
        "er"
      ],
      [
        "oss",
        "es"
      ],
      [
        "aiss",
        "ent"
      ],
      [
        "imp",
        "ression"
      ],
      [
        "Ġperd",
        "re"
      ],
      [
        "att",
        "ends"
      ],
      [
        "Ġcomp",
        "te"
      ],
      [
        "orm",
        "ais"
      ],
      [
        "oig",
        "n"
      ],
      [
        "Ġvit",
        "ale"
      ],
      [
        "Ġvoit",
        "ure"
      ],
      [
        "Ġmec",
        "s"
      ],
      [
        "env",
        "oie"
      ],
      [
        "Ġvoul",
        "ais"
      ],
      [
        "Ġpoin",
        "g"
      ],
      [
        "Ġpoin",
        "t"
      ],
      [
        "ram",
        "Ã¨ne"
      ],
      [
        "Ġlong",
        "temps"
      ],
      [
        "Ġconf",
        "iance"
      ],
      [
        "Ġviol",
        "ence"
      ],
      [
        "ĠrÃ©vol",
        "utionn"
      ],
      [
        "ĠAra",
        "be"
      ],
      [
        "Ġconse",
        "ils"
      ],
      [
        "Ġenne",
        "mis"
      ],
      [
        "inqui",
        "Ã¨te"
      ],
      [
        "H",
        "Ã©"
      ],
      [
        "N",
        "i"
      ],
      [
        "T",
        "oujours"
      ],
      [
        "a",
        "j"
      ],
      [
        "a",
        "vec"
      ],
      [
        "b",
        "ain"
      ],
      [
        "d",
        "ien"
      ],
      [
        "h",
        "i"
      ],
      [
        "i",
        "al"
      ],
      [
        "i",
        "ant"
      ],
      [
        "p",
        "ri"
      ],
      [
        "p",
        "orte"
      ],
      [
        "t",
        "tes"
      ],
      [
        "v",
        "en"
      ],
      [
        "Ã",
        "¡"
      ],
      [
        "Ġ",
        "?"
      ],
      [
        "Ġd",
        "o"
      ],
      [
        "Ġp",
        "ierre"
      ],
      [
        "en",
        "n"
      ],
      [
        "Ġc",
        "re"
      ],
      [
        "Ġc",
        "ord"
      ],
      [
        "on",
        "es"
      ],
      [
        "on",
        "se"
      ],
      [
        "Ġm",
        "Ã©"
      ],
      [
        "Ġm",
        "ens"
      ],
      [
        "Ġm",
        "aud"
      ],
      [
        "Ġs",
        "ap"
      ],
      [
        "Ġs",
        "aig"
      ],
      [
        "Ġt",
        "oit"
      ],
      [
        "Ġqu",
        "oti"
      ],
      [
        "Ġqu",
        "atre"
      ],
      [
        "is",
        "er"
      ],
      [
        "Ġf",
        "ol"
      ],
      [
        "le",
        "y"
      ],
      [
        "le",
        "ver"
      ],
      [
        "Ġb",
        "ab"
      ],
      [
        "Ġv",
        "rais"
      ],
      [
        "Ġv",
        "ert"
      ],
      [
        "Ġn",
        "our"
      ],
      [
        "Ġn",
        "ouve"
      ],
      [
        "Ġn",
        "ormal"
      ],
      [
        "Ġr",
        "is"
      ],
      [
        "Ġcom",
        "pris"
      ],
      [
        "ant",
        "es"
      ],
      [
        "ra",
        "d"
      ],
      [
        "Ġch",
        "ance"
      ],
      [
        "Ġh",
        "y"
      ],
      [
        "em",
        "b"
      ],
      [
        "Ġma",
        "j"
      ],
      [
        "ot",
        "es"
      ],
      [
        "onn",
        "Ã©"
      ],
      [
        "ig",
        "r"
      ],
      [
        "Ġsi",
        "ff"
      ],
      [
        "ĠB",
        "ataclan"
      ],
      [
        "Ġfr",
        "oid"
      ],
      [
        "ui",
        "re"
      ],
      [
        "ill",
        "ent"
      ],
      [
        "ouv",
        "re"
      ],
      [
        "ĠR",
        "imbaud"
      ],
      [
        "Ġbl",
        "ag"
      ],
      [
        "Ġcr",
        "oix"
      ],
      [
        "ver",
        "se"
      ],
      [
        "Ġquel",
        "que"
      ],
      [
        "Ġvrai",
        "es"
      ],
      [
        "Ġfl",
        "eurs"
      ],
      [
        "par",
        "t"
      ],
      [
        "Ġmet",
        "tent"
      ],
      [
        "Au",
        "jourd"
      ],
      [
        "Ġ2",
        "00"
      ],
      [
        "Ġph",
        "ot"
      ],
      [
        "Ġcomm",
        "un"
      ],
      [
        "ĠE",
        "m"
      ],
      [
        "Ġnoir",
        "s"
      ],
      [
        "enf",
        "ants"
      ],
      [
        "Ġpou",
        "ce"
      ],
      [
        "Ġauc",
        "un"
      ],
      [
        "Ġchant",
        "er"
      ],
      [
        "oubl",
        "ie"
      ],
      [
        "Ã©b",
        "Ã©"
      ],
      [
        "Ġpig",
        "es"
      ],
      [
        "rass",
        "ens"
      ],
      [
        "Ġfre",
        "est"
      ],
      [
        "Ġcord",
        "es"
      ],
      [
        "A",
        "prÃ¨s"
      ],
      [
        "D",
        "eux"
      ],
      [
        "F",
        "aire"
      ],
      [
        "H",
        "eure"
      ],
      [
        "L",
        "eurs"
      ],
      [
        "N",
        "on"
      ],
      [
        "P",
        "uis"
      ],
      [
        "S",
        "ous"
      ],
      [
        "V",
        "erlaine"
      ],
      [
        "c",
        "al"
      ],
      [
        "c",
        "Ã¨s"
      ],
      [
        "e",
        "b"
      ],
      [
        "f",
        "eu"
      ],
      [
        "g",
        "n"
      ],
      [
        "h",
        "y"
      ],
      [
        "h",
        "eur"
      ],
      [
        "i",
        "che"
      ],
      [
        "j",
        "ec"
      ],
      [
        "k",
        "a"
      ],
      [
        "o",
        "ch"
      ],
      [
        "r",
        "ang"
      ],
      [
        "t",
        "in"
      ],
      [
        "t",
        "om"
      ],
      [
        "u",
        "mes"
      ],
      [
        "Ġ",
        "7"
      ],
      [
        "Ġ",
        "Que"
      ],
      [
        "Ġ",
        "uh"
      ],
      [
        "Ġd",
        "r"
      ],
      [
        "Ġl",
        "ois"
      ],
      [
        "Ġp",
        "ont"
      ],
      [
        "ou",
        "n"
      ],
      [
        "Ġc",
        "y"
      ],
      [
        "Ġc",
        "la"
      ],
      [
        "Ġc",
        "asse"
      ],
      [
        "Ġm",
        "urs"
      ],
      [
        "Ġs",
        "oleil"
      ],
      [
        "Ġt",
        "ap"
      ],
      [
        "Ġt",
        "Ã´t"
      ],
      [
        "ent",
        "er"
      ],
      [
        "le",
        "m"
      ],
      [
        "Ġb",
        "re"
      ],
      [
        "Ġb",
        "ais"
      ],
      [
        "Ġb",
        "ah"
      ],
      [
        "in",
        "ter"
      ],
      [
        "Ġv",
        "as"
      ],
      [
        "Ġn",
        "um"
      ],
      [
        "Ġn",
        "ouv"
      ],
      [
        "or",
        "Ã©"
      ],
      [
        "oi",
        "ds"
      ],
      [
        "Ġg",
        "o"
      ],
      [
        "Ġg",
        "rave"
      ],
      [
        "ch",
        "l"
      ],
      [
        "Ġen",
        "c"
      ],
      [
        "at",
        "eurs"
      ],
      [
        "ont",
        "er"
      ],
      [
        "Ġpar",
        "mi"
      ],
      [
        "Ã©c",
        "l"
      ],
      [
        "Ġre",
        "cherche"
      ],
      [
        "ir",
        "oir"
      ],
      [
        "ac",
        "un"
      ],
      [
        "ig",
        "nes"
      ],
      [
        "ĠP",
        "remier"
      ],
      [
        "Ġtr",
        "ait"
      ],
      [
        "Ġw",
        "esh"
      ],
      [
        "ib",
        "i"
      ],
      [
        "Ġrapp",
        "er"
      ],
      [
        "Al",
        "i"
      ],
      [
        "ver",
        "y"
      ],
      [
        "Ã©ri",
        "c"
      ],
      [
        "Ch",
        "ez"
      ],
      [
        "Ġco",
        "de"
      ],
      [
        "Ġco",
        "ff"
      ],
      [
        "ik",
        "e"
      ],
      [
        "Ġcons",
        "c"
      ],
      [
        "Ġparler",
        "ai"
      ],
      [
        "Ġven",
        "u"
      ],
      [
        "lig",
        "ent"
      ],
      [
        "Ġprobl",
        "Ã¨me"
      ],
      [
        "ĠÃ©qui",
        "pe"
      ],
      [
        "Ġly",
        "ric"
      ],
      [
        "Ġpolit",
        "ique"
      ],
      [
        "Ġasse",
        "z"
      ],
      [
        "D",
        "Ã©s"
      ],
      [
        "J",
        "amais"
      ],
      [
        "S",
        "t"
      ],
      [
        "T",
        "ellement"
      ],
      [
        "d",
        "ition"
      ],
      [
        "i",
        "h"
      ],
      [
        "i",
        "eur"
      ],
      [
        "i",
        "Ã©s"
      ],
      [
        "m",
        "Ã©s"
      ],
      [
        "p",
        "our"
      ],
      [
        "p",
        "ars"
      ],
      [
        "u",
        "ff"
      ],
      [
        "v",
        "oit"
      ],
      [
        "x",
        "i"
      ],
      [
        "es",
        "prit"
      ],
      [
        "Ġp",
        "resse"
      ],
      [
        "en",
        "g"
      ],
      [
        "en",
        "ces"
      ],
      [
        "ou",
        "f"
      ],
      [
        "Ġm",
        "yth"
      ],
      [
        "Ġs",
        "orte"
      ],
      [
        "ar",
        "ri"
      ],
      [
        "eu",
        "ses"
      ],
      [
        "Ġf",
        "our"
      ],
      [
        "ent",
        "ir"
      ],
      [
        "as",
        "c"
      ],
      [
        "Ġb",
        "ul"
      ],
      [
        "Ġb",
        "omb"
      ],
      [
        "Ġb",
        "ails"
      ],
      [
        "Ġv",
        "erre"
      ],
      [
        "Ġv",
        "ingt"
      ],
      [
        "it",
        "aire"
      ],
      [
        "it",
        "Ã©s"
      ],
      [
        "Ġr",
        "Ã¨g"
      ],
      [
        "Ġle",
        "ader"
      ],
      [
        "or",
        "g"
      ],
      [
        "Ġdes",
        "s"
      ],
      [
        "Ġg",
        "Ã¢"
      ],
      [
        "Ġg",
        "osses"
      ],
      [
        "al",
        "er"
      ],
      [
        "al",
        "cool"
      ],
      [
        "Ġen",
        "g"
      ],
      [
        "Ġen",
        "dro"
      ],
      [
        "at",
        "ric"
      ],
      [
        "Ġdu",
        "rer"
      ],
      [
        "Ãª",
        "ts"
      ],
      [
        "Ġpl",
        "ais"
      ],
      [
        "Ġh",
        "Ã©"
      ],
      [
        "Ġsur",
        "v"
      ],
      [
        "Ġou",
        "h"
      ],
      [
        "Ġou",
        "i"
      ],
      [
        "ac",
        "t"
      ],
      [
        "onn",
        "ent"
      ],
      [
        "Ġpr",
        "Ã¨s"
      ],
      [
        "ĠdÃ©",
        "ch"
      ],
      [
        "Ġfait",
        "s"
      ],
      [
        "Ġtr",
        "iste"
      ],
      [
        "ĠD",
        "i"
      ],
      [
        "ill",
        "age"
      ],
      [
        "Ġgr",
        "en"
      ],
      [
        "Ġdis",
        "ques"
      ],
      [
        "Ã´",
        "me"
      ],
      [
        "id",
        "Ã©"
      ],
      [
        "Ou",
        "h"
      ],
      [
        "Ġcon",
        "v"
      ],
      [
        "Ġdev",
        "iennent"
      ],
      [
        "Ġk",
        "h"
      ],
      [
        "Ġk",
        "il"
      ],
      [
        "Ġk",
        "ick"
      ],
      [
        "Ġgrand",
        "es"
      ],
      [
        "Ã¢",
        "ce"
      ],
      [
        "Ġcont",
        "in"
      ],
      [
        "Ġfor",
        "me"
      ],
      [
        "ose",
        "ille"
      ],
      [
        "Ġparti",
        "r"
      ],
      [
        "Ġsav",
        "ais"
      ],
      [
        "Ġcomm",
        "ence"
      ],
      [
        "Ġman",
        "iÃ¨re"
      ],
      [
        "Ġfer",
        "me"
      ],
      [
        "ip",
        "i"
      ],
      [
        "Ġtour",
        "ne"
      ],
      [
        "com",
        "m"
      ],
      [
        "Ġmin",
        "utes"
      ],
      [
        "fl",
        "u"
      ],
      [
        "ĠrÃ©c",
        "ol"
      ],
      [
        "Ġcal",
        "me"
      ],
      [
        "Ġvoul",
        "ait"
      ],
      [
        "aill",
        "eurs"
      ],
      [
        "Ġapp",
        "el"
      ],
      [
        "Ġfai",
        "m"
      ],
      [
        "Ġrempl",
        "ir"
      ],
      [
        "Ġliv",
        "re"
      ],
      [
        "ĠPanth",
        "er"
      ],
      [
        "imm",
        "y"
      ],
      [
        "Ġrebeu",
        "s"
      ],
      [
        "ĠJe",
        "an"
      ],
      [
        "Pet",
        "it"
      ],
      [
        "Ã¼",
        "s"
      ],
      [
        "Ġtex",
        "tes"
      ],
      [
        "Ġmorce",
        "au"
      ],
      [
        "Ġhour",
        "i"
      ],
      [
        "Ġquoti",
        "dien"
      ],
      [
        "3",
        "7"
      ],
      [
        "A",
        "m"
      ],
      [
        "A",
        "n"
      ],
      [
        "B",
        "ientÃ´t"
      ],
      [
        "L",
        "eur"
      ],
      [
        "M",
        "us"
      ],
      [
        "N",
        "ique"
      ],
      [
        "b",
        "ois"
      ],
      [
        "c",
        "Ã©"
      ],
      [
        "c",
        "ont"
      ],
      [
        "h",
        "Ã´"
      ],
      [
        "j",
        "ets"
      ],
      [
        "m",
        "ment"
      ],
      [
        "p",
        "a"
      ],
      [
        "s",
        "p"
      ],
      [
        "t",
        "te"
      ],
      [
        "y",
        "e"
      ],
      [
        "Ġ",
        "5"
      ],
      [
        "Ġ",
        "Ã©g"
      ],
      [
        "en",
        "cer"
      ],
      [
        "Ġc",
        "ass"
      ],
      [
        "Ġc",
        "ann"
      ],
      [
        "Ġm",
        "oit"
      ],
      [
        "an",
        "ch"
      ],
      [
        "Ġt",
        "or"
      ],
      [
        "Ġj",
        "uge"
      ],
      [
        "ar",
        "c"
      ],
      [
        "Ġf",
        "Ãªte"
      ],
      [
        "Ġb",
        "ac"
      ],
      [
        "Ġb",
        "oute"
      ],
      [
        "Ġv",
        "endre"
      ],
      [
        "Ġn",
        "er"
      ],
      [
        "Ã¨",
        "tres"
      ],
      [
        "au",
        "che"
      ],
      [
        "at",
        "a"
      ],
      [
        "ant",
        "er"
      ],
      [
        "os",
        "qu"
      ],
      [
        "Ġau",
        "jourd"
      ],
      [
        "ri",
        "Ã¨res"
      ],
      [
        "Ġpl",
        "ac"
      ],
      [
        "ti",
        "ment"
      ],
      [
        "ti",
        "rÃ©"
      ],
      [
        "Ġh",
        "ood"
      ],
      [
        "ie",
        "z"
      ],
      [
        "ot",
        "tes"
      ],
      [
        "ort",
        "s"
      ],
      [
        "onn",
        "erre"
      ],
      [
        "av",
        "enir"
      ],
      [
        "Ġpr",
        "Ã©f"
      ],
      [
        "ĠB",
        "arb"
      ],
      [
        "ul",
        "l"
      ],
      [
        "ĠA",
        "n"
      ],
      [
        "Ġin",
        "st"
      ],
      [
        "Ġin",
        "flu"
      ],
      [
        "Ã©r",
        "ation"
      ],
      [
        "ĠR",
        "ap"
      ],
      [
        "ess",
        "aie"
      ],
      [
        "Ġw",
        "e"
      ],
      [
        "Ġgros",
        "ses"
      ],
      [
        "ĠT",
        "erre"
      ],
      [
        "ĠÃ©c",
        "rire"
      ],
      [
        "Ġser",
        "ait"
      ],
      [
        "Ġcl",
        "ass"
      ],
      [
        "Ġcl",
        "ub"
      ],
      [
        "ĠrÃ©",
        "f"
      ],
      [
        "ec",
        "k"
      ],
      [
        "od",
        "es"
      ],
      [
        "Ã©ri",
        "que"
      ],
      [
        "ma",
        "Ã¼s"
      ],
      [
        "Ġcol",
        "Ã¨re"
      ],
      [
        "Ġam",
        "our"
      ],
      [
        "Ġvoi",
        "le"
      ],
      [
        "Ġri",
        "me"
      ],
      [
        "Ġpat",
        "rie"
      ],
      [
        "Ġprop",
        "res"
      ],
      [
        "ĠdÃ©p",
        "ou"
      ],
      [
        "Ġcri",
        "me"
      ],
      [
        "Ġprof",
        "ond"
      ],
      [
        "oh",
        "n"
      ],
      [
        "Ġbut",
        "s"
      ],
      [
        "ost",
        "eur"
      ],
      [
        "ĠdÃ©m",
        "ons"
      ],
      [
        "Ġcam",
        "p"
      ],
      [
        "Ġcer",
        "veau"
      ],
      [
        "Ġdir",
        "ait"
      ],
      [
        "ĠSe",
        "ine"
      ],
      [
        "Ġlou",
        "ps"
      ],
      [
        "Ġsuppl",
        "ie"
      ],
      [
        "ĠtÃ©n",
        "Ã©bre"
      ],
      [
        "ĠmÃ©m",
        "oire"
      ],
      [
        "ĠmaÃ®",
        "tre"
      ],
      [
        "ĠUr",
        "bain"
      ],
      [
        "Ġphot",
        "os"
      ],
      [
        "Ġplais",
        "ir"
      ],
      [
        "C",
        "omb"
      ],
      [
        "E",
        "very"
      ],
      [
        "F",
        "uck"
      ],
      [
        "H",
        "an"
      ],
      [
        "P",
        "remier"
      ],
      [
        "T",
        "oute"
      ],
      [
        "d",
        "on"
      ],
      [
        "f",
        "ond"
      ],
      [
        "k",
        "i"
      ],
      [
        "k",
        "y"
      ],
      [
        "l",
        "les"
      ],
      [
        "n",
        "ous"
      ],
      [
        "n",
        "ation"
      ],
      [
        "o",
        "ve"
      ],
      [
        "r",
        "Ã©e"
      ],
      [
        "s",
        "ta"
      ],
      [
        "t",
        "ra"
      ],
      [
        "w",
        "e"
      ],
[...]
