{
  "version": "1.0",
  "truncation": null,
  "padding": null,
  "added_tokens": [
    {
      "id": 0,
      "content": "<PAD>",
      "single_word": false,
      "lstrip": false,
      "rstrip": false,
      "normalized": false,
      "special": true
    },
    {
      "id": 1,
      "content": "α",
      "single_word": false,
      "lstrip": false,
      "rstrip": false,
      "normalized": false,
      "special": true
    },
    {
      "id": 2,
      "content": "β",
      "single_word": false,
      "lstrip": false,
      "rstrip": false,
      "normalized": false,
      "special": true
    },
    {
      "id": 3,
      "content": "γ",
      "single_word": false,
      "lstrip": false,
      "rstrip": false,
      "normalized": false,
      "special": true
    },
    {
      "id": 4,
      "content": "ε",
      "single_word": false,
      "lstrip": false,
      "rstrip": false,
      "normalized": false,
      "special": true
    },
    {
      "id": 5,
      "content": "ζ",
      "single_word": false,
      "lstrip": false,
      "rstrip": false,
      "normalized": false,
      "special": true
    },
    {
      "id": 6,
      "content": "η",
      "single_word": false,
      "lstrip": false,
      "rstrip": false,
      "normalized": false,
      "special": true
    },
    {
      "id": 7,
      "content": "θ",
      "single_word": false,
      "lstrip": false,
      "rstrip": false,
      "normalized": false,
      "special": true
    },
    {
      "id": 8,
      "content": "/β",
      "single_word": false,
      "lstrip": false,
      "rstrip": false,
      "normalized": false,
      "special": true
    },
    {
      "id": 9,
      "content": "/γ",
      "single_word": false,
      "lstrip": false,
      "rstrip": false,
      "normalized": false,
      "special": true
    },
    {
      "id": 10,
      "content": "/ε",
      "single_word": false,
      "lstrip": false,
      "rstrip": false,
      "normalized": false,
      "special": true
    },
    {
      "id": 11,
      "content": "/ζ",
      "single_word": false,
      "lstrip": false,
      "rstrip": false,
      "normalized": false,
      "special": true
    },
    {
      "id": 12,
      "content": "/η",
      "single_word": false,
      "lstrip": false,
      "rstrip": false,
      "normalized": false,
      "special": true
    }
  ],
  "normalizer": null,
  "pre_tokenizer": {
    "type": "ByteLevel",
    "add_prefix_space": false,
    "trim_offsets": true,
    "use_regex": true
  },
  "post_processor": {
    "type": "ByteLevel",
    "add_prefix_space": true,
    "trim_offsets": false,
    "use_regex": true
  },
  "decoder": {
    "type": "ByteLevel",
    "add_prefix_space": true,
    "trim_offsets": true,
    "use_regex": true
  },
  "model": {
    "type": "BPE",
    "dropout": null,
    "unk_token": null,
    "continuing_subword_prefix": null,
    "end_of_word_suffix": null,
    "fuse_unk": false,
    "byte_fallback": false,
    "ignore_merges": false,
    "vocab": {
      "<PAD>": 0,
      "α": 1,
      "β": 2,
      "γ": 3,
      "ε": 4,
      "ζ": 5,
      "η": 6,
      "θ": 7,
      "/β": 8,
      "/γ": 9,
      "/ε": 10,
      "/ζ": 11,
      "/η": 12,
      "!": 13,
      "\"": 14,
      "#": 15,
      "$": 16,
      "%": 17,
      "&": 18,
      "'": 19,
      "(": 20,
      ")": 21,
      "*": 22,
      "+": 23,
      ",": 24,
      "-": 25,
      ".": 26,
      "/": 27,
      "0": 28,
      "1": 29,
      "2": 30,
      "3": 31,
      "4": 32,
      "5": 33,
      "6": 34,
      "7": 35,
      "8": 36,
      "9": 37,
      ":": 38,
      ";": 39,
      "<": 40,
      "=": 41,
      ">": 42,
      "?": 43,
      "@": 44,
      "A": 45,
      "B": 46,
      "C": 47,
      "D": 48,
      "E": 49,
      "F": 50,
      "G": 51,
      "H": 52,
      "I": 53,
      "J": 54,
      "K": 55,
      "L": 56,
      "M": 57,
      "N": 58,
      "O": 59,
      "P": 60,
      "Q": 61,
      "R": 62,
      "S": 63,
      "T": 64,
      "U": 65,
      "V": 66,
      "W": 67,
      "X": 68,
      "Y": 69,
      "Z": 70,
      "[": 71,
      "\\": 72,
      "]": 73,
      "^": 74,
      "_": 75,
      "`": 76,
      "a": 77,
      "b": 78,
      "c": 79,
      "d": 80,
      "e": 81,
      "f": 82,
      "g": 83,
      "h": 84,
      "i": 85,
      "j": 86,
      "k": 87,
      "l": 88,
      "m": 89,
      "n": 90,
      "o": 91,
      "p": 92,
      "q": 93,
      "r": 94,
      "s": 95,
      "t": 96,
      "u": 97,
      "v": 98,
      "w": 99,
      "x": 100,
      "y": 101,
      "z": 102,
      "{": 103,
      "|": 104,
      "}": 105,
      "~": 106,
      "¡": 107,
      "¢": 108,
      "£": 109,
      "¤": 110,
      "¥": 111,
      "¦": 112,
      "§": 113,
      "¨": 114,
      "©": 115,
      "ª": 116,
      "«": 117,
      "¬": 118,
      "®": 119,
      "¯": 120,
      "°": 121,
      "±": 122,
      "²": 123,
      "³": 124,
      "´": 125,
      "µ": 126,
      "¶": 127,
      "·": 128,
      "¸": 129,
      "¹": 130,
      "º": 131,
      "»": 132,
      "¼": 133,
      "½": 134,
      "¾": 135,
      "¿": 136,
      "À": 137,
      "Á": 138,
      "Â": 139,
      "Ã": 140,
      "Ä": 141,
      "Å": 142,
      "Æ": 143,
      "Ç": 144,
      "È": 145,
      "É": 146,
      "Ê": 147,
      "Ë": 148,
      "Ì": 149,
      "Í": 150,
      "Î": 151,
      "Ï": 152,
      "Ð": 153,
      "Ñ": 154,
      "Ò": 155,
      "Ó": 156,
      "Ô": 157,
      "Õ": 158,
      "Ö": 159,
      "×": 160,
      "Ø": 161,
      "Ù": 162,
      "Ú": 163,
      "Û": 164,
      "Ü": 165,
      "Ý": 166,
      "Þ": 167,
      "ß": 168,
      "à": 169,
      "á": 170,
      "â": 171,
      "ã": 172,
      "ä": 173,
      "å": 174,
      "æ": 175,
      "ç": 176,
      "è": 177,
      "é": 178,
      "ê": 179,
      "ë": 180,
      "ì": 181,
      "í": 182,
      "î": 183,
      "ï": 184,
      "ð": 185,
      "ñ": 186,
      "ò": 187,
      "ó": 188,
      "ô": 189,
      "õ": 190,
      "ö": 191,
      "÷": 192,
      "ø": 193,
      "ù": 194,
      "ú": 195,
      "û": 196,
      "ü": 197,
      "ý": 198,
      "þ": 199,
      "ÿ": 200,
      "Ā": 201,
      "ā": 202,
      "Ă": 203,
      "ă": 204,
      "Ą": 205,
      "ą": 206,
      "Ć": 207,
      "ć": 208,
      "Ĉ": 209,
      "ĉ": 210,
      "Ċ": 211,
      "ċ": 212,
      "Č": 213,
      "č": 214,
      "Ď": 215,
      "ď": 216,
      "Đ": 217,
      "đ": 218,
      "Ē": 219,
      "ē": 220,
      "Ĕ": 221,
      "ĕ": 222,
      "Ė": 223,
      "ė": 224,
      "Ę": 225,
      "ę": 226,
      "Ě": 227,
      "ě": 228,
      "Ĝ": 229,
      "ĝ": 230,
      "Ğ": 231,
      "ğ": 232,
      "Ġ": 233,
      "ġ": 234,
      "Ģ": 235,
      "ģ": 236,
      "Ĥ": 237,
      "ĥ": 238,
      "Ħ": 239,
      "ħ": 240,
      "Ĩ": 241,
      "ĩ": 242,
      "Ī": 243,
      "ī": 244,
      "Ĭ": 245,
      "ĭ": 246,
      "Į": 247,
      "į": 248,
      "İ": 249,
      "ı": 250,
      "Ĳ": 251,
      "ĳ": 252,
      "Ĵ": 253,
      "ĵ": 254,
      "Ķ": 255,
      "ķ": 256,
      "ĸ": 257,
      "Ĺ": 258,
      "ĺ": 259,
      "Ļ": 260,
      "ļ": 261,
      "Ľ": 262,
      "ľ": 263,
      "Ŀ": 264,
      "ŀ": 265,
      "Ł": 266,
      "ł": 267,
      "Ń": 268,
      "es": 269,
      "Ġd": 270,
      "Ġl": 271,
      "Ġp": 272,
      "ai": 273,
      "Ġc": 274,
      "ou": 275,
      "en": 276,
      "Ġm": 277,
      "on": 278,
      "Ġs": 279,
      "qu": 280,
      "Ġt": 281,
      "Ã©": 282,
      "an": 283,
      "re": 284,
      "Ġj": 285,
      "er": 286,
      "Ġqu": 287,
      "as": 288,
      "is": 289,
      "Ġf": 290,
      "le": 291,
      "ar": 292,
      "ais": 293,
      "Ġv": 294,
      "Ġb": 295,
      "eu": 296,
      "Ġa": 297,
      "est": 298,
      "oi": 299,
      "ent": 300,
      "un": 301,
      "Ġde": 302,
      "Ġla": 303,
      "et": 304,
      "te": 305,
      "me": 306,
      "ĠÃ": 307,
      "Ġr": 308,
      "Ġpas": 309,
      "our": 310,
      "il": 311,
      "om": 312,
      "Ġn": 313,
      "in": 314,
      "Ġles": 315,
      "ans": 316,
      "Ġun": 317,
      "Ġle": 318,
      "Ġg": 319,
      "Ã¨": 320,
      "it": 321,
      "ch": 322,
      "au": 323,
      "Ġdes": 324,
      "or": 325,
      "ro": 326,
      "ĠÃł": 327,
      "al": 328,
      "Ġdans": 329,
      "us": 330,
      "ve": 331,
      "'s": 332,
      "Ġcom": 333,
      "ur": 334,
      "Ġet": 335,
      "Ġen": 336,
      "se": 337,
      "Ãª": 338,
      "el": 339,
      "uis": 340,
      "Î³": 341,
      "de": 342,
      "ce": 343,
      "ous": 344,
      "la": 345,
      "ait": 346,
      "ra": 347,
      "ien": 348,
      "Ġon": 349,
      "Ġch": 350,
      "Ġque": 351,
      "ant": 352,
      "Ġpour": 353,
      "Ġcomme": 354,
      "'m": 355,
      "ie": 356,
      "Ġh": 357,
      "Ġpar": 358,
      "ne": 359,
      "eux": 360,
      "out": 361,
      "les": 362,
      "Ġpl": 363,
      "Ġma": 364,
      "'t": 365,
      "que": 366,
      "§a": 367,
      "Ġmon": 368,
      "eur": 369,
      "Ġje": 370,
      "and": 371,
      "at": 372,
      "Ġqui": 373,
      "Îµ": 374,
      "ap": 375,
      "Ġau": 376,
      "Ġdu": 377,
      "os": 378,
      "Ġtu": 379,
      "Ġy": 380,
      "ri": 381,
      "am": 382,
      "Ġest": 383,
      "end": 384,
      "ĠÃ§a": 385,
      "res": 386,
      "Ã©t": 387,
      "Ġsur": 388,
      "Ġplus": 389,
      "tre": 390,
      "aire": 391,
      "Ġou": 392,
      "Ġsi": 393,
      "Ġmes": 394,
      "ol": 395,
      "ois": 396,
      "em": 397,
      "ir": 398,
      "ont": 399,
      "ge": 400,
      "elle": 401,
      "Ã¨re": 402,
      "Ġre": 403,
      "Ã©c": 404,
      "ain": 405,
      "Ġune": 406,
      "Ãł": 407,
      "si": 408,
      "Ġme": 409,
      "Ġmais": 410,
      "Ġtout": 411,
      "che": 412,
      "rÃ©": 413,
      "ic": 414,
      "ot": 415,
      "ff": 416,
      "ment": 417,
      "Ġmoi": 418,
      "tu": 419,
      "'d": 420,
      "ille": 421,
      "ac": 422,
      "vec": 423,
      "oir": 424,
      "ĠdÃ©": 425,
      "av": 426,
      "ab": 427,
      "Ġfait": 428,
      "onn": 429,
      "Ġo": 430,
      "aut": 431,
      "ils": 432,
      "je": 433,
      "tes": 434,
      "mes": 435,
      "Ġtr": 436,
      "ons": 437,
      "Ġquand": 438,
      "Ġfaire": 439,
      "ort": 440,
      "pe": 441,
      "Ġvi": 442,
      "Ġavec": 443,
      "pr": 444,
      "li": 445,
      "ah": 446,
      "rop": 447,
      "Ġvie": 448,
      "ps": 449,
      "Ġdi": 450,
      "ens": 451,
      "Ġpr": 452,
      "Ãªme": 453,
      "ers": 454,
      "Ãªte": 455,
      "ag": 456,
      "ti": 457,
      "ard": 458,
      "Ġse": 459,
      "ig": 460,
      "par": 461,
      "ue": 462,
      "im": 463,
      "ang": 464,
      "oin": 465,
      "ours": 466,
      "Ã©s": 467,
      "ass": 468,
      "Ġk": 469,
      "onne": 470,
      "Ġcou": 471,
      "Ġte": 472,
      "ler": 473,
      "mais": 474,
      "Ġbien": 475,
      "'re": 476,
      "Ġrap": 477,
      "Ġta": 478,
      "ux": 479,
      "Ġnous": 480,
      "Ġtrop": 481,
      "Ã¨s": 482,
      "ui": 483,
      "Ġfr": 484,
      "Ã©e": 485,
      "co": 486,
      "rai": 487,
      "ine": 488,
      "um": 489,
      "ut": 490,
      "ĠmÃªme": 491,
      "asse": 492,
      "Ġw": 493,
      "Ġil": 494,
      "Ã´": 495,
      "Ġco": 496,
      "'ve": 497,
      "Î±": 498,
      "Î¸": 499,
      "lo": 500,
      "ros": 501,
      "Ġe": 502,
      "moi": 503,
      "ess": 504,
      "ier": 505,
      "Ġne": 506,
      "ver": 507,
      "Ġsans": 508,
      "iens": 509,
      "Ġva": 510,
      "Ġdis": 511,
      "Ġrien": 512,
      "vais": 513,
      "Ġouais": 514,
      "ends": 515,
      "Ġtou": 516,
      "ique": 517,
      "Ġin": 518,
      "Ġpeu": 519,
      "Ġgr": 520,
      "Ġce": 521,
      "ad": 522,
      "Ġav": 523,
      "ter": 524,
      "Ġpro": 525,
      "ĠÃ©": 526,
      "une": 527,
      "eah": 528,
      "pour": 529,
      "ail": 530,
      "uc": 531,
      "Ã¢": 532,
      "fais": 533,
      "ance": 534,
      "ette": 535,
      "rois": 536,
      "ors": 537,
      "ay": 538,
      "ts": 539,
      "Ġal": 540,
      "qui": 541,
      "uit": 542,
      "emps": 543,
      "eurs": 544,
      "Ġcon": 545,
      "Ġton": 546,
      "Ġbr": 547,
      "Ġsont": 548,
      "com": 549,
      "des": 550,
      "Ġtous": 551,
      "Ġtoi": 552,
      "ire": 553,
      "age": 554,
      "Ġmal": 555,
      "ĠrÃ©": 556,
      "..": 557,
      "Ġdit": 558,
      "Ã®": 559,
      "Ã»": 560,
      "Ġper": 561,
      "Ġfaut": 562,
      "ĠtÃªte": 563,
      "Ġar": 564,
      "Ã¹": 565,
      "lÃ©": 566,
      "Ġ,": 567,
      "id": 568,
      "ing": 569,
      "Ã§a": 570,
      "Ġsuis": 571,
      "Ġbou": 572,
      "Ġjus": 573,
      "Ġfais": 574,
      "Ġsa": 575,
      "Ġcr": 576,
      "Ġfin": 577,
      "Ġai": 578,
      "Ġpart": 579,
      "ma": 580,
      "Î²": 581,
      "ond": 582,
      "pl": 583,
      "Ġmi": 584,
      "rap": 585,
      "ion": 586,
      "amais": 587,
      "omb": 588,
      "ĠlÃł": 589,
      "Ġyeah": 590,
      "Ġtes": 591,
      "tÃ©": 592,
      "erre": 593,
      "ul": 594,
      "Ġst": 595,
      "eul": 596,
      "anc": 597,
      "eau": 598,
      "Ġson": 599,
      "ouv": 600,
      "Î¶": 601,
      "Ġsais": 602,
      "ques": 603,
      "ets": 604,
      "Ġth": 605,
      "ĠÃ©t": 606,
      "ble": 607,
      "entre": 608,
      "Ġelle": 609,
      "jours": 610,
      "aisse": 611,
      "per": 612,
      "Ġnos": 613,
      "leur": 614,
      "cher": 615,
      "Ġjamais": 616,
      "Ġveux": 617,
      "Î·": 618,
      "Ġz": 619,
      "onc": 620,
      "endre": 621,
      "Ġsous": 622,
      "Ġtemps": 623,
      "Ġri": 624,
      "Ġgros": 625,
      "Ġmar": 626,
      "ise": 627,
      "Ġcar": 628,
      "Ãªtre": 629,
      "ite": 630,
      "ole": 631,
      "Ġpla": 632,
      "Ã¨res": 633,
      "Ġmer": 634,
      "ĠrÃª": 635,
      "ins": 636,
      "oute": 637,
      "ser": 638,
      "ure": 639,
      "Ġgar": 640,
      "rais": 641,
      "Ġils": 642,
      "ĠoÃ¹": 643,
      "Ġvrai": 644,
      "dans": 645,
      "Ġdev": 646,
      "toi": 647,
      "Ġdeux": 648,
      "oit": 649,
      "bl": 650,
      "ci": 651,
      "ici": 652,
      "mer": 653,
      "Ġquoi": 654,
      "ouve": 655,
      "mon": 656,
      "ey": 657,
      "Ġconn": 658,
      "ume": 659,
      "Ġrest": 660,
      "aux": 661,
      "Ġni": 662,
      "Ã©es": 663,
      "ĠÃª": 664,
      "Ġgrand": 665,
      "all": 666,
      "att": 667,
      "core": 668,
      "Ġli": 669,
      "Ġperd": 670,
      "ande": 671,
      "quand": 672,
      "Ġmonde": 673,
      "Ġaux": 674,
      "puis": 675,
      "Ġgu": 676,
      "Ġdire": 677,
      "ck": 678,
      "op": 679,
      "oul": 680,
      "orte": 681,
      "Ġple": 682,
      "ord": 683,
      "Ġces": 684,
      "Ġtra": 685,
      "ace": 686,
      "Ġsh": 687,
      "Ġjour": 688,
      "Ġbon": 689,
      "oy": 690,
      "ange": 691,
      "Ġtoujours": 692,
      "nes": 693,
      "Î±Î³": 694,
      "ose": 695,
      "ĠÃ©c": 696,
      "Ġche": 697,
      "ĠÃªtre": 698,
      "ves": 699,
      "ches": 700,
      "gar": 701,
      "pas": 702,
      "vre": 703,
      "di": 704,
      "illes": 705,
      "are": 706,
      "itÃ©": 707,
      "ple": 708,
      "able": 709,
      "aque": 710,
      "ense": 711,
      "Ã©r": 712,
      "esp": 713,
      "aime": 714,
      "ence": 715,
      "app": 716,
      "Ã©g": 717,
      "eut": 718,
      "iÃ¨re": 719,
      "Ġpu": 720,
      "ner": 721,
      "Ġvu": 722,
      "Ġyeux": 723,
      "Ġvous": 724,
      "Ġap": 725,
      "Ã§": 726,
      "tr": 727,
      "Ġrapp": 728,
      "Ġmain": 729,
      "Ġam": 730,
      "Ġpot": 731,
      "aud": 732,
      "Ã©tais": 733,
      "sent": 734,
      "tant": 735,
      "Ġbi": 736,
      "tout": 737,
      "Ġbar": 738,
      "oule": 739,
      "Ġnuit": 740,
      "tres": 741,
      "vois": 742,
      "Ġveut": 743,
      "Ġfois": 744,
      "ouais": 745,
      "Ġcl": 746,
      "garde": 747,
      "quoi": 748,
      "faut": 749,
      "ct": 750,
      "Ġdem": 751,
      "ale": 752,
      "Ġsal": 753,
      "Ġjuste": 754,
      "cou": 755,
      "Ġvois": 756,
      "Ã¨te": 757,
      "imp": 758,
      "Ġgars": 759,
      "ĠprÃ©": 760,
      "ob": 761,
      "euf": 762,
      "enir": 763,
      "Ġman": 764,
      "its": 765,
      "ill": 766,
      "eule": 767,
      "Ġser": 768,
      "jÃł": 769,
      "Ġpo": 770,
      "Ġpet": 771,
      "vi": 772,
      "Ġparle": 773,
      "',": 774,
      "Ġont": 775,
      "Ġi": 776,
      "Ġses": 777,
      "Ġencore": 778,
      "Ġfor": 779,
      "Ã¨ne": 780,
      "elles": 781,
      "Ġpeur": 782,
      "aine": 783,
      "ersonne": 784,
      "...": 785,
      "ke": 786,
      "tt": 787,
      "air": 788,
      "ein": 789,
      "od": 790,
      "ents": 791,
      "Ġsu": 792,
      "Ġpeut": 793,
      "ex": 794,
      "Ġ1": 795,
      "ces": 796,
      "viens": 797,
      "Ġseul": 798,
      "Ġtour": 799,
      "Ã©n": 800,
      "eure": 801,
      "quer": 802,
      "Ġbas": 803,
      "Ġgens": 804,
      "Ġgra": 805,
      "Ġcas": 806,
      "Ġavant": 807,
      "Ġmerde": 808,
      "Ġca": 809,
      "Ġbal": 810,
      "ĠdÃ©c": 811,
      "Ġmort": 812,
      "faire": 813,
      "Ġnan": 814,
      "if": 815,
      "ses": 816,
      "Ġcomp": 817,
      "Ġcette": 818,
      "ĠmÃ©": 819,
      "arr": 820,
      "oire": 821,
      "Ġex": 822,
      "oc": 823,
      "ann": 824,
      "Ġmieux": 825,
      "Ã¨me": 826,
      "gu": 827,
      "ile": 828,
      "Ã©p": 829,
      "Ġcoeur": 830,
      "Ġvoir": 831,
      "Ġph": 832,
      "sion": 833,
      "sÃ©": 834,
      "Ġjeu": 835,
      "rive": 836,
      "Ġsort": 837,
      "Ġbl": 838,
      "aÃ®": 839,
      "Ġsens": 840,
      "Ġfl": 841,
      "Ġbeau": 842,
      "Ġmis": 843,
      "Ġno": 844,
      "br": 845,
      "bi": 846,
      "Ġquel": 847,
      "oix": 848,
      "bre": 849,
      "Î±Î²": 850,
      "comme": 851,
      "Ã©tait": 852,
      "Ġoh": 853,
      "iste": 854,
      "Ġci": 855,
      "amour": 856,
      "omme": 857,
      "uck": 858,
      "ong": 859,
      "ĠĊ": 860,
      "be": 861,
      "ies": 862,
      "mÃªme": 863,
      "Ġmet": 864,
      "aille": 865,
      "Ġpuis": 866,
      "Ġmec": 867,
      "ten": 868,
      "Ġfer": 869,
      "cer": 870,
      "Ġver": 871,
      "Ã´t": 872,
      "enf": 873,
      "ph": 874,
      "ante": 875,
      "ages": 876,
      "Ġdou": 877,
      "Ġnon": 878,
      "Ġleur": 879,
      "Ġgo": 880,
      "ants": 881,
      "Ġcra": 882,
      "Ġsou": 883,
      "Ġcher": 884,
      "Ġpasse": 885,
      "peux": 886,
      "Ã¯": 887,
      "aise": 888,
      "Ġvis": 889,
      "fait": 890,
      "Ġjou": 891,
      "utain": 892,
      "ame": 893,
      "oh": 894,
      "Ġdonc": 895,
      "ta": 896,
      "Ġreste": 897,
      "Ġpi": 898,
      "Ġcal": 899,
      "prends": 900,
      "crois": 901,
      "ze": 902,
      "prÃ¨s": 903,
      "ĠrÃªves": 904,
      "Ġpeux": 905,
      "oig": 906,
      "Ġenf": 907,
      "ĠdÃ©jÃł": 908,
      "Ġder": 909,
      "Ġloin": 910,
      "Ġfond": 911,
      "Ġcoup": 912,
      "dÃ©": 913,
      "ris": 914,
      "Ġatt": 915,
      "igh": 916,
      "Ġreg": 917,
      "anger": 918,
      "Ġsav": 919,
      "rem": 920,
      "Ġchaque": 921,
      "Ġpens": 922,
      "ok": 923,
      "ĠfrÃ¨re": 924,
      "Ġlaisse": 925,
      "Ġcor": 926,
      "onde": 927,
      "tenant": 928,
      "avec": 929,
      "conn": 930,
      "Ġpersonne": 931,
      "nent": 932,
      "Ġchez": 933,
      "ĠmÃ¨re": 934,
      "esoin": 935,
      "Ġeh": 936,
      "vous": 937,
      "ak": 938,
      "ow": 939,
      "Ġcont": 940,
      "leurs": 941,
      "Ġpos": 942,
      "Ġcour": 943,
      "low": 944,
      "ds": 945,
      "Ġnouve": 946,
      "Ġcap": 947,
      "Ġtoutes": 948,
      "Ġcrois": 949,
      "endant": 950,
      "Ġmat": 951,
      "ĠaprÃ¨s": 952,
      "Ġtoute": 953,
      "Ġvite": 954,
      "up": 955,
      "one": 956,
      "Ġsoir": 957,
      "gent": 958,
      "env": 959,
      "Ġrou": 960,
      "lÃł": 961,
      "vent": 962,
      "ack": 963,
      "Ġrem": 964,
      "Ġsc": 965,
      "Ġ2": 966,
      "Ġsent": 967,
      "gue": 968,
      "Ġfont": 969,
      "ites": 970,
      "aient": 971,
      "Ġmil": 972,
      "fi": 973,
      "coup": 974,
      "lle": 975,
      "Ġdepuis": 976,
      "Ġpris": 977,
      "Ġthe": 978,
      "ions": 979,
      "Ġtomb": 980,
      "tion": 981,
      "Ġvas": 982,
      "ffe": 983,
      "pense": 984,
      "tte": 985,
      "Ġici": 986,
      "Ġplein": 987,
      "Ġmot": 988,
      "mÃ©": 989,
      "ras": 990,
      "Ġfeu": 991,
      "ns": 992,
      "rait": 993,
      "Ã¨ve": 994,
      "plus": 995,
      "Ġcol": 996,
      "Ġville": 997,
      "Ġac": 998,
      "ĠtrÃ¨s": 999,
      "Ġfout": 1000,
      "oses": 1001,
      "Ġceux": 1002,
      "ĠsÃ»": 1003,
      "Ġans": 1004,
      "Ġlo": 1005,
      "xx": 1006,
      "Ġsour": 1007,
      "aye": 1008,
      "Ġcons": 1009,
      "Ġem": 1010,
      "Ġpe": 1011,
      "Ã©ri": 1012,
      "Ġbesoin": 1013,
      "oie": 1014,
      "Ġplan": 1015,
      "Ãªt": 1016,
      "ach": 1017,
      "Ġes": 1018,
      "Ġlui": 1019,
      "rappe": 1020,
      "st": 1021,
      "Ġvoul": 1022,
      "Ġplace": 1023,
      "Ġent": 1024,
      "lez": 1025,
      "asser": 1026,
      "vÃ©": 1027,
      "Ġface": 1028,
      "este": 1029,
      "Ġhey": 1030,
      "pi": 1031,
      "jour": 1032,
      "Ġcer": 1033,
      "vis": 1034,
      "Ġpotes": 1035,
      "rer": 1036,
      "part": 1037,
      "ĠfrÃ¨res": 1038,
      "pli": 1039,
      "passe": 1040,
      "Ġres": 1041,
      "ats": 1042,
      "Ġentre": 1043,
      "sur": 1044,
      "Ġterre": 1045,
      "oint": 1046,
      "Ġsau": 1047,
      "avais": 1048,
      "onner": 1049,
      "man": 1050,
      "Ġlong": 1051,
      "arrive": 1052,
      "Ġmo": 1053,
      "Ġautres": 1054,
      "fr": 1055,
      "oud": 1056,
      "Ã©v": 1057,
      "ade": 1058,
      "tou": 1059,
      "Ġnoir": 1060,
      "attends": 1061,
      "riÃ¨re": 1062,
      "Ġfam": 1063,
      "orm": 1064,
      "Ġdr": 1065,
      "Ġpol": 1066,
      "chÃ©": 1067,
      "car": 1068,
      "ĠdÃ©t": 1069,
      "aie": 1070,
      "Ġfort": 1071,
      "lent": 1072,
      "Ġsol": 1073,
      "Ġfils": 1074,
      "Ġcomment": 1075,
      "Ġmoins": 1076,
      "Ġtex": 1077,
      "nÃ©": 1078,
      "Ġvos": 1079,
      "Ġjusqu": 1080,
      "Ġfum": 1081,
      "itch": 1082,
      "bien": 1083,
      "vie": 1084,
      "arrÃªte": 1085,
      "yeah": 1086,
      "Ġfil": 1087,
      "ouver": 1088,
      "Ġsk": 1089,
      "Ġso": 1090,
      "Ġbe": 1091,
      "ussi": 1092,
      "Ġciel": 1093,
      "Ġparler": 1094,
      "Ġleurs": 1095,
      "ĠpÃ©t": 1096,
      "Ġputain": 1097,
      "ation": 1098,
      "ton": 1099,
      "Ã©d": 1100,
      "th": 1101,
      "oque": 1102,
      "Ġconnais": 1103,
      "bli": 1104,
      "vers": 1105,
      "istoi": 1106,
      "prÃ©": 1107,
      "sa": 1108,
      "Ġgen": 1109,
      "ement": 1110,
      "tour": 1111,
      "Ġtruc": 1112,
      "go": 1113,
      "Ġbelle": 1114,
      "aires": 1115,
      "Ġvais": 1116,
      "Ġpourquoi": 1117,
      "eulent": 1118,
      "oleil": 1119,
      "Ġpap": 1120,
      "Ã©l": 1121,
      "Ġbla": 1122,
      "ed": 1123,
      "eh": 1124,
      "quÃ©": 1125,
      "Ġfem": 1126,
      "heure": 1127,
      "Ġsouv": 1128,
      "Ġhein": 1129,
      "Ġjours": 1130,
      "Ġvers": 1131,
      "ienne": 1132,
      "illeur": 1133,
      "Ġgueule": 1134,
      "yle": 1135,
      "Ġparis": 1136,
      "Ġveulent": 1137,
      "Ġpetit": 1138,
      "lui": 1139,
      "Ġchar": 1140,
      "Ġcab": 1141,
      "ĠsÃ»r": 1142,
      "con": 1143,
      "Ġas": 1144,
      "pris": 1145,
      "Ġsang": 1146,
      "Ġlar": 1147,
      "oirÃ©": 1148,
      "pro": 1149,
      "Ġti": 1150,
      "Ġfou": 1151,
      "Ġdix": 1152,
      "Ġshit": 1153,
      "Ġtard": 1154,
      "avant": 1155,
      "hi": 1156,
      "Ġdro": 1157,
      "Ã©coute": 1158,
      "Ġdevant": 1159,
      "mis": 1160,
      "main": 1161,
      "Ġdo": 1162,
      "Ġaussi": 1163,
      "Ġvivre": 1164,
      "connais": 1165,
      "Ġrentre": 1166,
      "Ġparce": 1167,
      "tous": 1168,
      "Ġtrois": 1169,
      "Ġregard": 1170,
      "laisse": 1171,
      "Ġlais": 1172,
      "Ġmy": 1173,
      "Ġter": 1174,
      "Ġrue": 1175,
      "Ġperdu": 1176,
      "ges": 1177,
      "Ġcham": 1178,
      "Ġdur": 1179,
      "Ġmin": 1180,
      "nous": 1181,
      "ente": 1182,
      "eures": 1183,
      "00": 1184,
      "Ġoui": 1185,
      "ick": 1186,
      "Ġpri": 1187,
      "Ġmau": 1188,
      "ash": 1189,
      "ture": 1190,
      "ĠdÃ©p": 1191,
      "Ġsait": 1192,
      "ni": 1193,
      "acc": 1194,
      "cu": 1195,
      "Ġstu": 1196,
      "ettes": 1197,
      "sem": 1198,
      "gne": 1199,
      "pes": 1200,
      "Ġeu": 1201,
      "Ã§on": 1202,
      "Ġfamille": 1203,
      "hui": 1204,
      "ste": 1205,
      "blie": 1206,
      "Ġmaintenant": 1207,
      "Ġdir": 1208,
      "Ġcau": 1209,
      "iller": 1210,
      "Ġheures": 1211,
      "assez": 1212,
      "Ġcul": 1213,
      "Ġmus": 1214,
      "Ġfac": 1215,
      "argent": 1216,
      "Ġplu": 1217,
      "parle": 1218,
      "hey": 1219,
      "Ġbais": 1220,
      "esses": 1221,
      "Ġmeuf": 1222,
      "Ġbille": 1223,
      "ĠÃ©tait": 1224,
      "mi": 1225,
      "Ġwe": 1226,
      "Ġprod": 1227,
      "fÃ¨re": 1228,
      "Ġann": 1229,
      "Ġtant": 1230,
      "Ġab": 1231,
      "Ã¨mes": 1232,
      "ĠrÃªve": 1233,
      "rien": 1234,
      "Ġmets": 1235,
      "Ġto": 1236,
      "donc": 1237,
      "Ġcan": 1238,
      "Ã©cris": 1239,
      "ains": 1240,
      "Ġeux": 1241,
      "ines": 1242,
      "Ġrimes": 1243,
      "Ġim": 1244,
      "Ġimp": 1245,
      "Ġmag": 1246,
      "ues": 1247,
      "Ġid": 1248,
      "use": 1249,
      "Ġhan": 1250,
      "art": 1251,
      "Ġdemain": 1252,
      "Ġquelques": 1253,
      "jourd": 1254,
      "cra": 1255,
      "Ġprobl": 1256,
      "eff": 1257,
      "cs": 1258,
      "hÃ©": 1259,
      "Ġprop": 1260,
      "Ġprom": 1261,
      "az": 1262,
      "Ġvoix": 1263,
      "Ġvient": 1264,
      "Ġvit": 1265,
      "ression": 1266,
      "Ġsy": 1267,
      "Ġseule": 1268,
      "Ġautre": 1269,
      "af": 1270,
      "no": 1271,
      "Ġchaud": 1272,
      "Ġchoses": 1273,
      "ĠdÃ©f": 1274,
      "asses": 1275,
      "Ġvraiment": 1276,
      "istes": 1277,
      "ombre": 1278,
      "fois": 1279,
      "ĠcÃ´": 1280,
      "Ġsac": 1281,
      "Ãªtes": 1282,
      "Ġprendre": 1283,
      "Ġcontre": 1284,
      "Ġporte": 1285,
      "Ġhistoi": 1286,
      "osse": 1287,
      "ĠdÃ©b": 1288,
      "ĠdÃ©s": 1289,
      "Ġpute": 1290,
      "dis": 1291,
      "fer": 1292,
      "Ġfuck": 1293,
      "Ġvol": 1294,
      "Ġcash": 1295,
      "Ġtap": 1296,
      "Ġflow": 1297,
      "Ġbeaucoup": 1298,
      "Ġprem": 1299,
      "aimer": 1300,
      "ane": 1301,
      "Ġheure": 1302,
      "ances": 1303,
      "Ġdern": 1304,
      "oÃ¹": 1305,
      "Ġhaine": 1306,
      "appelle": 1307,
      "Ġmettre": 1308,
      "oo": 1309,
      "Ġsp": 1310,
      "Ġsoleil": 1311,
      "Ġhaut": 1312,
      "Ġpeine": 1313,
      "bÃ©": 1314,
      "non": 1315,
      "Ġpat": 1316,
      "Ġsm": 1317,
      "entÃ´t": 1318,
      "Ġnu": 1319,
      "Ġregarde": 1320,
      "pect": 1321,
      "Ġmauvais": 1322,
      "Ġassez": 1323,
      "Ġcri": 1324,
      "isse": 1325,
      "Ġram": 1326,
      "ĠrÃ©p": 1327,
      "Ġforce": 1328,
      "Ġgenre": 1329,
      "Ġbat": 1330,
      "alors": 1331,
      "heur": 1332,
      "iff": 1333,
      "ommes": 1334,
      "aÃ¯": 1335,
      "du": 1336,
      "gra": 1337,
      "Ġdonne": 1338,
      "ĠlÃ¢": 1339,
      "Ġpan": 1340,
      "Ġpau": 1341,
      "Ġpie": 1342,
      "Ġsem": 1343,
      "Ġbout": 1344,
      "Ġmeilleur": 1345,
      "onnes": 1346,
      "Ġble": 1347,
      "Ġbonne": 1348,
      "rÃ©s": 1349,
      "Ġsale": 1350,
      "bles": 1351,
      "cre": 1352,
      "der": 1353,
      "vant": 1354,
      "Ġchance": 1355,
      "atre": 1356,
      "oot": 1357,
      "itu": 1358,
      "Ġdrogue": 1359,
      "fin": 1360,
      "Ġdar": 1361,
      "Ġlim": 1362,
      "ellement": 1363,
      "Ġpou": 1364,
      "Ġquit": 1365,
      "Ġins": 1366,
      "Ġperdre": 1367,
      "ide": 1368,
      "tent": 1369,
      "esh": 1370,
      "Ġcli": 1371,
      "ards": 1372,
      "ende": 1373,
      "ments": 1374,
      "Ġdieu": 1375,
      "pourquoi": 1376,
      "Ġdra": 1377,
      "iter": 1378,
      "Ġauc": 1379,
      "ĠpÃ¨re": 1380,
      "ĠÃ¢": 1381,
      "Ġfini": 1382,
      "hors": 1383,
      "enu": 1384,
      "Ġrac": 1385,
      "bal": 1386,
      "Ġmic": 1387,
      "ĠfrÃ©": 1388,
      "aurais": 1389,
      "veau": 1390,
      "Ġnotre": 1391,
      "Ġsoit": 1392,
      "Ġban": 1393,
      "Ġcouple": 1394,
      "Ġallez": 1395,
      "dre": 1396,
      "fs": 1397,
      "Ġcorps": 1398,
      "Ġmilli": 1399,
      "ĠnÃ©g": 1400,
      "Ġdanse": 1401,
      "essaye": 1402,
      "gros": 1403,
      "Ġpay": 1404,
      "Ãªmes": 1405,
      "Ġchant": 1406,
      "espoir": 1407,
      "toujours": 1408,
      "ĠtÃ©": 1409,
      "Ġtri": 1410,
      "Ġrais": 1411,
      "Ġroule": 1412,
      "prendre": 1413,
      "cool": 1414,
      "ber": 1415,
      "rir": 1416,
      "Ġapp": 1417,
      "cours": 1418,
      "hab": 1419,
      "nan": 1420,
      "iss": 1421,
      "arre": 1422,
      "Ġbu": 1423,
      "ĠÃ©p": 1424,
      "comp": 1425,
      "Ġmusique": 1426,
      "for": 1427,
      "ger": 1428,
      "voul": 1429,
      "oublie": 1430,
      "tem": 1431,
      "Ġdemande": 1432,
      "Ġcompte": 1433,
      "cr": 1434,
      "trop": 1435,
      "pÃ©": 1436,
      "Ġquar": 1437,
      "Ġviens": 1438,
      "ures": 1439,
      "Ġenvie": 1440,
      "Ġchose": 1441,
      "fuck": 1442,
      "nÃ©e": 1443,
      "rÃª": 1444,
      "Ġmor": 1445,
      "angÃ©": 1446,
      "Ġall": 1447,
      "Ġmots": 1448,
      "cl": 1449,
      "Ġtrain": 1450,
      "aÃ®t": 1451,
      "bou": 1452,
      "Ġpres": 1453,
      "Ġbitch": 1454,
      "iti": 1455,
      "Ġcoups": 1456,
      "Ġguerre": 1457,
      "gr": 1458,
      "ore": 1459,
      "Ġment": 1460,
      "Ġtellement": 1461,
      "Ġad": 1462,
      "autre": 1463,
      "fume": 1464,
      "inqui": 1465,
      "Ġlarmes": 1466,
      "Ġpire": 1467,
      "Ġvoy": 1468,
      "Ġfinir": 1469,
      "Ġrappeurs": 1470,
      "Ġpote": 1471,
      "Ġjeunes": 1472,
      "fond": 1473,
      "Ġ?": 1474,
      "oue": 1475,
      "tel": 1476,
      "Ġok": 1477,
      "Ġvide": 1478,
      "Ġfau": 1479,
      "Ġcomm": 1480,
      "Ġho": 1481,
      "Ġaller": 1482,
      "Ġalors": 1483,
      "Ġtextes": 1484,
      "her": 1485,
      "ks": 1486,
      "Ġpous": 1487,
      "ave": 1488,
      "mm": 1489,
      "Ġ3": 1490,
      "Ġbo": 1491,
      "Ġbab": 1492,
      "oid": 1493,
      "Ã©tÃ©": 1494,
      "sible": 1495,
      "quipe": 1496,
      "bon": 1497,
      "Ġpense": 1498,
      "Ġjoint": 1499,
      "oss": 1500,
      "Ġrester": 1501,
      "rent": 1502,
      "Ġan": 1503,
      "Ġvont": 1504,
      "chent": 1505,
      "emp": 1506,
      "ĠprÃ¨s": 1507,
      "Ġputes": 1508,
      "Ġsourire": 1509,
      "aff": 1510,
      "io": 1511,
      "nique": 1512,
      "Ġass": 1513,
      "Ġlou": 1514,
      "ĠbÃ¢": 1515,
      "Ġaur": 1516,
      "Ġrime": 1517,
      "ate": 1518,
      "cÃ©": 1519,
      "vres": 1520,
      "Ġmiens": 1521,
      "Ġfai": 1522,
      "Ġprends": 1523,
      "Ġstyle": 1524,
      "Ġpoto": 1525,
      "Ġcherche": 1526,
      "Ġbillets": 1527,
      "Ġdoig": 1528,
      "Ġah": 1529,
      "entends": 1530,
      "oto": 1531,
      "Ġmains": 1532,
      "Ġgrave": 1533,
      "Ã©poque": 1534,
      "semble": 1535,
      "ĠproblÃ¨mes": 1536,
      "Ġcel": 1537,
      "Ġpasser": 1538,
      "Ġit": 1539,
      "once": 1540,
      "Ġsuc": 1541,
      "Ġfous": 1542,
      "Ġaff": 1543,
      "Ġchanger": 1544,
      "Ġavoir": 1545,
      "Ġtire": 1546,
      "Ġyou": 1547,
      "Ġcroire": 1548,
      "Ã´le": 1549,
      "ĠÃ©toi": 1550,
      "ho": 1551,
      "jus": 1552,
      "Ġpai": 1553,
      "ĠmÃªmes": 1554,
      "erai": 1555,
      "Ġnom": 1556,
      "avoir": 1557,
      "Ġnouveau": 1558,
      "pla": 1559,
      "Ġpendant": 1560,
      "Ã©ch": 1561,
      "Ġvoi": 1562,
      "Ġgag": 1563,
      "fe": 1564,
      "jo": 1565,
      "ule": 1566,
      "Ġfi": 1567,
      "Ġgal": 1568,
      "rot": 1569,
      "bes": 1570,
      "cont": 1571,
      "roule": 1572,
      "Ġor": 1573,
      "enfer": 1574,
      "ight": 1575,
      "Ġfacile": 1576,
      "cette": 1577,
      "xe": 1578,
      "estin": 1579,
      "assÃ©": 1580,
      "voulais": 1581,
      "rit": 1582,
      "voir": 1583,
      "Ġcours": 1584,
      "Ġcasse": 1585,
      "anche": 1586,
      "Ġfume": 1587,
      "ars": 1588,
      "Ġbra": 1589,
      "Ġgl": 1590,
      "alitÃ©": 1591,
      "lam": 1592,
      "raÃ®": 1593,
      "Ġjean": 1594,
      "nos": 1595,
      "Ġmom": 1596,
      "Ġbut": 1597,
      "ĠdÃ©m": 1598,
      "Ġdisent": 1599,
      "xxx": 1600,
      "Ġcro": 1601,
      "Ġclo": 1602,
      "Ġvent": 1603,
      "Ġprend": 1604,
      "Ġpartir": 1605,
      "Ġjeune": 1606,
      "Ġfemme": 1607,
      "ca": 1608,
      "euh": 1609,
      "Ġsim": 1610,
      "Ġdiff": 1611,
      "Ġair": 1612,
      "ancer": 1613,
      "ĠgoÃ»": 1614,
      "ka": 1615,
      "Ġfaux": 1616,
      "Ġyo": 1617,
      "Ġvieux": 1618,
      "prÃ©fÃ¨re": 1619,
      "Ġfre": 1620,
      "illa": 1621,
      "Ġhe": 1622,
      "iÃ¨me": 1623,
      "Ġcin": 1624,
      "Ġvo": 1625,
      "avance": 1626,
      "prit": 1627,
      "Ġcouilles": 1628,
      "Ġbase": 1629,
      "Ġdess": 1630,
      "Ġfol": 1631,
      "Ġbour": 1632,
      "illÃ©": 1633,
      "Ġfoutre": 1634,
      "lot": 1635,
      "rÃ©p": 1636,
      "adis": 1637,
      "gique": 1638,
      "ient": 1639,
      "Ġdos": 1640,
      "Ġquatre": 1641,
      "Ġbah": 1642,
      "dem": 1643,
      "onnÃ©": 1644,
      "ĠtraÃ®": 1645,
      "Ġsavoir": 1646,
      "Ġquarti": 1647,
      "bat": 1648,
      "ĠlÃ©g": 1649,
      "ist": 1650,
      "Ġvrais": 1651,
      "cep": 1652,
      "outes": 1653,
      "prend": 1654,
      "Ġniquer": 1655,
      "ss": 1656,
      "Ġcre": 1657,
      "Ġna": 1658,
      "Ġeff": 1659,
      "ĠbrÃ»": 1660,
      "allume": 1661,
      "Ġmecs": 1662,
      "cle": 1663,
      "min": 1664,
      "mets": 1665,
      "rÃ¨s": 1666,
      "quel": 1667,
      "Ġbail": 1668,
      "Ġren": 1669,
      "urs": 1670,
      "Ġhomme": 1671,
      "ric": 1672,
      "gues": 1673,
      "tard": 1674,
      "Ġ4": 1675,
      "onte": 1676,
      "Ġge": 1677,
      "dio": 1678,
      "Ġcalme": 1679,
      "Ġcaba": 1680,
      "temps": 1681,
      "personne": 1682,
      "Ġcent": 1683,
      "Ġsouff": 1684,
      "cent": 1685,
      "Î±Îµ": 1686,
      "espÃ¨re": 1687,
      "bum": 1688,
      "hum": 1689,
      "ip": 1690,
      "Ġup": 1691,
      "Ġlune": 1692,
      "Ġpor": 1693,
      "Ġfier": 1694,
      "ĠrÃ©s": 1695,
      "Ġparles": 1696,
      "Ġtrans": 1697,
      "tions": 1698,
      "aimerais": 1699,
      "Ġdonner": 1700,
      "Ã¨ge": 1701,
      "rire": 1702,
      "ress": 1703,
      "ĠcÃ´tÃ©": 1704,
      "Ġdon": 1705,
      "ĠfÃªte": 1706,
      "ĠnÃ©": 1707,
      "oll": 1708,
      "Ġtrou": 1709,
      "Ġdirait": 1710,
      "aÃ§on": 1711,
      "uer": 1712,
      "Ġpig": 1713,
      "Ġcla": 1714,
      "Ġquest": 1715,
      "olÃ©": 1716,
      "Ġtourne": 1717,
      "maintenant": 1718,
      "Ġcause": 1719,
      "Ġpaix": 1720,
      "Ġport": 1721,
      "uite": 1722,
      "Ġmatin": 1723,
      "Ġfilm": 1724,
      "ĠannÃ©es": 1725,
      "rain": 1726,
      "Ġjj": 1727,
      "Ġvend": 1728,
      "Ġbig": 1729,
      "unes": 1730,
      "aprÃ¨s": 1731,
      "Ġreu": 1732,
      "Ġvies": 1733,
      "umiÃ¨re": 1734,
      "Ġrespect": 1735,
      "vu": 1736,
      "oui": 1737,
      "encore": 1738,
      "ĠmÃ©t": 1739,
      "ase": 1740,
      "ĠpassÃ©": 1741,
      "org": 1742,
      "alcool": 1743,
      "Ġtriste": 1744,
      "Ġjoue": 1745,
      "Ġsouvent": 1746,
      "trois": 1747,
      "Ġ7": 1748,
      "Ġpein": 1749,
      "Ġsch": 1750,
      "Ġdehors": 1751,
      "ĠhÃ©": 1752,
      "Ġtaff": 1753,
      "Ġavait": 1754,
      "Ġsortir": 1755,
      "bar": 1756,
      "mam": 1757,
      "eter": 1758,
      "Ġchange": 1759,
      "ailleurs": 1760,
      "Ġarri": 1761,
      "ĠderriÃ¨re": 1762,
      "gn": 1763,
      "pos": 1764,
      "Ġbeuh": 1765,
      "eum": 1766,
      "chaque": 1767,
      "Ġouh": 1768,
      "Ġamis": 1769,
      "aÃ®tre": 1770,
      "let": 1771,
      "ĠvÃ©r": 1772,
      "ĠrÃ©c": 1773,
      "Ġnique": 1774,
      "Ġhum": 1775,
      "Ġaime": 1776,
      "rapp": 1777,
      "Ġsales": 1778,
      "fiance": 1779,
      "ĠÃ¢me": 1780,
      "fl": 1781,
      "Ġrend": 1782,
      "aller": 1783,
      "igne": 1784,
      "Ġarr": 1785,
      "Ġmanque": 1786,
      "Ġsera": 1787,
      "Ġty": 1788,
      "Ġfu": 1789,
      "Ġverre": 1790,
      "Ġbag": 1791,
      "Ġbaise": 1792,
      "ĠprÃªt": 1793,
      "Ġrappe": 1794,
      "ĠÃ©v": 1795,
      "Ġrappelle": 1796,
      "Ġsku": 1797,
      "deux": 1798,
      "Ġlit": 1799,
      "assi": 1800,
      "Ġpass": 1801,
      "Ġtrouver": 1802,
      "Ġballe": 1803,
      "Ġhistoires": 1804,
      "cro": 1805,
      "sh": 1806,
      "ĠcrÃ©": 1807,
      "Ġval": 1808,
      "iennent": 1809,
      "Ġmaman": 1810,
      "Ġmaison": 1811,
      "Ġbiz": 1812,
      "han": 1813,
      "Ġpal": 1814,
      "Ġbles": 1815,
      "chant": 1816,
      "ouvre": 1817,
      "dic": 1818,
      "va": 1819,
      "Ġfe": 1820,
      "Ġblo": 1821,
      "Ġroute": 1822,
      "Ġgav": 1823,
      "ign": 1824,
      "ĠrÃ©ve": 1825,
      "merde": 1826,
      "Ġbonheur": 1827,
      "audrait": 1828,
      "eufs": 1829,
      "Ġjouer": 1830,
      "dent": 1831,
      "gen": 1832,
      "ik": 1833,
      "vas": 1834,
      "ĠtÃªtes": 1835,
      "Ġve": 1836,
      "Ġvic": 1837,
      "Ġtrouv": 1838,
      "Ġfran": 1839,
      "Ġfroid": 1840,
      "Ġwh": 1841,
      "cherche": 1842,
      "sous": 1843,
      "Ġx": 1844,
      "Ġsors": 1845,
      "Ġher": 1846,
      "Ġparlent": 1847,
      "tique": 1848,
      "Ġarrive": 1849,
      "Ġrentrer": 1850,
      "ieu": 1851,
      "sans": 1852,
      "Ġesp": 1853,
      "ĠdÃ»": 1854,
      "Ġrat": 1855,
      "int": 1856,
      "alle": 1857,
      "Ġoubli": 1858,
      "Ġviol": 1859,
      "cal": 1860,
      "gard": 1861,
      "issent": 1862,
      "ari": 1863,
      "Ġmonn": 1864,
      "Ġweed": 1865,
      "ĠderniÃ¨re": 1866,
      "ntre": 1867,
      "vol": 1868,
      "Ġsil": 1869,
      "ram": 1870,
      "prÃ©c": 1871,
      "Ġgris": 1872,
      "Ġconfiance": 1873,
      "Ġlaisser": 1874,
      "do": 1875,
      "pp": 1876,
      "pens": 1877,
      "enne": 1878,
      "Ġpourtant": 1879,
      "Ġhommes": 1880,
      "Ġlibre": 1881,
      "Ã©nÃ©": 1882,
      "Ġregre": 1883,
      "Ġpluie": 1884,
      "Ġand": 1885,
      "Ġxxx": 1886,
      "Ġmois": 1887,
      "Ġchoix": 1888,
      "ĠchangÃ©": 1889,
      "ingt": 1890,
      "urer": 1891,
      "Ġstudio": 1892,
      "Ġbaiser": 1893,
      "inquiÃ¨te": 1894,
      "cin": 1895,
      "iers": 1896,
      "putain": 1897,
      "Ġcit": 1898,
      "Ġcam": 1899,
      "Ġsin": 1900,
      "Ġvoud": 1901,
      "Ġro": 1902,
      "Ġris": 1903,
      "Ġproj": 1904,
      "Ġperds": 1905,
      "Ġ16": 1906,
      "envoie": 1907,
      "Ġlimsa": 1908,
      "Ġsimple": 1909,
      "donne": 1910,
      "ial": 1911,
      "jeu": 1912,
      "we": 1913,
      "oux": 1914,
      "ĠsoirÃ©": 1915,
      "depuis": 1916,
      "Ġautant": 1917,
      "resse": 1918,
      "ics": 1919,
      "anges": 1920,
      "Ġcool": 1921,
      "pourrais": 1922,
      "Ġgarde": 1923,
      "Ġdoigts": 1924,
      "pendant": 1925,
      "Ġess": 1926,
      "quent": 1927,
      "Ġgard": 1928,
      "act": 1929,
      "Ġgrandi": 1930,
      "ĠscÃ¨ne": 1931,
      "Ġpapa": 1932,
      "cte": 1933,
      "ha": 1934,
      "lÃ¨ve": 1935,
      "ub": 1936,
      "enn": 1937,
      "ĠbÃ©": 1938,
      "Ġbel": 1939,
      "Ġbord": 1940,
      "rite": 1941,
      "irai": 1942,
      "Ġkh": 1943,
      "coeur": 1944,
      "allait": 1945,
      "ĠÃ©coute": 1946,
      "Ġfemmes": 1947,
      "itude": 1948,
      "bel": 1949,
      "met": 1950,
      "Ġfesses": 1951,
      "ourir": 1952,
      "aujourd": 1953,
      "alent": 1954,
      "outer": 1955,
      "ĠÃ©quipe": 1956,
      "Ġboule": 1957,
      "Ġlongtemps": 1958,
      "Ġsouvenir": 1959,
      "Ġpieds": 1960,
      "Ġmonnaie": 1961,
      "gÃ©": 1962,
      "Ġfut": 1963,
      "Ġgos": 1964,
      "chem": 1965,
      "Ġprof": 1966,
      "ailles": 1967,
      "Ġpartout": 1968,
      "Ġgrosse": 1969,
      "Ġpetits": 1970,
      "Ġblanc": 1971,
      "Ġsavent": 1972,
      "Ġtombe": 1973,
      "Ġtrucs": 1974,
      "ĠÃ©toiles": 1975,
      "homme": 1976,
      "ln": 1977,
      "pire": 1978,
      "Ġis": 1979,
      "Ġpare": 1980,
      "Ġsois": 1981,
      "Ġsoig": 1982,
      "antÃ©": 1983,
      "Ġparfois": 1984,
      "Ġaujourd": 1985,
      "ĠdÃ©g": 1986,
      "agne": 1987,
      "comment": 1988,
      "Ã»te": 1989,
      "Ġmarche": 1990,
      "Ġnuits": 1991,
      "Ġballes": 1992,
      "Ġrouge": 1993,
      "Ġraison": 1994,
      "bla": 1995,
      "oles": 1996,
      "Ġ6": 1997,
      "Ġelles": 1998,
      "ĠdÃ¨s": 1999,
      "Ġdorm": 2000,
      "Ġju": 2001,
      "Ġber": 2002,
      "Ġhigh": 2003,
      "Ġparents": 2004,
      "aines": 2005,
      "parce": 2006,
      "ingue": 2007,
      "Ġdevenir": 2008,
      "Ġtape": 2009,
      "Ġdents": 2010,
      "regarde": 2011,
      "iner": 2012,
      "ales": 2013,
      "Ġcombien": 2014,
      "Ġhab": 2015,
      "autres": 2016,
      "Ġbras": 2017,
      "Ġenfants": 2018,
      "Ġsenti": 2019,
      "juste": 2020,
      "lnay": 2021,
      "ez": 2022,
      "lles": 2023,
      "ute": 2024,
      "Ġpers": 2025,
      "Ġtel": 2026,
      "ett": 2027,
      "Ġsix": 2028,
      "Ġrev": 2029,
      "ables": 2030,
      "Ġob": 2031,
      "Ġgrands": 2032,
      "appel": 2033,
      "ĠfrÃ©rot": 2034,
      "bo": 2035,
      "ceux": 2036,
      "lais": 2037,
      "wesh": 2038,
      "Ġconcer": 2039,
      "Ġbouche": 2040,
      "ull": 2041,
      "Ġmerci": 2042,
      "Ġpremier": 2043,
      "Ġaucun": 2044,
      "ĠvÃ©ritÃ©": 2045,
      "cel": 2046,
      "su": 2047,
      "son": 2048,
      "ttes": 2049,
      "Ġflam": 2050,
      "Ġgent": 2051,
      "Ġgame": 2052,
      "usement": 2053,
      "Ġchem": 2054,
      "Ġparti": 2055,
      "acun": 2056,
      "ĠÃ©tÃ©": 2057,
      "Ġtrav": 2058,
      "Ġnouvelle": 2059,
      "don": 2060,
      "dÃ©s": 2061,
      "fÃ©": 2062,
      "ĠlÃ¨ve": 2063,
      "ĠlumiÃ¨re": 2064,
      "aite": 2065,
      "Ġstre": 2066,
      "Ġtar": 2067,
      "unk": 2068,
      "Ġgang": 2069,
      "deau": 2070,
      "Ġmontre": 2071,
      "ĠjournÃ©e": 2072,
      "Ġdroit": 2073,
      "eil": 2074,
      "mat": 2075,
      "nd": 2076,
      "Ġmc": 2077,
      "ases": 2078,
      "Ġbre": 2079,
      "Ã¨le": 2080,
      "Ġparadis": 2081,
      "ager": 2082,
      "ciel": 2083,
      "ĠbientÃ´t": 2084,
      "bientÃ´t": 2085,
      "pt": 2086,
      "Ġsomme": 2087,
      "reux": 2088,
      "Ġben": 2089,
      "Ġboy": 2090,
      "esti": 2091,
      "Ġnord": 2092,
      "char": 2093,
      "Ġensemble": 2094,
      "ieks": 2095,
      "oli": 2096,
      "Ġbruit": 2097,
      "dou": 2098,
      "Ġsai": 2099,
      "Ġsoi": 2100,
      "Ġtas": 2101,
      "Ã©ro": 2102,
      "Ġfle": 2103,
      "Ġbus": 2104,
      "Ġgam": 2105,
      "Ġtrouve": 2106,
      "utÃ´t": 2107,
      "Ġcop": 2108,
      "Ġfines": 2109,
      "onds": 2110,
      "ĠpiÃ¨": 2111,
      "ormal": 2112,
      "ĠidÃ©es": 2113,
      "lÃ¢": 2114,
      "ry": 2115,
      "ront": 2116,
      "Ġdois": 2117,
      "Ġpur": 2118,
      "Ġmen": 2119,
      "Ġfilles": 2120,
      "Ġvoit": 2121,
      "uss": 2122,
      "ico": 2123,
      "Ġkiff": 2124,
      "Ġriche": 2125,
      "attend": 2126,
      "Ã¯e": 2127,
      "Ġcontr": 2128,
      "ĠtÃ©lÃ©": 2129,
      "bout": 2130,
      "cÃ¨s": 2131,
      "dit": 2132,
      "ga": 2133,
      "mo": 2134,
      "Ġpis": 2135,
      "aimes": 2136,
      "era": 2137,
      "Ã¨tes": 2138,
      "avenir": 2139,
      "Ġdiable": 2140,
      "instant": 2141,
      "Ġheureux": 2142,
      "oof": 2143,
      "Ġbaby": 2144,
      "ba": 2145,
      "lou": 2146,
      "po": 2147,
      "ron": 2148,
      "zz": 2149,
      "Ġbande": 2150,
      "Ã¨rent": 2151,
      "Ġretour": 2152,
      "Ġkil": 2153,
      "Ġfrance": 2154,
      "ĠfumÃ©e": 2155,
      "rÃªve": 2156,
      "mme": 2157,
      "val": 2158,
      "Ġ5": 2159,
      "Ġu": 2160,
      "Ġmas": 2161,
      "Ġsons": 2162,
      "ani": 2163,
      "Ġven": 2164,
      "Ġgrai": 2165,
      "ital": 2166,
      "Ġhonn": 2167,
      "impression": 2168,
      "brou": 2169,
      "cis": 2170,
      "gle": 2171,
      "na": 2172,
      "Ġpil": 2173,
      "ana": 2174,
      "Ġbons": 2175,
      "ĠbÃªte": 2176,
      "Ġag": 2177,
      "Ġtue": 2178,
      "Ã©ter": 2179,
      "essaie": 2180,
      "Ġplay": 2181,
      "Ã©rie": 2182,
      "Ġlove": 2183,
      "Ġfaute": 2184,
      "Ġgla": 2185,
      "Ġdanser": 2186,
      "Ġend": 2187,
      "olo": 2188,
      "Ġbriller": 2189,
      "Ġbarre": 2190,
      "importe": 2191,
      "Ġdouble": 2192,
      "Ġvoulait": 2193,
      "ĠpÃ©ter": 2194,
      "Ġchambre": 2195,
      "Ġcelui": 2196,
      "Ġquartier": 2197,
      "beau": 2198,
      "pa": 2199,
      "Ã¨che": 2200,
      "outine": 2201,
      "Ġmont": 2202,
      "ape": 2203,
      "Ġrapper": 2204,
      "Ġtexte": 2205,
      "Ġprix": 2206,
      "Ġpaname": 2207,
      "Ġgosses": 2208,
      "cul": 2209,
      "gre": 2210,
      "ki": 2211,
      "Ġmaille": 2212,
      "Ġtable": 2213,
      "Ġvenu": 2214,
      "Ġrent": 2215,
      "ience": 2216,
      "imag": 2217,
      "Ġbleu": 2218,
      "Ġlang": 2219,
      "Ġpaye": 2220,
      "Ġtiens": 2221,
      "Ġrare": 2222,
      "iles": 2223,
      "Ġgosse": 2224,
      "Ġchois": 2225,
      "rÃ©e": 2226,
      "uire": 2227,
      "Ġphases": 2228,
      "Ġfumer": 2229,
      "itiÃ©": 2230,
      "jamais": 2231,
      "mar": 2232,
      "tter": 2233,
      "esprit": 2234,
      "Ġfoot": 2235,
      "oite": 2236,
      "chi": 2237,
      "iend": 2238,
      "atte": 2239,
      "verse": 2240,
      "Ġsuff": 2241,
      "Ġsuper": 2242,
      "ĠmÃ©l": 2243,
      "Ġcinq": 2244,
      "bas": 2245,
      "ven": 2246,
      "Ġdestin": 2247,
      "Ġpun": 2248,
      "Ġpeau": 2249,
      "Ġpouv": 2250,
      "ĠsÃ©": 2251,
      "Ġbois": 2252,
      "chez": 2253,
      "ffre": 2254,
      "Ġprin": 2255,
      "Ã¢ce": 2256,
      "Ã®t": 2257,
      "Ġconnu": 2258,
      "Ġbiff": 2259,
      "Ġ10": 2260,
      "Ġattend": 2261,
      "Ġcouplets": 2262,
      "Ġappel": 2263,
      "Ġbails": 2264,
      "cons": 2265,
      "ice": 2266,
      "ly": 2267,
      "sy": 2268,
      "Ġcous": 2269,
      "Ġcelle": 2270,
      "Ġcoin": 2271,
      "Ġfille": 2272,
      "aint": 2273,
      "tiÃ©": 2274,
      "pourtant": 2275,
      "Ġboute": 2276,
      "Ġconnait": 2277,
      "ĠenfoirÃ©": 2278,
      "Ġdernier": 2279,
      "Ġnuages": 2280,
      "Ġaffaires": 2281,
      "fum": 2282,
      "iz": 2283,
      "mot": 2284,
      "rouve": 2285,
      "Ġlour": 2286,
      "Ġpaire": 2287,
      "ises": 2288,
      "Ġfrappe": 2289,
      "ĠgÃ©": 2290,
      "rique": 2291,
      "Ġcoupe": 2292,
      "Ġpetite": 2293,
      "ĠlaissÃ©": 2294,
      "Ġaucune": 2295,
      "Ġfolie": 2296,
      "Ġcity": 2297,
      "grÃ©": 2298,
      "he": 2299,
      "hier": 2300,
      "mal": 2301,
      "passer": 2302,
      "ouh": 2303,
      "ast": 2304,
      "Ġbro": 2305,
      "Ġbad": 2306,
      "Ġress": 2307,
      "Ãªter": 2308,
      "orts": 2309,
      "pars": 2310,
      "Ġkeufs": 2311,
      "Ġalbum": 2312,
      "ombe": 2313,
      "oseille": 2314,
      "Ġamour": 2315,
      "Ġgavas": 2316,
      "feu": 2317,
      "now": 2318,
      "tra": 2319,
      "vo": 2320,
      "erais": 2321,
      "allez": 2322,
      "Ġenne": 2323,
      "parfois": 2324,
      "Ġbouge": 2325,
      "cteur": 2326,
      "Ġmilieu": 2327,
      "cret": 2328,
      "dam": 2329,
      "iques": 2330,
      "Ġmeur": 2331,
      "Ġjam": 2332,
      "Ġfant": 2333,
      "Ġroutine": 2334,
      "Ġnight": 2335,
      "Ġgau": 2336,
      "Ġcompris": 2337,
      "Ã©cole": 2338,
      "ĠmoitiÃ©": 2339,
      "Ġtran": 2340,
      "comm": 2341,
      "tru": 2342,
      "Ġquelque": 2343,
      "Ġhistoire": 2344,
      "ĠlÃ¢che": 2345,
      "Ġpied": 2346,
      "gs": 2347,
      "gie": 2348,
      "pet": 2349,
      "aide": 2350,
      "Ġtours": 2351,
      "ano": 2352,
      "Ġfour": 2353,
      "Ġvendre": 2354,
      "Ġnormal": 2355,
      "rat": 2356,
      "rache": 2357,
      "ĠplutÃ´t": 2358,
      "lim": 2359,
      "Ġwesh": 2360,
      "Ġart": 2361,
      "Ġlife": 2362,
      "Ġtourner": 2363,
      "acks": 2364,
      "compte": 2365,
      "Ġpeines": 2366,
      "Ġsilence": 2367,
      "hy": 2368,
      "ize": 2369,
      "rou": 2370,
      "Ġsaut": 2371,
      "Ġfoi": 2372,
      "Ã¨nes": 2373,
      "Ġchans": 2374,
      "ature": 2375,
      "Ġtristes": 2376,
      "Ġsec": 2377,
      "Ġboulot": 2378,
      "Ġdevient": 2379,
      "blant": 2380,
      "ĠpensÃ©es": 2381,
      "Ġ20": 2382,
      "Ġmeufs": 2383,
      "ĠgoÃ»t": 2384,
      "Ġdessus": 2385,
      "Ġpiges": 2386,
      "orgio": 2387,
      "da": 2388,
      "pri": 2389,
      "Ġpa": 2390,
      "ĠpÃ¢": 2391,
      "Ġpoint": 2392,
      "Ġmille": 2393,
      "Ġsombre": 2394,
      "Ġfen": 2395,
      "Ġband": 2396,
      "Ġbelles": 2397,
      "ĠrÃ¨": 2398,
      "itent": 2399,
      "Ġenv": 2400,
      "Ġmax": 2401,
      "Ã©tr": 2402,
      "otte": 2403,
      "ĠrÃ©f": 2404,
      "Ġcru": 2405,
      "Ġpleine": 2406,
      "Ġblanche": 2407,
      "Ġchamp": 2408,
      "Ġcouplet": 2409,
      "Ġpareil": 2410,
      "cab": 2411,
      "dy": 2412,
      "ek": 2413,
      "hÃ´": 2414,
      "sant": 2415,
      "utes": 2416,
      "Ġailleurs": 2417,
      "Ġpois": 2418,
      "Ġfus": 2419,
      "Ġvin": 2420,
      "Ġvue": 2421,
      "Ġvingt": 2422,
      "ettre": 2423,
      "Ġnot": 2424,
      "aurai": 2425,
      "osma": 2426,
      "Ġref": 2427,
      "avoue": 2428,
      "Ġof": 2429,
      "Ġstress": 2430,
      "Ġquitter": 2431,
      "Ġsouvenirs": 2432,
      "tin": 2433,
      "Ġ9": 2434,
      "Ġly": 2435,
      "Ġpom": 2436,
      "Ġmourir": 2437,
      "Ġtend": 2438,
      "Ġveste": 2439,
      "Ġbang": 2440,
      "Ġretr": 2441,
      "Ġcheck": 2442,
      "Ġrappeur": 2443,
      "ĠprÃ©sent": 2444,
      "Ġpoches": 2445,
      "Ġrempl": 2446,
      "Ġtime": 2447,
      "Ġpromesses": 2448,
      "Ġmoment": 2449,
      "ĠbÃ©bÃ©": 2450,
      "bres": 2451,
      "Ġanc": 2452,
      "Ġbats": 2453,
      "ition": 2454,
      "Ġdesc": 2455,
      "Ġchau": 2456,
      "Ġhor": 2457,
      "ates": 2458,
      "ĠprÃ©c": 2459,
      "assent": 2460,
      "Ġtech": 2461,
      "Ã´mes": 2462,
      "Ġdist": 2463,
      "Ġgrosses": 2464,
      "Ġgrandes": 2465,
      "Ġlike": 2466,
      "oyer": 2467,
      "Ġvoulu": 2468,
      "pliff": 2469,
      "Ġpropre": 2470,
      "Ġpromis": 2471,
      "Ġpays": 2472,
      "Ġchanter": 2473,
      "20": 2474,
      "but": 2475,
      "cti": 2476,
      "ivers": 2477,
      "yo": 2478,
      "Ġdom": 2479,
      "Ġdoit": 2480,
      "oubli": 2481,
      "quille": 2482,
      "Ġfat": 2483,
      "Ġboss": 2484,
      "ĠgÃ©n": 2485,
      "ousse": 2486,
      "ots": 2487,
      "Ġore": 2488,
      "ident": 2489,
      "Ġfinal": 2490,
      "Ġze": 2491,
      "dieu": 2492,
      "Ġcache": 2493,
      "frain": 2494,
      "conte": 2495,
      "Ġfutur": 2496,
      "cla": 2497,
      "casse": 2498,
      "Ġ-": 2499,
      "Ġpop": 2500,
      "Ġcle": 2501,
      "oupe": 2502,
      "ĠsantÃ©": 2503,
      "Ġtit": 2504,
      "Ġtise": 2505,
      "Ġya": 2506,
      "Ġproches": 2507,
      "stÃ¨me": 2508,
      "Ġcerveau": 2509,
      "ĠnÃ©gro": 2510,
      "iÃ¨res": 2511,
      "mÃ©s": 2512,
      "oke": 2513,
      "ya": 2514,
      "Ġlun": 2515,
      "Ġsqu": 2516,
      "ert": 2517,
      "Ġfallait": 2518,
      "arri": 2519,
      "Ġvaut": 2520,
      "raconte": 2521,
      "Ġtrom": 2522,
      "ĠgrÃ¢ce": 2523,
      "Ġdemand": 2524,
      "Ġferme": 2525,
      "Ġcrack": 2526,
      "Ġcert": 2527,
      "Ġsemblant": 2528,
      "port": 2529,
      "pose": 2530,
      "Ġligne": 2531,
      "Ġpoi": 2532,
      "Ġsam": 2533,
      "Ġtieks": 2534,
      "isent": 2535,
      "Ġrendre": 2536,
      "Ġhier": 2537,
      "igo": 2538,
      "paris": 2539,
      "Ġpartie": 2540,
      "ombres": 2541,
      "Ġforme": 2542,
      "gueu": 2543,
      "oudre": 2544,
      "Ġblack": 2545,
      "heureusement": 2546,
      "ĠfranÃ§": 2547,
      "Ġstreet": 2548,
      "cas": 2549,
      "ev": 2550,
      "ĠpÃ¨te": 2551,
      "Ġcaisse": 2552,
      "ĠmÃ¨res": 2553,
      "Ġste": 2554,
      "Ġtor": 2555,
      "ĠfaÃ§on": 2556,
      "Ġbous": 2557,
      "Ġbri": 2558,
      "ester": 2559,
      "ith": 2560,
      "itÃ©s": 2561,
      "ala": 2562,
      "Ġcomprendre": 2563,
      "check": 2564,
      "Ġgrande": 2565,
      "ĠÃ©crit": 2566,
      "annÃ©e": 2567,
      "Ġrempli": 2568,
      "Ġsmoke": 2569,
      "ĠarrÃªte": 2570,
      "die": 2571,
      "gh": 2572,
      "nouve": 2573,
      "pou": 2574,
      "ruc": 2575,
      "ye": 2576,
      "Ġ&": 2577,
      "Ġant": 2578,
      "Ġdie": 2579,
      "Ġmou": 2580,
      "iser": 2581,
      "Ġvan": 2582,
      "eus": 2583,
      "euse": 2584,
      "ind": 2585,
      "inue": 2586,
      "Ġcho": 2587,
      "ath": 2588,
      "Ġouver": 2589,
      "iroir": 2590,
      "Ã¢ne": 2591,
      "Ġthunes": 2592,
      "Ġriches": 2593,
      "Ġappris": 2594,
      "ĠprÃ©fÃ¨re": 2595,
      "Ġlongue": 2596,
      "force": 2597,
      "grand": 2598,
      "herbe": 2599,
      "bois": 2600,
      "cur": 2601,
      "Ġcos": 2602,
      "Ġsw": 2603,
      "quette": 2604,
      "arche": 2605,
      "Ġbic": 2606,
      "Ġnoire": 2607,
      "Ġchi": 2608,
      "antes": 2609,
      "parler": 2610,
      "tÃ©ri": 2611,
      "Ġzin": 2612,
      "ĠplaÃ®t": 2613,
      "Ġvraie": 2614,
      "ĠÃ©cout": 2615,
      "Ġcoll": 2616,
      "Ġsauver": 2617,
      "Ġchemin": 2618,
      "Ġpouvoir": 2619,
      "bab": 2620,
      "cap": 2621,
      "sence": 2622,
      "reu": 2623,
      "Ġach": 2624,
      "Ġdedans": 2625,
      "Ã¨de": 2626,
      "roche": 2627,
      "Ġhors": 2628,
      "Ġmama": 2629,
      "ffer": 2630,
      "Ġtravers": 2631,
      "Ġclair": 2632,
      "cule": 2633,
      "Ġcauchem": 2634,
      "Ġtox": 2635,
      "demande": 2636,
      "ĠtrouvÃ©": 2637,
      "Ġdormir": 2638,
      "ĠfenÃªtre": 2639,
      "bah": 2640,
      "loin": 2641,
      "Ġerre": 2642,
      "esqui": 2643,
      "ĠdonnÃ©": 2644,
      "Ġpue": 2645,
      "Ġpoin": 2646,
      "Ġspe": 2647,
      "Ġsorte": 2648,
      "Ġspliff": 2649,
      "quit": 2650,
      "Ġbac": 2651,
      "Ġboire": 2652,
      "Ġroi": 2653,
      "Ġgre": 2654,
      "Ġhy": 2655,
      "atch": 2656,
      "Ġdure": 2657,
      "Ġsurtout": 2658,
      "avait": 2659,
      "lip": 2660,
      "Ġconse": 2661,
      "Ġclassi": 2662,
      "vient": 2663,
      "Ġcach": 2664,
      "Ġflics": 2665,
      "Ã©vite": 2666,
      "Ġquestions": 2667,
      "jeune": 2668,
      "ĠsoirÃ©e": 2669,
      "Ġgauche": 2670,
      "ige": 2671,
      "jj": 2672,
      "lis": 2673,
      "my": 2674,
      "yth": 2675,
      "Ġdoute": 2676,
      "Ġcav": 2677,
      "Ġmur": 2678,
      "Ġfaudrait": 2679,
      "estyle": 2680,
      "enti": 2681,
      "teau": 2682,
      "Ġrage": 2683,
      "cha": 2684,
      "ami": 2685,
      "irÃ©": 2686,
      "ices": 2687,
      "Ġtouche": 2688,
      "merci": 2689,
      "Ġserait": 2690,
      "Ġpossible": 2691,
      "ferme": 2692,
      "Ġvoler": 2693,
      "Ġjeunesse": 2694,
      "ĠdÃ©mons": 2695,
      "ĠrÃ©veille": 2696,
      "affe": 2697,
      "baise": 2698,
      "ky": 2699,
      "roit": 2700,
      "ster": 2701,
      "teur": 2702,
      "ules": 2703,
      "Ġdor": 2704,
      "ences": 2705,
      "Ġsel": 2706,
      "Ġsoin": 2707,
      "Ġfasse": 2708,
      "Ġrob": 2709,
      "Ġchien": 2710,
      "Ġha": 2711,
      "ations": 2712,
      "ĠdÃ©l": 2713,
      "Ġfaites": 2714,
      "onnent": 2715,
      "Ġcouleur": 2716,
      "Ġwoof": 2717,
      "Ġchev": 2718,
      "Ġpenser": 2719,
      "hiver": 2720,
      "ĠgalÃ¨res": 2721,
      "ĠdiffÃ©r": 2722,
      "prÃ©cie": 2723,
      "Ġpunch": 2724,
      "pare": 2725,
      "poto": 2726,
      "Ġdalle": 2727,
      "Ã©te": 2728,
      "eries": 2729,
      "Ġfonce": 2730,
      "Ġbosse": 2731,
      "Ġdead": 2732,
      "auc": 2733,
      "aura": 2734,
      "aler": 2735,
      "Ġsig": 2736,
      "emande": 2737,
      "Ġop": 2738,
      "Ġpren": 2739,
      "Ġnez": 2740,
      "Ġpeuvent": 2741,
      "ĠrÃ©alitÃ©": 2742,
      "Ġmira": 2743,
      "ĠÃ©crire": 2744,
      "Ġsert": 2745,
      "ĠramÃ¨ne": 2746,
      "endez": 2747,
      "Ġaura": 2748,
      "fie": 2749,
      "jass": 2750,
      "men": 2751,
      "mmes": 2752,
      "peu": 2753,
      "Ġcass": 2754,
      "Ġcasser": 2755,
      "quet": 2756,
      "Ġten": 2757,
      "Ġtosma": 2758,
      "Ġja": 2759,
      "Ġjet": 2760,
      "Ġjal": 2761,
      "Ġbul": 2762,
      "Ġdebout": 2763,
      "omn": 2764,
      "intes": 2765,
      "Ġchacun": 2766,
      "Ġplume": 2767,
      "Ġmoney": 2768,
      "Ġproch": 2769,
      "Ġbran": 2770,
      "Ġclasse": 2771,
      "illent": 2772,
      "Ġvoulais": 2773,
      "Ġsoeur": 2774,
      "Ġtient": 2775,
      "ĠpremiÃ¨re": 2776,
      "Ġsport": 2777,
      "Ġoublier": 2778,
      "lÃ¢che": 2779,
      "histoi": 2780,
      "net": 2781,
      "porte": 2782,
      "rant": 2783,
      "ĠlÃ¨": 2784,
      "Ġtess": 2785,
      "ĠtÃ´t": 2786,
      "isÃ©": 2787,
      "Ġpassent": 2788,
      "inv": 2789,
      "chaÃ®": 2790,
      "ossible": 2791,
      "ĠdÃ©li": 2792,
      "Ġcoeurs": 2793,
      "Ġinv": 2794,
      "Ã§u": 2795,
      "Ġmorts": 2796,
      "Ġseulement": 2797,
      "ĠdÃ©but": 2798,
      "ramÃ¨ne": 2799,
      "Ġregrets": 2800,
      "Ġsinon": 2801,
      "Ġprojets": 2802,
      "Ġbouteille": 2803,
      "Ġoreilles": 2804,
      "gment": 2805,
      "iv": 2806,
      "voi": 2807,
      "Ġel": 2808,
      "Ġdoutes": 2809,
      "Ġlet": 2810,
      "Ġpose": 2811,
      "Ã©lÃ©": 2812,
      "rement": 2813,
      "Ġbit": 2814,
      "Ġbite": 2815,
      "alla": 2816,
      "Ġplante": 2817,
      "abord": 2818,
      "ĠÃ©ch": 2819,
      "lÃ©ch": 2820,
      "Ġmarre": 2821,
      "exc": 2822,
      "expli": 2823,
      "arrÃªter": 2824,
      "Ġvision": 2825,
      "Ġattendant": 2826,
      "Ġstud": 2827,
      "Ġmagie": 2828,
      "Ġclope": 2829,
      "ĠhonnÃªte": 2830,
      "Ġclean": 2831,
      "eille": 2832,
      "rom": 2833,
      "Ġtw": 2834,
      "ĠaÃ¯e": 2835,
      "ention": 2836,
      "Ġcombat": 2837,
      "Ġchiff": 2838,
      "rime": 2839,
      "Ġreb": 2840,
      "sident": 2841,
      "Ġnew": 2842,
      "Ã¢ge": 2843,
      "Ġbrille": 2844,
      "idÃ©": 2845,
      "vide": 2846,
      "itesse": 2847,
      "Ġmode": 2848,
      "Ġdaron": 2849,
      "Ġmicro": 2850,
      "croy": 2851,
      "Ġbizarre": 2852,
      "pensais": 2853,
      "Ġsommeil": 2854,
      "ction": 2855,
      "ec": 2856,
      "faÃ§on": 2857,
      "hor": 2858,
      "mh": 2859,
      "pap": 2860,
      "prem": 2861,
      "zer": 2862,
      "Ġout": 2863,
      "airo": 2864,
      "Ġcad": 2865,
      "Ġbonnes": 2866,
      "ration": 2867,
      "Ġhall": 2868,
      "Ġhip": 2869,
      "Ġautour": 2870,
      "Ġog": 2871,
      "Ġinter": 2872,
      "instru": 2873,
      "Ã§ons": 2874,
      "Ġcadeau": 2875,
      "Ġcompter": 2876,
      "Ġchercher": 2877,
      "Ġtomber": 2878,
      "accord": 2879,
      "crache": 2880,
      "Ġhola": 2881,
      "ĠbÃ¢t": 2882,
      "Ġgagner": 2883,
      "eilleur": 2884,
      "frÃ©": 2885,
      "tom": 2886,
      "vise": 2887,
      "Ġmod": 2888,
      "Ġmiroir": 2889,
      "Ġtort": 2890,
      "isme": 2891,
      "Ġnah": 2892,
      "Ġgri": 2893,
      "aulnay": 2894,
      "Ãªche": 2895,
      "Ġchap": 2896,
      "ĠmaÃ®": 2897,
      "Ġyes": 2898,
      "sions": 2899,
      "raient": 2900,
      "Ġconnard": 2901,
      "ights": 2902,
      "Ġpolice": 2903,
      "Ġdojo": 2904,
      "Ġimm": 2905,
      "Ġbanque": 2906,
      "Ġpayer": 2907,
      "Ġcrew": 2908,
      "Ġportes": 2909,
      "Ġtype": 2910,
      "gles": 2911,
      "hop": 2912,
      "mÃ¨re": 2913,
      "nu": 2914,
      "ty": 2915,
      "Ġsui": 2916,
      "Ġtro": 2917,
      "Ġvag": 2918,
      "ĠbÃ©d": 2919,
      "Ġnul": 2920,
      "Ġget": 2921,
      "Ġgot": 2922,
      "aus": 2923,
      "Ġmach": 2924,
      "rier": 2925,
      "Ġret": 2926,
      "ĠÃ©le": 2927,
      "ayer": 2928,
      "ĠrÃ©el": 2929,
      "Ġira": 2930,
      "Ġenfant": 2931,
      "Ġcourt": 2932,
      "ĠcaptÃ©": 2933,
      "Ġacc": 2934,
      "Ġsolo": 2935,
      "ĠsystÃ¨me": 2936,
      "Ġsemaine": 2937,
      "Ġpresque": 2938,
      "rÃ©ponds": 2939,
      "beaucoup": 2940,
      "bler": 2941,
      "cÃ´": 2942,
      "sage": 2943,
      "Ġdors": 2944,
      "Ġpont": 2945,
      "Ġmig": 2946,
      "Ġmanger": 2947,
      "Ġtah": 2948,
      "Ã©quipe": 2949,
      "Ġrig": 2950,
      "Ġrond": 2951,
      "Ġrues": 2952,
      "Ġnav": 2953,
      "onter": 2954,
      "Ġtrait": 2955,
      "Ġpleure": 2956,
      "ĠmÃ©d": 2957,
      "Ġquelqu": 2958,
      "ĠposÃ©": 2959,
      "achÃ¨te": 2960,
      "ĠdÃ©tr": 2961,
      "Ġbillet": 2962,
      "Ġcrier": 2963,
      "Ġtirer": 2964,
      "Ġreufs": 2965,
      "can": 2966,
      "col": 2967,
      "ote": 2968,
      "uh": 2969,
      "Ġlights": 2970,
      "Ġpleur": 2971,
      "ĠcassÃ©": 2972,
      "Ġsommes": 2973,
      "Ġtab": 2974,
      "Ġback": 2975,
      "oires": 2976,
      "Ġru": 2977,
      "ĠgÃ¢": 2978,
      "Ġgare": 2979,
      "uise": 2980,
      "Ġchiens": 2981,
      "Ġtuer": 2982,
      "Ã´me": 2983,
      "Ġind": 2984,
      "idÃ©e": 2985,
      "Ġcroit": 2986,
      "ĠÃªtes": 2987,
      "vivre": 2988,
      "ĠmÃ©lo": 2989,
      "Ġphras": 2990,
      "Ġquitte": 2991,
      "Ġgeorgio": 2992,
      "cour": 2993,
      "oeil": 2994,
      "to": 2995,
      "Ġpain": 2996,
      "Ġmange": 2997,
      "Ġsap": 2998,
      "Ġfa": 2999,
      "Ġfric": 3000,
      "ark": 3001,
      "Ġvac": 3002,
      "Ġnature": 3003,
      "ino": 3004,
      "orge": 3005,
      "Ġhi": 3006,
      "Ġhom": 3007,
      "oler": 3008,
      "Ġtrous": 3009,
      "pren": 3010,
      "igue": 3011,
      "Ġfrais": 3012,
      "comprends": 3013,
      "Ġtoit": 3014,
      "Ġsame": 3015,
      "sert": 3016,
      "toire": 3017,
      "Ġnike": 3018,
      "Ġpleurer": 3019,
      "Ġsalle": 3020,
      "Ġflash": 3021,
      "Ġvert": 3022,
      "Ġsoucis": 3023,
      "envers": 3024,
      "Ġemp": 3025,
      "ĠplanÃ¨te": 3026,
      "Ġentendre": 3027,
      "Ġmoments": 3028,
      "ĠbrÃ»le": 3029,
      "Ġgraille": 3030,
      "commence": 3031,
      "dess": 3032,
      "font": 3033,
      "fils": 3034,
      "geu": 3035,
      "gal": 3036,
      "ieux": 3037,
      "nir": 3038,
      "pers": 3039,
      "uie": 3040,
      "Ġanges": 3041,
      "ĠlÃ©": 3042,
      "Ġjack": 3043,
      "Ġbav": 3044,
      "Ġali": 3045,
      "ush": 3046,
      "old": 3047,
      "assure": 3048,
      "Ġknow": 3049,
      "Ġteam": 3050,
      "Ġtaf": 3051,
      "ĠÃ©lÃ©": 3052,
      "combien": 3053,
      "Ġmalade": 3054,
      "Ġmif": 3055,
      "Ġthat": 3056,
      "Ġzone": 3057,
      "Ġplat": 3058,
      "Ġdevenu": 3059,
      "Ġappar": 3060,
      "Ġsorti": 3061,
      "envie": 3062,
      "Ġpauvre": 3063,
      "Ġmeilleurs": 3064,
      "Ġdonut": 3065,
      "Ġherbes": 3066,
      "Ġconcert": 3067,
      "dÃ©solÃ©": 3068,
      "Ġtranquille": 3069,
      "bonne": 3070,
      "hit": 3071,
      "hein": 3072,
      "rie": 3073,
      "range": 3074,
      "Ġus": 3075,
      "Ġpier": 3076,
      "Ġcents": 3077,
      "Ġseum": 3078,
      "Ã©li": 3079,
      "Ġvilla": 3080,
      "Ġviennent": 3081,
      "Ġner": 3082,
      "Ġgif": 3083,
      "ĠchÃ¨": 3084,
      "Ġpourrait": 3085,
      "Ġplans": 3086,
      "rip": 3087,
      "siÃ¨re": 3088,
      "Ġcouche": 3089,
      "ĠÃ©n": 3090,
      "Ã¢me": 3091,
      "ĠrÃ©vol": 3092,
      "ĠrÃ©uss": 3093,
      "errer": 3094,
      "Ġsty": 3095,
      "serve": 3096,
      "Ġrappel": 3097,
      "Ġvisages": 3098,
      "Ġsauf": 3099,
      "ĠfumÃ©": 3100,
      "Ġminutes": 3101,
      "ĠÃ©poque": 3102,
      "Ġaurait": 3103,
      "Ġquestion": 3104,
      "Ġgentil": 3105,
      "imagine": 3106,
      "ax": 3107,
      "faudrait": 3108,
      "pir": 3109,
      "Ġoi": 3110,
      "Ġos": 3111,
      "Ġlu": 3112,
      "Ġmoy": 3113,
      "quettes": 3114,
      "Ġfile": 3115,
      "illi": 3116,
      "Ġnet": 3117,
      "Ġnig": 3118,
      "inter": 3119,
      "ceau": 3120,
      "lat": 3121,
      "ĠchaÃ®": 3122,
      "Ġmonte": 3123,
      "Ġmonter": 3124,
      "olie": 3125,
      "Ã©cu": 3126,
      "Ġkick": 3127,
      "ado": 3128,
      "Ġavancer": 3129,
      "ailler": 3130,
      "Ġbarres": 3131,
      "Ġcame": 3132,
      "Ġphoto": 3133,
      "Ġblan": 3134,
      "cerveau": 3135,
      "phone": 3136,
      "Ġsauce": 3137,
      "000": 3138,
      "ĠproblÃ¨me": 3139,
      "Ġlourd": 3140,
      "big": 3141,
      "honn": 3142,
      "rr": 3143,
      "ĠpÃ©": 3144,
      "Ġcy": 3145,
      "Ġcuis": 3146,
      "Ġmienne": 3147,
      "Ġtaille": 3148,
      "Ġtrem": 3149,
      "ara": 3150,
      "unt": 3151,
      "Ġlac": 3152,
      "Ġrire": 3153,
      "Ġrhum": 3154,
      "Ġgaz": 3155,
      "aute": 3156,
      "Ġhmm": 3157,
      "Ġplais": 3158,
      "rice": 3159,
      "Ġrecherche": 3160,
      "otos": 3161,
      "onnel": 3162,
      "umer": 3163,
      "Ġavance": 3164,
      "ĠcarrÃ©": 3165,
      "ĠrÃªvÃ©": 3166,
      "ĠprÃ©sident": 3167,
      "Ġik": 3168,
      "Ġcompli": 3169,
      "Ġmiss": 3170,
      "Ġcourir": 3171,
      "Ġnouvelles": 3172,
      "Ġfeuilles": 3173,
      "Ġmauvaise": 3174,
      "Ġappelle": 3175,
      "Ġreuf": 3176,
      "Ġfuir": 3177,
      "Ġlangue": 3178,
      "Ġspeed": 3179,
      "histoire": 3180,
      "jet": 3181,
      "mage": 3182,
      "voit": 3183,
      "wow": 3184,
      "Ġir": 3185,
      "Ġpsy": 3186,
      "Ġcend": 3187,
      "Ġcig": 3188,
      "Ġmaud": 3189,
      "Ġtent": 3190,
      "Ã©ner": 3191,
      "Ġvitesse": 3192,
      "Ġrav": 3193,
      "Ã¨se": 3194,
      "Ġhas": 3195,
      "ĠparaÃ®t": 3196,
      "Ġsir": 3197,
      "Ġoc": 3198,
      "Ġvides": 3199,
      "Ġneige": 3200,
      "Ġconf": 3201,
      "irer": 3202,
      "Ġpartis": 3203,
      "ĠconnaÃ®tre": 3204,
      "Ġflingue": 3205,
      "Ġbeaux": 3206,
      "enfant": 3207,
      "Ġrespe": 3208,
      "Ġnoirs": 3209,
      "Ġdroite": 3210,
      "Ġraisons": 3211,
      "Ġfaim": 3212,
      "ĠsuccÃ¨s": 3213,
      "place": 3214,
      "raÃ®ne": 3215,
      "Ġveille": 3216,
      "petit": 3217,
      "bus": 3218,
      "face": 3219,
      "toute": 3220,
      "Ġange": 3221,
      "Ġdam": 3222,
      "onge": 3223,
      "Ġtac": 3224,
      "Ġfonc": 3225,
      "oient": 3226,
      "Ġra": 3227,
      "chante": 3228,
      "auras": 3229,
      "Ġhard": 3230,
      "emmerde": 3231,
      "Ġrep": 3232,
      "rÃ©ve": 3233,
      "oins": 3234,
      "Ġteh": 3235,
      "uxelles": 3236,
      "Ġdispar": 3237,
      "ader": 3238,
      "Ã»t": 3239,
      "Ġaimer": 3240,
      "ĠdeuxiÃ¨me": 3241,
      "blent": 3242,
      "Ġlivre": 3243,
      "Ġdirect": 3244,
      "Ġdemi": 3245,
      "ĠprÃ©fÃ©": 3246,
      "Ġfeuille": 3247,
      "ĠsÃ»rement": 3248,
      "Ġproduit": 3249,
      "fini": 3250,
      "Ġvoyage": 3251,
      "Ġquartiers": 3252,
      "ĠpiÃ¨ce": 3253,
      "baby": 3254,
      "allah": 3255,
      "premier": 3256,
      "bit": 3257,
      "ep": 3258,
      "ible": 3259,
      "line": 3260,
      "ĠpÃ©ri": 3261,
      "Ġmens": 3262,
      "ĠmÃ©r": 3263,
      "Ġsn": 3264,
      "Ġsombres": 3265,
      "ĠfraÃ®": 3266,
      "Ġbol": 3267,
      "Ġpassion": 3268,
      "rape": 3269,
      "Ġchang": 3270,
      "Ġchante": 3271,
      "Ġmad": 3272,
      "Ġdiv": 3273,
      "Ġavenir": 3274,
      "Ġarmes": 3275,
      "Ġcris": 3276,
      "Ġmari": 3277,
      "Ġpotos": 3278,
      "Ġgrammes": 3279,
      "Ġfly": 3280,
      "Ġesprit": 3281,
      "prÃ©sent": 3282,
      "Ã©loig": 3283,
      "Ġmillion": 3284,
      "ĠboÃ®": 3285,
      "ĠbÃ¢tard": 3286,
      "Ġflex": 3287,
      "limsa": 3288,
      "Ġtristesse": 3289,
      "cine": 3290,
      "fre": 3291,
      "flow": 3292,
      "hmm": 3293,
      "ja": 3294,
      "mÃ¨ne": 3295,
      "plo": 3296,
      "sus": 3297,
      "Ġespoir": 3298,
      "aies": 3299,
      "Ġcet": 3300,
      "enc": 3301,
      "Ġmit": 3302,
      "Ġsom": 3303,
      "Ġsab": 3304,
      "quÃ©s": 3305,
      "quatre": 3306,
      "Ġquelle": 3307,
      "lever": 3308,
      "Ġvaisse": 3309,
      "chement": 3310,
      "album": 3311,
      "uses": 3312,
      "Ãªts": 3313,
      "rage": 3314,
      "Ġparl": 3315,
      "Ġparfait": 3316,
      "apprÃ©cie": 3317,
      "Ã©ton": 3318,
      "Ġoublie": 3319,
      "emand": 3320,
      "Ã©crire": 3321,
      "Ã©cial": 3322,
      "tile": 3323,
      "ĠrÃ©g": 3324,
      "Ġcrise": 3325,
      "ĠcrÃ¢ne": 3326,
      "ĠÃ©tu": 3327,
      "Ġmarcher": 3328,
      "Ġami": 3329,
      "alement": 3330,
      "ifique": 3331,
      "ĠfermÃ©s": 3332,
      "Ġcontent": 3333,
      "Ġtombent": 3334,
      "Ġressem": 3335,
      "Ġpolo": 3336,
      "Ġmagn": 3337,
      "Ġcroy": 3338,
      "ĠbourrÃ©": 3339,
      "Ġarriver": 3340,
      "ĠfranÃ§ais": 3341,
      "Ġerreurs": 3342,
      "blo": 3343,
      "besoin": 3344,
      "ime": 3345,
      "ive": 3346,
      "vÃ©s": 3347,
      "ys": 3348,
      "Ġang": 3349,
      "esse": 3350,
      "Ġloc": 3351,
      "Ġput": 3352,
      "Ġpreu": 3353,
      "Ġtch": 3354,
      "Ġvenir": 3355,
      "Ġbanc": 3356,
      "Ġrose": 3357,
      "Ġresp": 3358,
      "Ġneuf": 3359,
      "Ġgue": 3360,
      "Ġplomb": 3361,
      "appar": 3362,
      "lide": 3363,
      "agent": 3364,
      "Ġfrang": 3365,
      "Ġwow": 3366,
      "Ġinst": 3367,
      "Ġstar": 3368,
      "perdu": 3369,
      "icile": 3370,
      "espace": 3371,
      "Ġsalaire": 3372,
      "Ġbask": 3373,
      "ĠmÃ©rite": 3374,
      "cert": 3375,
      "Ġpensent": 3376,
      "Ġtombes": 3377,
      "ĠentiÃ¨re": 3378,
      "Ġsoeurs": 3379,
      "tourne": 3380,
      "ĠdÃ©solÃ©": 3381,
      "ĠlÃ¢cher": 3382,
      "Ġraconte": 3383,
      "ĠvoilÃł": 3384,
      "quelques": 3385,
      "maman": 3386,
      "Ġsentiments": 3387,
      "Ġglace": 3388,
      "Ġsuffit": 3389,
      "fle": 3390,
      "har": 3391,
      "joute": 3392,
      "jack": 3393,
      "off": 3394,
      "sal": 3395,
      "seul": 3396,
      "zi": 3397,
      "Ġord": 3398,
      "ouff": 3399,
      "Ġmu": 3400,
      "Ġmol": 3401,
      "Ġsaint": 3402,
      "Ġtal": 3403,
      "lek": 3404,
      "arrache": 3405,
      "ourne": 3406,
      "alph": 3407,
      "Ġhit": 3408,
      "ateur": 3409,
      "amb": 3410,
      "amitiÃ©": 3411,
      "Ã©coutes": 3412,
      "ĠdÃ©part": 3413,
      "Ġtaffe": 3414,
      "Ã¨ses": 3415,
      "essence": 3416,
      "ĠÃ©l": 3417,
      "ĠÃ©mot": 3418,
      "ĠconnaÃ®t": 3419,
      "odeur": 3420,
      "Ġsortent": 3421,
      "Ġrouler": 3422,
      "Ġfoutu": 3423,
      "Ġembr": 3424,
      "Ġplane": 3425,
      "Ġconnaissent": 3426,
      "Ġblagues": 3427,
      "ĠannÃ©e": 3428,
      "Ġsym": 3429,
      "endemain": 3430,
      "Ġmillions": 3431,
      "ĠpoussiÃ¨re": 3432,
      "ĠgalÃ¨re": 3433,
      "Ġtypes": 3434,
      "Ġviolence": 3435,
      "Ġennemis": 3436,
      "Ġsauter": 3437,
      "Ġjaloux": 3438,
      "--": 3439,
      "celle": 3440,
      "fil": 3441,
      "nant": 3442,
      "sin": 3443,
      "sance": 3444,
      "tar": 3445,
      "way": 3446,
      "Ġcu": 3447,
      "Ġconne": 3448,
      "Ġcentre": 3449,
      "ĠmÃ¨ne": 3450,
      "quar": 3451,
      "Ġfoule": 3452,
      "Ġfleurs": 3453,
      "estes": 3454,
      "entend": 3455,
      "Ġras": 3456,
      "Ġrom": 3457,
      "Ġrad": 3458,
      "Ġrendez": 3459,
      "Ġunique": 3460,
      "Ġgun": 3461,
      "ĠgÃ¨re": 3462,
      "itique": 3463,
      "demain": 3464,
      "Ġhonte": 3465,
      "Ġpars": 3466,
      "appe": 3467,
      "Ġaulnay": 3468,
      "Ġsurv": 3469,
      "Ġouf": 3470,
      "abil": 3471,
      "Ġoff": 3472,
      "jean": 3473,
      "Ġki": 3474,
      "Ġkho": 3475,
      "Ġfront": 3476,
      "aill": 3477,
      "ĠmalgrÃ©": 3478,
      "Ġmix": 3479,
      "Ġcarte": 3480,
      "Ġplafond": 3481,
      "Ġconneries": 3482,
      "Ġniveau": 3483,
      "Ġshow": 3484,
      "Ġfera": 3485,
      "Ġdouze": 3486,
      "Ġcrache": 3487,
      "Ġsouh": 3488,
      "Ġvisage": 3489,
      "onez": 3490,
      "Ġsoirs": 3491,
      "Ġrouges": 3492,
      "Ġsentir": 3493,
      "Ã©rique": 3494,
      "Ġbeat": 3495,
      "ĠdÃ©pression": 3496,
      "ĠidÃ©e": 3497,
      "gratte": 3498,
      "Ġclique": 3499,
      "ĠfrÃ©ro": 3500,
      "forme": 3501,
      "Ġfaibles": 3502,
      "continue": 3503,
      "ĠratÃ©": 3504,
      "Ġviolent": 3505,
      "cinq": 3506,
      "Ġprojet": 3507,
      "laisser": 3508,
      "Ġflammes": 3509,
      "Ġgamin": 3510,
      "deur": 3511,
      "dÃ¨s": 3512,
      "nou": 3513,
      "neuf": 3514,
      "ope": 3515,
      "Ġain": 3516,
      "Ġdose": 3517,
      "Ġcat": 3518,
      "ones": 3519,
      "Ġsor": 3520,
      "Ġfan": 3521,
      "Ġventre": 3522,
      "ĠvÃ©cu": 3523,
      "Ġbob": 3524,
      "enterre": 3525,
      "telle": 3526,
      "mec": 3527,
      "iness": 3528,
      "Ã¨tre": 3529,
      "vez": 3530,
      "seau": 3531,
      "Ġparcours": 3532,
      "ost": 3533,
      "Ġrela": 3534,
      "aces": 3535,
      "Ġvif": 3536,
      "ĠvidÃ©": 3537,
      "prise": 3538,
      "lier": 3539,
      "Ġcoule": 3540,
      "Ġtoucher": 3541,
      "Ġprot": 3542,
      "oph": 3543,
      "toutes": 3544,
      "Ġgratte": 3545,
      "Ġexpl": 3546,
      "Ġmission": 3547,
      "Ġpenses": 3548,
      "Ġconsc": 3549,
      "Ġsky": 3550,
      "Ġsoci": 3551,
      "contre": 3552,
      "Ġplug": 3553,
      "Ġplupart": 3554,
      "Ġweek": 3555,
      "Ġimporte": 3556,
      "Ġdoigt": 3557,
      "Ġvotre": 3558,
      "Ġfilms": 3559,
      "Ġvoudrait": 3560,
      "Ġrock": 3561,
      "Ġgarder": 3562,
      "Ġchansons": 3563,
      "intessence": 3564,
      "ĠlÃ¨vres": 3565,
      "by": 3566,
      "fier": 3567,
      "ji": 3568,
      "Ġessaye": 3569,
      "Ġpage": 3570,
      "ouer": 3571,
      "anque": 3572,
      "Ġjac": 3573,
      "Ġbomb": 3574,
      "ili": 3575,
      "Ġnar": 3576,
      "indre": 3577,
      "Ġgh": 3578,
      "Ġcomprends": 3579,
      "Ġenvi": 3580,
      "Ġchances": 3581,
      "Ġpourra": 3582,
      "Ã©tro": 3583,
      "embr": 3584,
      "abri": 3585,
      "Ġvice": 3586,
      "Ġvivant": 3587,
      "aga": 3588,
      "Ġkar": 3589,
      "Ġrapide": 3590,
      "Ġwacks": 3591,
      "Ġalcool": 3592,
      "idi": 3593,
      "inguer": 3594,
      "ĠthÃ©": 3595,
      "Ġthune": 3596,
      "allais": 3597,
      "ordre": 3598,
      "Ġshoot": 3599,
      "audra": 3600,
      "ody": 3601,
      "Ġ100": 3602,
      "Ġphotos": 3603,
      "ĠmisÃ¨re": 3604,
      "Ġverras": 3605,
      "Ġposer": 3606,
      "Ġcourse": 3607,
      "fiÃ©": 3608,
      "ĠdÃ©teste": 3609,
      "Ġblague": 3610,
      "Ġcrime": 3611,
      "ĠbÃ¢ti": 3612,
      "ĠgagnÃ©": 3613,
      "Ġfreestyle": 3614,
      "allero": 3615,
      "Ġfeat": 3616,
      "ĠsoirÃ©es": 3617,
      "Ġcousin": 3618,
      "Ġmeurt": 3619,
      "ĠrÃ©flÃ©ch": 3620,
      "Ġvacances": 3621,
      "ĠrÃ©ussir": 3622,
      "honneur": 3623,
      "plose": 3624,
      "cÃ©e": 3625,
      "fou": 3626,
      "haut": 3627,
      "ira": 3628,
      "sol": 3629,
      "souv": 3630,
      "ug": 3631,
      "uy": 3632,
      "xy": 3633,
      "Ġdange": 3634,
      "Ġpra": 3635,
      "Ġpure": 3636,
      "Ġpoule": 3637,
      "Ġcess": 3638,
      "Ġmmh": 3639,
      "Ġsat": 3640,
      "Ġsable": 3641,
      "ĠsÃ©ri": 3642,
      "Ġtat": 3643,
      "ister": 3644,
      "arme": 3645,
      "Ġat": 3646,
      "univers": 3647,
      "Ġrends": 3648,
      "Ġnoires": 3649,
      "aule": 3650,
      "rave": 3651,
      "ĠhaÃ¯": 3652,
      "endors": 3653,
      "Ġrec": 3654,
      "otid": 3655,
      "Ġcouler": 3656,
      "ĠcoÃ»te": 3657,
      "ings": 3658,
      "Ġbouff": 3659,
      "Ġaiment": 3660,
      "Ġstop": 3661,
      "perds": 3662,
      "inst": 3663,
      "toie": 3664,
      "Ġliasses": 3665,
      "Ġverte": 3666,
      "phÃ¨re": 3667,
      "Ġattends": 3668,
      "Ġsavais": 3669,
      "Ġcontin": 3670,
      "ĠcolÃ¨re": 3671,
      "Ġressemble": 3672,
      "ĠdrÃ´le": 3673,
      "Ġregards": 3674,
      "Ġdarons": 3675,
      "balle": 3676,
      "ĠnÃ©gros": 3677,
      "Ġcommence": 3678,
      "herfuck": 3679,
      "Ġpousse": 3680,
      "ateau": 3681,
      "Ġvoiture": 3682,
      "Ġjeanjass": 3683,
      "donnez": 3684,
      "Ġbelgique": 3685,
      "Ġkhos": 3686,
      "Ġtitre": 3687,
      "Ġpierre": 3688,
      "Ġcigare": 3689,
      "ĠfraÃ®che": 3690,
      "joue": 3691,
      "mons": 3692,
      "noir": 3693,
      "pÃ¨te": 3694,
      "som": 3695,
      "Ġigo": 3696,
      "Ġluc": 3697,
      "Ġmurs": 3698,
      "quin": 3699,
      "Ġtemp": 3700,
      "Ġjob": 3701,
      "Ġvir": 3702,
      "Ġbeur": 3703,
      "Ġbos": 3704,
      "inÃ©": 3705,
      "Ġglo": 3706,
      "cho": 3707,
      "Ġcompl": 3708,
      "Ġchatte": 3709,
      "ambi": 3710,
      "Ã©tat": 3711,
      "oter": 3712,
      "acle": 3713,
      "Ġoeil": 3714,
      "tice": 3715,
      "Ġseize": 3716,
      "Ġdise": 3717,
      "Ġpercer": 3718,
      "Ġfinit": 3719,
      "ĠzÃ©ro": 3720,
      "Ġride": 3721,
      "Ġlieu": 3722,
      "Ã§ois": 3723,
      "Ġclub": 3724,
      "ohn": 3725,
      "Ġcaptes": 3726,
      "ĠtombÃ©": 3727,
      "Ġcolle": 3728,
      "ĠrÃ©pond": 3729,
      "Ġfaible": 3730,
      "ĠÃ©toile": 3731,
      "Ġsoigner": 3732,
      "tellement": 3733,
      "16": 3734,
      "gner": 3735,
      "ix": 3736,
      "mine": 3737,
      "ode": 3738,
      "ran": 3739,
      "uÃ©": 3740,
      "ument": 3741,
      "Ġdj": 3742,
      "ĠcitÃ©": 3743,
      "enchaÃ®": 3744,
      "ĠmÃ©g": 3745,
      "Ġtim": 3746,
      "Ġjun": 3747,
      "Ġfri": 3748,
      "Ġball": 3749,
      "Ġpasses": 3750,
      "Ġgorge": 3751,
      "chÃ©s": 3752,
      "ushi": 3753,
      "Ġcomb": 3754,
      "Ġhar": 3755,
      "Ġyour": 3756,
      "rible": 3757,
      "Ã©cout": 3758,
      "Ġobli": 3759,
      "lig": 3760,
      "Ġproche": 3761,
      "uits": 3762,
      "ĠarrÃª": 3763,
      "Ġbouffe": 3764,
      "Ġboucle": 3765,
      "Ġpartent": 3766,
      "rapper": 3767,
      "ĠrÃªver": 3768,
      "Ġsupp": 3769,
      "ĠpensÃ©e": 3770,
      "acheter": 3771,
      "Ġterr": 3772,
      "ĠpressÃ©": 3773,
      "bonheur": 3774,
      "affaire": 3775,
      "ĠarrÃªt": 3776,
      "Ġwhat": 3777,
      "Ġbusiness": 3778,
      "ĠrÃ¨gles": 3779,
      "Ġanciens": 3780,
      "Ġprennent": 3781,
      "dessus": 3782,
      "Ġblanches": 3783,
      "Ġconscience": 3784,
      "bu": 3785,
      "eviens": 3786,
      "fonce": 3787,
      "ib": 3788,
      "nel": 3789,
      "pat": 3790,
      "Ġdort": 3791,
      "ĠpÃ©n": 3792,
      "onse": 3793,
      "Ġsonne": 3794,
      "Ã©m": 3795,
      "Ġfra": 3796,
      "Ġvise": 3797,
      "Ġbin": 3798,
      "ĠblÃ©": 3799,
      "Ġnin": 3800,
      "Ã¨tres": 3801,
      "orme": 3802,
      "ell": 3803,
      "Ġhop": 3804,
      "ama": 3805,
      "Ġrej": 3806,
      "aindre": 3807,
      "ĠdÃ©Ã§u": 3808,
      "ortant": 3809,
      "ortir": 3810,
      "roph": 3811,
      "Ġdiman": 3812,
      "agn": 3813,
      "Ġsexe": 3814,
      "ada": 3815,
      "Ġbruxelles": 3816,
      "Ġmalad": 3817,
      "Ġperte": 3818,
      "eaux": 3819,
      "Ġguette": 3820,
      "Ã©rant": 3821,
      "odar": 3822,
      "brÃ»": 3823,
      "Ġdouce": 3824,
      "aks": 3825,
      "Ġvouloir": 3826,
      "Ġbec": 3827,
      "Ġregarder": 3828,
      "Ġbattre": 3829,
      "Ġdaronne": 3830,
      "Ġassis": 3831,
      "ĠlÃ©gend": 3832,
      "Ġrisque": 3833,
      "Ġbref": 3834,
      "Ġflemme": 3835,
      "brouille": 3836,
      "ĠmÃ©lange": 3837,
      "ĠfantÃ´mes": 3838,
      "Ġzeb": 3839,
      "nouveau": 3840,
      "Ġclassique": 3841,
      "aucun": 3842,
      "otidien": 3843,
      "bra": 3844,
      "bitch": 3845,
      "dÃ©g": 3846,
      "fut": 3847,
      "gon": 3848,
      "get": 3849,
      "ieurs": 3850,
      "mÃ©e": 3851,
      "pan": 3852,
      "rin": 3853,
      "vos": 3854,
      "oureux": 3855,
      "encre": 3856,
      "Ġtur": 3857,
      "asb": 3858,
      "astique": 3859,
      "Ġfar": 3860,
      "ĠbÃ©n": 3861,
      "ĠbÃ©ton": 3862,
      "oies": 3863,
      "intÃ©": 3864,
      "Ġgout": 3865,
      "Ġguit": 3866,
      "Ã¨ce": 3867,
      "chet": 3868,
      "ust": 3869,
      "Ġcomprend": 3870,
      "Ġone": 3871,
      "Ġhand": 3872,
      "Ġparmi": 3873,
      "Ġke": 3874,
      "Ġken": 3875,
      "Ġkhey": 3876,
      "ider": 3877,
      "Ġbouger": 3878,
      "Ġsache": 3879,
      "oncÃ©": 3880,
      "Ġgrandir": 3881,
      "attaque": 3882,
      "ĠÃ©couter": 3883,
      "odka": 3884,
      "Ġgratu": 3885,
      "Ġbalance": 3886,
      "ĠmÃ©chant": 3887,
      "Ġdouleur": 3888,
      "Ġjoues": 3889,
      "Ġenfer": 3890,
      "Ġenfin": 3891,
      "Ġesqui": 3892,
      "Ġmagique": 3893,
      "ĠmÃ©tro": 3894,
      "posÃ©": 3895,
      "genre": 3896,
      "Ġfinesse": 3897,
      "Ġkilo": 3898,
      "Ġenvoie": 3899,
      "ĠboÃ®te": 3900,
      "odarap": 3901,
      "'-": 3902,
      "bais": 3903,
      "conc": 3904,
      "ia": 3905,
      "iche": 3906,
      "oche": 3907,
      "pu": 3908,
      "rence": 3909,
      "so": 3910,
      "voy": 3911,
      "yl": 3912,
      "Ġdont": 3913,
      "Ġdanger": 3914,
      "Ġlig": 3915,
      "Ġpic": 3916,
      "ouffe": 3917,
      "Ġmeu": 3918,
      "Ġmise": 3919,
      "Ġmairo": 3920,
      "Ġsun": 3921,
      "Ġtest": 3922,
      "Ġjure": 3923,
      "Ġfans": 3924,
      "Ġbis": 3925,
      "Ġbid": 3926,
      "Ġak": 3927,
      "Ġrace": 3928,
      "oment": 3929,
      "Ġlean": 3930,
      "chacun": 3931,
      "urÃ©": 3932,
      "rav": 3933,
      "Ġparait": 3934,
      "irais": 3935,
      "ĠdÃ©sert": 3936,
      "agit": 3937,
      "imaux": 3938,
      "raille": 3939,
      "Ġcode": 3940,
      "Ġeen": 3941,
      "Ġint": 3942,
      "Ġprods": 3943,
      "Ġcrie": 3944,
      "Ġstr": 3945,
      "ancienne": 3946,
      "ouvrir": 3947,
      "cient": 3948,
      "cks": 3949,
      "Ġpleut": 3950,
      "ords": 3951,
      "Ġchef": 3952,
      "ĠprÃ©f": 3953,
      "Ġcaf": 3954,
      "ĠcachÃ©": 3955,
      "ĠdÃ©col": 3956,
      "Ġverts": 3957,
      "croise": 3958,
      "Ġposte": 3959,
      "Ġsouri": 3960,
      "Ġconstr": 3961,
      "Ġvitre": 3962,
      "Ġpause": 3963,
      "ĠquittÃ©": 3964,
      "Ġcommen": 3965,
      "Ġsucer": 3966,
      "Ġgloire": 3967,
      "demment": 3968,
      "ĠfiertÃ©": 3969,
      "mama": 3970,
      "Ġconcerts": 3971,
      "Ġchoisi": 3972,
      "Ġretrouver": 3973,
      "Ġconseils": 3974,
      "24": 3975,
      "cles": 3976,
      "gg": 3977,
      "huit": 3978,
      "jn": 3979,
      "ko": 3980,
      "mor": 3981,
      "ood": 3982,
      "pital": 3983,
      "pousse": 3984,
      "voud": 3985,
      "ym": 3986,
      "esc": 3987,
      "Ġdoll": 3988,
      "Ġlire": 3989,
      "ĠcÃ©l": 3990,
      "Ġmette": 3991,
      "Ġsuite": 3992,
      "ĠtÃ¢": 3993,
      "ĠtÃ©n": 3994,
      "Ġtoc": 3995,
      "Ġjette": 3996,
      "Ġbx": 3997,
      "Ġaf": 3998,
      "Ġnum": 3999,
      "chette": 4000,
      "orde": 4001,
      "rog": 4002,
      "rocher": 4003,
      "lage": 4004,
      "iennes": 4005,
      "Ġpourrais": 4006,
      "Ġhun": 4007,
      "Ġmam": 4008,
      "resser": 4009,
      "Ġrepart": 4010,
      "Ã©cla": 4011,
      "chec": 4012,
      "illeure": 4013,
      "prom": 4014,
      "imm": 4015,
      "Ġcouleurs": 4016,
      "Ġway": 4017,
      "Ġcroix": 4018,
      "Ġclonez": 4019,
      "Ġpoche": 4020,
      "videmment": 4021,
      "Ġexc": 4022,
      "Ġverres": 4023,
      "Ġcroiser": 4024,
      "Ġroue": 4025,
      "Ġprison": 4026,
      "ĠpÃ©tasse": 4027,
      "Ġnuage": 4028,
      "Ġramen": 4029,
      "inquiÃ¨tes": 4030,
      "Ġcommun": 4031,
      "Ġsouffle": 4032,
      "Ġporcs": 4033,
      "Ġrendu": 4034,
      "ĠbloquÃ©": 4035,
      "Ġvices": 4036,
      "Ġvoudrais": 4037,
      "Ġbordel": 4038,
      "Ġjuge": 4039,
      "super": 4040,
      "Ġmontrer": 4041,
      "ĠcontrÃ´": 4042,
      "ĠcontrÃ´le": 4043,
      "Ġfootbal": 4044,
      "Ġennemi": 4045,
      "Ġjambes": 4046,
      "explique": 4047,
      "papa": 4048,
      "ĠÃ©lÃ©ment": 4049,
      "Ġvaisseau": 4050,
      "acher": 4051,
      "boy": 4052,
      "tal": 4053,
      "vÃ©e": 4054,
      "vrai": 4055,
      "wa": 4056,
      "you": 4057,
      "Ġlas": 4058,
      "Ġlux": 4059,
      "Ġlors": 4060,
      "Ġpression": 4061,
      "Ġcot": 4062,
      "oure": 4063,
      "Ġmorte": 4064,
      "Ġsers": 4065,
      "Ġteuf": 4066,
      "Ã©lo": 4067,
      "Ġflo": 4068,
      "Ġfoudre": 4069,
      "ares": 4070,
      "Ġvodka": 4071,
      "Ġralph": 4072,
      "Ã¨bres": 4073,
      "choix": 4074,
      "aly": 4075,
      "dehors": 4076,
      "anter": 4077,
      "Ġparc": 4078,
      "Ġparole": 4079,
      "Ġmac": 4080,
      "apprends": 4081,
      "appart": 4082,
      "rics": 4083,
      "amer": 4084,
      "Ġsigne": 4085,
      "Ġmessage": 4086,
      "Ġretard": 4087,
      "Ġrefrain": 4088,
      "Ã©cl": 4089,
      "Ġmeilleure": 4090,
      "tume": 4091,
      "accep": 4092,
      "avent": 4093,
      "Ġtrente": 4094,
      "Ġdisques": 4095,
      "Ġdiscours": 4096,
      "Ġinf": 4097,
      "Ġavent": 4098,
      "ucci": 4099,
      "ĠarriÃ¨re": 4100,
      "Ġarrache": 4101,
      "ulte": 4102,
      "ortement": 4103,
      "Ġpleins": 4104,
      "Ġseuls": 4105,
      "ifs": 4106,
      "enfin": 4107,
      "enfoirÃ©": 4108,
      "Ġcrame": 4109,
      "Ġcherches": 4110,
      "Ġcourant": 4111,
      "Ġlogique": 4112,
      "Ã©ric": 4113,
      "fran": 4114,
      "frÃ¨re": 4115,
      "proche": 4116,
      "Ġterrain": 4117,
      "culer": 4118,
      "Ġimag": 4119,
      "Ġloups": 4120,
      "Ġdifficile": 4121,
      "ĠtraÃ®ne": 4122,
      "ssens": 4123,
      "ĠÃ©viter": 4124,
      "Ġfeel": 4125,
      "Ġtravail": 4126,
      "Ġprinci": 4127,
      "Ġtechnique": 4128,
      "Ġpoids": 4129,
      "Ġchiffres": 4130,
      "souvent": 4131,
      "blÃ©": 4132,
      "four": 4133,
      "gl": 4134,
      "ll": 4135,
      "nal": 4136,
      "nÃ©es": 4137,
      "nds": 4138,
      "roi": 4139,
      "sui": 4140,
      "tit": 4141,
      "tos": 4142,
      "Ġlis": 4143,
      "Ġlendemain": 4144,
      "Ġpes": 4145,
      "Ġpen": 4146,
      "Ġpile": 4147,
      "aiment": 4148,
      "Ġsan": 4149,
      "Ġslide": 4150,
      "quelle": 4151,
      "ley": 4152,
      "ĠbÃ©nÃ©": 4153,
      "Ġraf": 4154,
      "Ġnais": 4155,
      "Ġgro": 4156,
      "choses": 4157,
      "orage": 4158,
      "roÃ¯": 4159,
      "user": 4160,
      "riÃ¨res": 4161,
      "amp": 4162,
      "Ġouv": 4163,
      "olent": 4164,
      "ottes": 4165,
      "Ġdipl": 4166,
      "tif": 4167,
      "paraÃ®t": 4168,
      "Ġdiscret": 4169,
      "Ġsuisse": 4170,
      "Ġmich": 4171,
      "danse": 4172,
      "monte": 4173,
      "Ġrestes": 4174,
      "Ġtrace": 4175,
      "Ġbibi": 4176,
      "Ã¨tement": 4177,
      "ĠprÃ©pare": 4178,
      "illon": 4179,
      "Ġgratter": 4180,
      "Ġphone": 4181,
      "faites": 4182,
      "Ġjouent": 4183,
      "Ġattendre": 4184,
      "Ġpensais": 4185,
      "envole": 4186,
      "ĠdÃ©ter": 4187,
      "Ġcabine": 4188,
      "Ġeuros": 4189,
      "bertÃ©": 4190,
      "habite": 4191,
      "Ġ?,": 4192,
      "Ġairs": 4193,
      "rappelle": 4194,
      "suff": 4195,
      "Ġsaigne": 4196,
      "ĠpiÃ¨ces": 4197,
      "Ġcertains": 4198,
      "Ġouvert": 4199,
      "Ġcauchemars": 4200,
      "ecoute": 4201,
      "Ġchapelle": 4202,
      "Ġtrott": 4203,
      "ĠmÃ©lodie": 4204,
      "Ġplaisir": 4205,
      "Ġmagnifique": 4206,
      "Ġbaskets": 4207,
      "Ġbeurre": 4208,
      "Ġdimanche": 4209,
      "voudrais": 4210,
      "ao": 4211,
      "dur": 4212,
      "fasse": 4213,
      "hale": 4214,
      "nom": 4215,
      "peut": 4216,
      "reste": 4217,
      "yes": 4218,
      "Ã«": 4219,
      "Ġur": 4220,
      "Ġlois": 4221,
      "Ġpull": 4222,
      "ĠclÃ©": 4223,
      "oup": 4224,
      "enus": 4225,
      "oney": 4226,
      "Ġsuit": 4227,
      "Ġjoin": 4228,
      "Ġquart": 4229,
      "Ġquotidien": 4230,
      "Ġfla": 4231,
      "Ġlame": 4232,
      "Ġryth": 4233,
      "Ãªcher": 4234,
      "Ġchier": 4235,
      "atique": 4236,
      "aper": 4237,
      "amÃ¨ne": 4238,
      "Ġouvre": 4239,
      "emple": 4240,
      "site": 4241,
      "ĠdÃ©faut": 4242,
      "avancer": 4243,
      "Ġfaits": 4244,
      "Ġvibe": 4245,
      "Ġdiam": 4246,
      "Ġprise": 4247,
      "tient": 4248,
      "tive": 4249,
      "Ġsept": 4250,
      "paradis": 4251,
      "imum": 4252,
      "Ã´ne": 4253,
      "Ġvaleurs": 4254,
      "Ġdisque": 4255,
      "idÃ¨le": 4256,
      "ingues": 4257,
      "Ġfinis": 4258,
      "Ġstates": 4259,
      "Ġrestent": 4260,
      "attrap": 4261,
      "ĠÃ©cl": 4262,
      "Ġbiatch": 4263,
      "Ġbarbe": 4264,
      "Ġflou": 4265,
      "Ġpira": 4266,
      "Ġroules": 4267,
      "Ġpapier": 4268,
      "condes": 4269,
      "Ġpoumon": 4270,
      "Ġpoumons": 4271,
      "ĠÃ¢mes": 4272,
      "Ġglisse": 4273,
      "ĠlÃ©gende": 4274,
      "Ã©nÃ©ration": 4275,
      "appeler": 4276,
      "venue": 4277,
      "Ġchanson": 4278,
      "currence": 4279,
      "esquive": 4280,
      "quitte": 4281,
      "ĠrÃ©volte": 4282,
      "ĠcompliquÃ©": 4283,
      "ĠprÃ©fÃ©rÃ©": 4284,
      "ĠÃ©tudes": 4285,
      "ĠÃ©motions": 4286,
      "ĠprotÃ¨ge": 4287,
      "Ġdangereux": 4288,
      "Ġfootballeur": 4289,
      ".,": 4290,
      "bour": 4291,
      "cous": 4292,
      "den": 4293,
      "hh": 4294,
      "hall": 4295,
      "lÃ©s": 4296,
      "sau": 4297,
      "tÃªte": 4298,
      "top": 4299,
      "veux": 4300,
      "vingt": 4301,
      "Ġlion": 4302,
      "ouf": 4303,
      "ouse": 4304,
      "Ġsing": 4305,
      "ĠsÃ©rie": 4306,
      "Ã©rÃ©": 4307,
      "Ġjim": 4308,
      "Ġquintessence": 4309,
      "arque": 4310,
      "arres": 4311,
      "Ġby": 4312,
      "Ġbombe": 4313,
      "entir": 4314,
      "Ġrab": 4315,
      "Ġrats": 4316,
      "inaire": 4317,
      "invent": 4318,
      "ĠlevÃ©": 4319,
      "alise": 4320,
      "Ġcomple": 4321,
      "els": 4322,
      "ĠchÃ©rie": 4323,
      "Ġtueurs": 4324,
      "Ġplusieurs": 4325,
      "autÃ©": 4326,
      "peau": 4327,
      "ĠprÃªts": 4328,
      "parait": 4329,
      "imer": 4330,
      "Ġincroy": 4331,
      "ades": 4332,
      "ĠaimÃ©": 4333,
      "Ġmarque": 4334,
      "Ġlivres": 4335,
      "Ġguer": 4336,
      "Ġplease": 4337,
      "ĠÃ©cr": 4338,
      "ĠÃ©cla": 4339,
      "arer": 4340,
      "pleure": 4341,
      "ĠprÃ©vu": 4342,
      "Ġice": 4343,
      "Ġform": 4344,
      "Ġsub": 4345,
      "Ġsuce": 4346,
      "gueule": 4347,
      "Ġsortie": 4348,
      "bran": 4349,
      "Ġferai": 4350,
      "Ġdoux": 4351,
      "own": 4352,
      "ormir": 4353,
      "Ġpoll": 4354,
      "Ġsolitude": 4355,
      "ĠpÃ©tÃ©": 4356,
      "Ġmyth": 4357,
      "ickel": 4358,
      "cupe": 4359,
      "Ġimpossible": 4360,
      "Ġpropos": 4361,
      "afrique": 4362,
      "Ġbleus": 4363,
      "croire": 4364,
      "Ġmorceau": 4365,
      "Ġloup": 4366,
      "gnac": 4367,
      "Ġhumain": 4368,
      "Ġrisques": 4369,
      "Ġlyrics": 4370,
      "Ġdistance": 4371,
      "tÃ©rieur": 4372,
      "Ġsignes": 4373,
      "Ġrebeu": 4374,
      "Ġnigga": 4375,
      "Ġcendres": 4376,
      "ĠsirÃ¨nes": 4377,
      "certains": 4378,
      "brÃ»le": 4379,
      "Ġguitare": 4380,
      "bs": 4381,
      "centre": 4382,
      "fout": 4383,
      "fallait": 4384,
      "gas": 4385,
      "kes": 4386,
      "offre": 4387,
      "pÃ©t": 4388,
      "rouver": 4389,
      "tiens": 4390,
      "uff": 4391,
      "vic": 4392,
      "vard": 4393,
      "wh": 4394,
      "Ġois": 4395,
      "Ġpit": 4396,
      "Ġpros": 4397,
      "Ġsess": 4398,
      "quant": 4399,
      "erde": 4400,
      "isky": 4401,
      "Ġfis": 4402,
      "Ġvoie": 4403,
      "Ġgol": 4404,
      "ork": 4405,
      "cem": 4406,
      "Ġcha": 4407,
      "Ġchat": 4408,
      "Ġhain": 4409,
      "Ġhaute": 4410,
      "Ġplait": 4411,
      "Ġred": 4412,
      "Ġrevoir": 4413,
      "sieur": 4414,
      "otes": 4415,
      "abe": 4416,
      "Ġodeur": 4417,
      "jecti": 4418,
      "Ġviole": 4419,
      "tire": 4420,
      "ignent": 4421,
      "verd": 4422,
      "Ġbris": 4423,
      "Ġbrill": 4424,
      "Ġargent": 4425,
      "Ġmiff": 4426,
      "ĠrÃªv": 4427,
      "merc": 4428,
      "Ġtrah": 4429,
      "Ġappart": 4430,
      "Ġambi": 4431,
      "Ġbip": 4432,
      "obe": 4433,
      "illard": 4434,
      "Ġpetites": 4435,
      "Ġnouveaux": 4436,
      "Ġcapit": 4437,
      "Ġcroise": 4438,
      "Ġmotherfuck": 4439,
      "Ġentend": 4440,
      "sures": 4441,
      "Ġsauv": 4442,
      "Ġmojo": 4443,
      "Ġputains": 4444,
      "goÃ»te": 4445,
      "Ġcharbon": 4446,
      "prof": 4447,
      "Ġdirai": 4448,
      "ĠbaisÃ©": 4449,
      "effet": 4450,
      "Ġchauds": 4451,
      "bÃ©bÃ©": 4452,
      "Ġinsomn": 4453,
      "Ġchantent": 4454,
      "habitude": 4455,
      "bouge": 4456,
      "Ġfaus": 4457,
      "ĠgoÃ»ter": 4458,
      "Ġsouffrir": 4459,
      "Ġpassage": 4460,
      "dicace": 4461,
      "Ġvictoire": 4462,
      "chemin": 4463,
      "Ġblancs": 4464,
      "Ġflamme": 4465,
      "hÃ´pital": 4466,
      "arriver": 4467,
      "Ġpoil": 4468,
      "ĠcollÃ¨": 4469,
      "Ġcheveux": 4470,
      "Ġlettres": 4471,
      "Ġimmense": 4472,
      "Ġmignon": 4473,
      "Ġjungle": 4474,
      "ĠtÃ©nÃ¨bres": 4475,
      "cit": 4476,
      "cup": 4477,
      "gnent": 4478,
      "mant": 4479,
      "nie": 4480,
      "ndre": 4481,
      "ples": 4482,
      "pard": 4483,
      "suite": 4484,
      "ville": 4485,
      "Ġail": 4486,
      "Ġlent": 4487,
      "Ġlil": 4488,
      "ĠpÃ©d": 4489,
      "Ġcage": 4490,
      "Ġcelles": 4491,
      "ĠcÃ´t": 4492,
      "eng": 4493,
      "Ġtin": 4494,
      "Ã©rer": 4495,
      "anes": 4496,
      "rein": 4497,
      "Ġjoie": 4498,
      "Ġjohn": 4499,
      "erse": 4500,
      "erie": 4501,
      "Ġfall": 4502,
      "arde": 4503,
      "Ġvom": 4504,
      "Ġbest": 4505,
      "eue": 4506,
      "tex": 4507,
      "ĠrÃ©t": 4508,
      "Ġray": 4509,
      "inture": 4510,
      "Ġgui": 4511,
      "chau": 4512,
      "change": 4513,
      "seille": 4514,
      "Ġhet": 4515,
      "Ġaugment": 4516,
      "amis": 4517,
      "ĠouÃ¯e": 4518,
      "emmÃ¨ne": 4519,
      "Ġrevient": 4520,
      "Ã©cras": 4521,
      "ott": 4522,
      "Ġprie": 4523,
      "tiques": 4524,
      "Ġwoh": 4525,
      "moire": 4526,
      "Ġavis": 4527,
      "ĠrÃ©d": 4528,
      "Ġdites": 4529,
      "ĠÃ©taient": 4530,
      "ĠcarriÃ¨re": 4531,
      "Ġplac": 4532,
      "ĠgarÃ§on": 4533,
      "atta": 4534,
      "Ġcesse": 4535,
      "Ġvoisin": 4536,
      "impossible": 4537,
      "Ġseras": 4538,
      "arrÃªt": 4539,
      "bref": 4540,
      "Ġmettent": 4541,
      "dÃ©jÃł": 4542,
      "Ġpost": 4543,
      "Ġcapter": 4544,
      "Ġmatch": 4545,
      "Ġsourd": 4546,
      "Ġsourit": 4547,
      "Ġentier": 4548,
      "Ġpolitique": 4549,
      "Ġsold": 4550,
      "hÃ©site": 4551,
      "Ġbatte": 4552,
      "Ġlimites": 4553,
      "Ġdraps": 4554,
      "Ġcell": 4555,
      "Ġgagne": 4556,
      "Ġxvi": 4557,
      "etto": 4558,
      "Ġobs": 4559,
      "Ġpiscine": 4560,
      "ĠpÃ¢tes": 4561,
      "caba": 4562,
      "Ġpoisse": 4563,
      "Ġprochain": 4564,
      "Ġphrases": 4565,
      "Ġmadame": 4566,
      "ĠfrÃ©rots": 4567,
      "futur": 4568,
      "ban": 4569,
      "bÃ¢": 4570,
      "barre": 4571,
      "dv": 4572,
      "dire": 4573,
      "ever": 4574,
      "iÃ©": 4575,
      "lumiÃ¨re": 4576,
      "mble": 4577,
      "pÃ¨re": 4578,
      "ese": 4579,
      "Ġdic": 4580,
      "Ġpisse": 4581,
      "Ġtalent": 4582,
      "Ã©chec": 4583,
      "anis": 4584,
      "anne": 4585,
      "Ġjass": 4586,
      "isait": 4587,
      "ĠfÃ©": 4588,
      "Ġvain": 4589,
      "Ġvein": 4590,
      "ourÃ©": 4591,
      "inc": 4592,
      "inent": 4593,
      "Ġgon": 4594,
      "Ġgaffe": 4595,
      "Ġguise": 4596,
      "itan": 4597,
      "auvais": 4598,
      "augment": 4599,
      "usÃ©": 4600,
      "usine": 4601,
      "Ġparo": 4602,
      "icke": 4603,
      "acer": 4604,
      "pec": 4605,
      "lique": 4606,
      "Ġkid": 4607,
      "raite": 4608,
      "Ġwa": 4609,
      "ĠÃ©g": 4610,
      "ĠallÃ©": 4611,
      "Ġconcurrence": 4612,
      "ploi": 4613,
      "Ġzomb": 4614,
      "ĠrÃªvent": 4615,
      "Ġliqui": 4616,
      "Ġshla": 4617,
      "Ġsalop": 4618,
      "ills": 4619,
      "Ġsession": 4620,
      "Ġsueur": 4621,
      "explose": 4622,
      "Ġ12": 4623,
      "Ġbases": 4624,
      "ĠcafÃ©": 4625,
      "Ġbalaf": 4626,
      "Ġnana": 4627,
      "Ġphil": 4628,
      "Ġcracher": 4629,
      "ĠcramÃ©": 4630,
      "Ġcali": 4631,
      "Ġcalmer": 4632,
      "Ġcapte": 4633,
      "Ġscre": 4634,
      "Ġcernes": 4635,
      "Ġforts": 4636,
      "Ġdrogues": 4637,
      "Ġculture": 4638,
      "Ġimages": 4639,
      "Ġpauvres": 4640,
      "Ġdrames": 4641,
      "Ġpress": 4642,
      "Ġpousser": 4643,
      "contr": 4644,
      "Ġhere": 4645,
      "ĠtraÃ®tres": 4646,
      "ĠkiffÃ©": 4647,
      "Ġdescend": 4648,
      "oublier": 4649,
      "evrais": 4650,
      "poumon": 4651,
      "ĠdiffÃ©rent": 4652,
      "Ġjaune": 4653,
      "Ġprochaine": 4654,
      "Ġgrim": 4655,
      "Ġoim": 4656,
      "Ġenvies": 4657,
      "ĠsÃ©rieux": 4658,
      "ĠtempÃªte": 4659,
      "ambiance": 4660,
      "bille": 4661,
      "clo": 4662,
      "dd": 4663,
      "dro": 4664,
      "ivÃ©": 4665,
      "lance": 4666,
      "mont": 4667,
      "nt": 4668,
      "nitÃ©": 4669,
      "nÃ©g": 4670,
      "rons": 4671,
      "rine": 4672,
      "yb": 4673,
      "Ġ0": 4674,
      "Ġdown": 4675,
      "ĠmangÃ©": 4676,
      "ĠmÃ´mes": 4677,
      "Ġsen": 4678,
      "quis": 4679,
      "Ġtem": 4680,
      "Ġtits": 4681,
      "Ã©par": 4682,
      "lette": 4683,
      "arra": 4684,
      "Ġbaisse": 4685,
      "Ġbatt": 4686,
      "Ġbill": 4687,
      "iler": 4688,
      "Ġnombre": 4689,
      "Ġgel": 4690,
      "chain": 4691,
      "chants": 4692,
      "aules": 4693,
      "Ãªtres": 4694,
      "Ġhur": 4695,
      "Ã©toi": 4696,
      "Ã©tique": 4697,
      "sif": 4698,
      "icat": 4699,
      "icule": 4700,
      "oirs": 4701,
      "agnes": 4702,
      "Ġsecondes": 4703,
      "vert": 4704,
      "ĠÃ©te": 4705,
      "Ġbron": 4706,
      "Ġmalheur": 4707,
      "Ġpermis": 4708,
      "Ġjustice": 4709,
      "Ġstick": 4710,
      "Ġthis": 4711,
      "ĠthÃ¨me": 4712,
      "ĠÃ©tr": 4713,
      "Ġzik": 4714,
      "attention": 4715,
      "Ġliasse": 4716,
      "Ġpleu": 4717,
      "trait": 4718,
      "trise": 4719,
      "obs": 4720,
      "ĠmaniÃ¨re": 4721,
      "expri": 4722,
      "Ġcomptes": 4723,
      "Ġexp": 4724,
      "Ġverra": 4725,
      "Ġcherchent": 4726,
      "okay": 4727,
      "Ġcordes": 4728,
      "fice": 4729,
      "Ġpleines": 4730,
      "Ġaccep": 4731,
      "star": 4732,
      "Ġmoche": 4733,
      "froid": 4734,
      "Ã©viter": 4735,
      "Ġdroi": 4736,
      "the": 4737,
      "goÃ»t": 4738,
      "Ġlarge": 4739,
      "ĠtroisiÃ¨me": 4740,
      "Ġsyn": 4741,
      "finis": 4742,
      "Ġmentent": 4743,
      "Ġaddic": 4744,
      "Ġhood": 4745,
      "Ġbuts": 4746,
      "Ġporter": 4747,
      "ĠblessÃ©": 4748,
      "ĠdÃ©gage": 4749,
      "Ġsoif": 4750,
      "louze": 4751,
      "anium": 4752,
      "Ġendroit": 4753,
      "Ġ201": 4754,
      "Ġremplir": 4755,
      "ĠprÃ©cis": 4756,
      "Ġlunettes": 4757,
      "Ġzinz": 4758,
      "ĠÃ©coutÃ©": 4759,
      "Ġacheter": 4760,
      "ĠdÃ©lire": 4761,
      "Ġtabac": 4762,
      "ĠchaÃ®ne": 4763,
      "Ġrespecte": 4764,
      "Ġressemblent": 4765,
      "ĠrÃ©flÃ©chir": 4766,
      "Ġlignes": 4767,
      "Ġsourires": 4768,
      "bord": 4769,
      "ft": 4770,
      "fam": 4771,
      "ker": 4772,
      "king": 4773,
      "lass": 4774,
      "mu": 4775,
      "mpl": 4776,
      "pÃ©cial": 4777,
      "vir": 4778,
      "zes": 4779,
      "Ġ8": 4780,
      "Ġq": 4781,
      "Ġer": 4782,
      "Ġoli": 4783,
      "Ġdinguer": 4784,
      "ĠpÃ¨": 4785,
      "ĠpitiÃ©": 4786,
      "aimais": 4787,
      "Ġcens": 4788,
      "Ġcann": 4789,
      "Ġsout": 4790,
      "ĠsÃ©p": 4791,
      "quili": 4792,
      "quimaux": 4793,
      "Ġtir": 4794,
      "Ġtop": 4795,
      "Ã©ros": 4796,
      "reur": 4797,
      "isole": 4798,
      "Ġvoule": 4799,
      "Ġbur": 4800,
      "Ġboite": 4801,
      "Ġbateau": 4802,
      "Ġatte": 4803,
      "Ġadieu": 4804,
      "Ġroul": 4805,
      "Ġnas": 4806,
      "Ġneu": 4807,
      "Ġgour": 4808,
      "Ã¨ves": 4809,
      "Ã¨nent": 4810,
      "chis": 4811,
      "Ġhuit": 4812,
      "Ġparas": 4813,
      "ĠparlÃ©": 4814,
      "Ã©car": 4815,
      "onnaire": 4816,
      "Ġvivent": 4817,
      "ĠdiÃ¨ses": 4818,
      "Ġcouper": 4819,
      "coacher": 4820,
      "Ġwave": 4821,
      "Ġcodes": 4822,
      "Ġcoffre": 4823,
      "Ġdisait": 4824,
      "Ġboum": 4825,
      "ult": 4826,
      "Ġstor": 4827,
      "Ġriv": 4828,
      "Ġplage": 4829,
      "Ġvraies": 4830,
      "ĠlibertÃ©": 4831,
      "ĠÃ©cras": 4832,
      "trÃ¨s": 4833,
      "ĠamÃ©ric": 4834,
      "ĠbarriÃ¨re": 4835,
      "Ġsalope": 4836,
      "Ġblunt": 4837,
      "biz": 4838,
      "ĠattirÃ©": 4839,
      "Ã©lÃ¨re": 4840,
      "Ġtermin": 4841,
      "Ġculs": 4842,
      "Ġaband": 4843,
      "Ġimportant": 4844,
      "Ġflows": 4845,
      "Ġsmok": 4846,
      "ĠrÃ©ponse": 4847,
      "Ġlimite": 4848,
      "Ġraconter": 4849,
      "Ġmorale": 4850,
      "Ġokay": 4851,
      "enferme": 4852,
      "ĠbrÃ»ler": 4853,
      "Ġclaque": 4854,
      "Ġ75": 4855,
      "Ġgava": 4856,
      "ĠespÃ©rant": 4857,
      "ennemis": 4858,
      "Ġsoient": 4859,
      "iendra": 4860,
      "ĠgÃ©rer": 4861,
      "Ġsuivre": 4862,
      "ĠbÃ©do": 4863,
      "Ġmachine": 4864,
      "Ġsapes": 4865,
      "Ġrajoute": 4866,
      "Ġsommet": 4867,
      "Ġexplos": 4868,
      "Ġdollars": 4869,
      "suffit": 4870,
      "Ã«l": 4871,
      "Ġoiseaux": 4872,
      "Ġvoulez": 4873,
      "hal": 4874,
      "ju": 4875,
      "nais": 4876,
      "of": 4877,
      "rans": 4878,
      "sta": 4879,
      "vin": 4880,
      "Ġdouter": 4881,
      "Ġpn": 4882,
      "Ġpiste": 4883,
      "ĠcÃ¢": 4884,
      "Ġcaille": 4885,
      "ouche": 4886,
      "Ġmail": 4887,
      "Ġtis": 4888,
      "Ġteu": 4889,
      "asph": 4890,
      "Ġflip": 4891,
      "Ġfaudra": 4892,
      "Ġvends": 4893,
      "Ġvesti": 4894,
      "Ġrange": 4895,
      "ĠrÃ´le": 4896,
      "ourire": 4897,
      "ĠnÃ©c": 4898,
      "inverse": 4899,
      "Ġlever": 4900,
      "Ã¨vent": 4901,
      "itaire": 4902,
      "orce": 4903,
      "ĠÃłl": 4904,
      "usion": 4905,
      "veille": 4906,
      "rages": 4907,
      "Ġparoles": 4908,
      "Ġplaies": 4909,
      "Ġplastique": 4910,
      "ati": 4911,
      "atin": 4912,
      "apper": 4913,
      "rig": 4914,
      "ride": 4915,
      "rices": 4916,
      "ams": 4917,
      "Ġrevois": 4918,
      "Ġrepos": 4919,
      "ĠrelÃ¨ve": 4920,
      "oth": 4921,
      "action": 4922,
      "avion": 4923,
      "averse": 4924,
      "prits": 4925,
      "prÃªt": 4926,
      "ligent": 4927,
      "ageux": 4928,
      "tier": 4929,
      "Ġkent": 4930,
      "Ġcouz": 4931,
      "Ġfranc": 4932,
      "Ġwor": 4933,
      "Ġwith": 4934,
      "Ã´tres": 4935,
      "Ġcoff": 4936,
      "Ġdisc": 4937,
      "ĠintÃ©": 4938,
      "faisais": 4939,
      "Ġconcu": 4940,
      "ĠrÃ©ussi": 4941,
      "Ġarme": 4942,
      "Ġcroient": 4943,
      "Ġailes": 4944,
      "Ġdeviens": 4945,
      "plein": 4946,
      "Ġpubl": 4947,
      "trouve": 4948,
      "trouver": 4949,
      "Ġbars": 4950,
      "Ġclark": 4951,
      "exodarap": 4952,
      "guer": 4953,
      "Ġcieux": 4954,
      "Ġcible": 4955,
      "ĠfermÃ©": 4956,
      "Ġlaissez": 4957,
      "connaÃ®tre": 4958,
      "Ã©rite": 4959,
      "Ġblaze": 4960,
      "Ġasb": 4961,
      "effort": 4962,
      "efface": 4963,
      "effrite": 4964,
      "ĠdÃ©faite": 4965,
      "Ġpattes": 4966,
      "ĠrÃ©pÃ¨te": 4967,
      "finirai": 4968,
      "Ġclip": 4969,
      "issons": 4970,
      "Ġmoral": 4971,
      "Ġallait": 4972,
      "Ġfacilement": 4973,
      "rÃ©pÃ¨te": 4974,
      "Ġarrivent": 4975,
      "Ġbloc": 4976,
      "garder": 4977,
      "mettre": 4978,
      "ĠsoignÃ©": 4979,
      "Ġsentiment": 4980,
      "Ġrevenir": 4981,
      "attendais": 4982,
      "malgrÃ©": 4983,
      "Ġpoison": 4984,
      "Ġpompes": 4985,
      "ĠgÃ©nie": 4986,
      "Ġsteak": 4987,
      "Ġcauchemar": 4988,
      "quitter": 4989,
      "Ġdorment": 4990,
      "Ġstylo": 4991,
      "Ġcuisine": 4992,
      "Ã©loigne": 4993,
      "Ġbidon": 4994,
      "Ġluxe": 4995,
      "Ġhaineux": 4996,
      "?,": 4997,
      "bang": 4998,
      "cor": 4999,
      "iel": 5000,
      "nÃ©s": 5001,
      "pin": 5002,
      "pac": 5003,
      "paye": 5004,
      "suis": 5005,
      "Ġdrip": 5006,
      "Ġmand": 5007,
      "Ġmeurs": 5008,
      "Ġsni": 5009,
      "Ã©f": 5010,
      "Ġquin": 5011,
      "ĠquÃªte": 5012,
      "asi": 5013,
      "Ġfleur": 5014,
      "Ġfoie": 5015,
      "ĠbiÃ¨re": 5016,
      "Ġdeg": 5017,
      "Ġlaur": 5018,
      "Ġrit": 5019,
      "Ġroses": 5020,
      "Ġright": 5021,
      "Ġrattrap": 5022,
      "Ġgas": 5023,
      "itant": 5024,
      "Ġcommis": 5025,
      "lab": 5026,
      "Ġchienne": 5027,
      "iez": 5028,
      "Ġparfum": 5029,
      "Ġmake": 5030,
      "atter": 5031,
      "ateurs": 5032,
      "atif": 5033,
      "amÃ©rique": 5034,
      "Ġsign": 5035,
      "olver": 5036,
      "Ġreine": 5037,
      "sier": 5038,
      "tue": 5039,
      "ĠprÃªte": 5040,
      "Ġkat": 5041,
      "umiÃ¨res": 5042,
      "Ġcoca": 5043,
      "Ġnever": 5044,
      "compl": 5045,
      "Ġfautes": 5046,
      "Ġjust": 5047,
      "ĠcrÃ¨ve": 5048,
      "Ġcraint": 5049,
      "Ġzoo": 5050,
      "Ġnice": 5051,
      "Ã©rit": 5052,
      "appy": 5053,
      "appÃ©": 5054,
      "Ġrappent": 5055,
      "ĠpoÃ¨mes": 5056,
      "Ġgramme": 5057,
      "ifor": 5058,
      "ocus": 5059,
      "brer": 5060,
      "Ġdouche": 5061,
      "Ġcraquer": 5062,
      "Ġcontrat": 5063,
      "ĠcroisÃ©": 5064,
      "Ġthere": 5065,
      "piÃ¨res": 5066,
      "Ã©vader": 5067,
      "Ġsolide": 5068,
      "Ġbelek": 5069,
      "Ġpapiers": 5070,
      "Ġcharg": 5071,
      "Ġchamane": 5072,
      "Ġbaisser": 5073,
      "ĠidÃ©": 5074,
      "ferais": 5075,
      "Ġtaper": 5076,
      "Ġspir": 5077,
      "ĠlÃ¢chÃ©": 5078,
      "ĠpaupiÃ¨res": 5079,
      "Ġbuzz": 5080,
      "Ġmental": 5081,
      "Ġboom": 5082,
      "jusqu": 5083,
      "ĠrÃ©sonne": 5084,
      "ĠÃ©vident": 5085,
      "Ġtrouves": 5086,
      "Ġfranchement": 5087,
      "Ġwhisky": 5088,
      "black": 5089,
      "Ġdormi": 5090,
      "Ġtravaille": 5091,
      "matique": 5092,
      "estime": 5093,
      "brouilles": 5094,
      "entiel": 5095,
      "invest": 5096,
      "Ġbitume": 5097,
      "Ġbitches": 5098,
      "ĠmaÃ®tre": 5099,
      "Ġmoyen": 5100,
      "Ġmaudit": 5101,
      "Ġchangent": 5102,
      "Ġfrigo": 5103,
      "paname": 5104,
      "Ġprincipes": 5105,
      "Ġliquide": 5106,
      "Ġpublic": 5107,
      "ben": 5108,
      "bol": 5109,
      "boule": 5110,
      "dÃ©c": 5111,
      "dites": 5112,
      "high": 5113,
      "nav": 5114,
      "pal": 5115,
      "rÃ©c": 5116,
      "sole": 5117,
      "zo": 5118,
      "zushi": 5119,
      "Ġie": 5120,
      "Ġlot": 5121,
      "Ġpy": 5122,
      "Ġpav": 5123,
      "Ġpaie": 5124,
      "Ġcd": 5125,
      "Ġcrap": 5126,
      "oum": 5127,
      "Ġsant": 5128,
      "Ġsage": 5129,
      "Ġsure": 5130,
      "Ġserrer": 5131,
      "quets": 5132,
      "quante": 5133,
      "Ġtom": 5134,
      "Ġtester": 5135,
      "Ã©ra": 5136,
      "ĠfiÃ¨re": 5137,
      "Ġfast": 5138,
      "euses": 5139,
      "tez": 5140,
      "ĠnaÃ¯": 5141,
      "Ġnickel": 5142,
      "inois": 5143,
      "Ġlequel": 5144,
      "Ġga": 5145,
      "ĠgÃª": 5146,
      "Ġgod": 5147,
      "Ã¨que": 5148,
      "chais": 5149,
      "changer": 5150,
      "aube": 5151,
      "oris": 5152,
      "rome": 5153,
      "rock": 5154,
      "alon": 5155,
      "sel": 5156,
      "sept": 5157,
      "decin": 5158,
      "lation": 5159,
      "ĠchÃ¢": 5160,
      "Ġchial": 5161,
      "Ġhenn": 5162,
      "Ġplaire": 5163,
      "Ġyeu": 5164,
      "rib": 5165,
      "endo": 5166,
      "ressÃ©": 5167,
      "geois": 5168,
      "acte": 5169,
      "Ġviv": 5170,
      "Ġdigne": 5171,
      "tifiÃ©": 5172,
      "Ġseme": 5173,
      "Ġserein": 5174,
      "imet": 5175,
      "Ġtec": 5176,
      "leroi": 5177,
      "util": 5178,
      "Ġill": 5179,
      "Ġcock": 5180,
      "Ġcognac": 5181,
      "terie": 5182,
      "Ġcond": 5183,
      "Ġbrr": 5184,
      "Ġbrise": 5185,
      "ĠrÃ©al": 5186,
      "Ġarc": 5187,
      "lÃ©es": 5188,
      "Ġaig": 5189,
      "Ġaigu": 5190,
      "ulti": 5191,
      "Ġmarques": 5192,
      "Ġcart": 5193,
      "Ġdeviennent": 5194,
      "Ġshe": 5195,
      "Ġvoisins": 5196,
      "observe": 5197,
      "Ġ18": 5198,
      "occupe": 5199,
      "guette": 5200,
      "Ġciv": 5201,
      "onges": 5202,
      "ĠcoupÃ©": 5203,
      "Ġattention": 5204,
      "Ġcontinue": 5205,
      "Ġesprits": 5206,
      "arrÃªtez": 5207,
      "Ġdurs": 5208,
      "niques": 5209,
      "accroche": 5210,
      "Ġpremiers": 5211,
      "Ġpoub": 5212,
      "Ġracont": 5213,
      "grosse": 5214,
      "Ġtrip": 5215,
      "ĠÃ©paules": 5216,
      "itiques": 5217,
      "Ġclopes": 5218,
      "illave": 5219,
      "ĠtraÃ®ner": 5220,
      "ĠmÃ©tier": 5221,
      "ĠhÃ©ros": 5222,
      "Ġtaffer": 5223,
      "Ġhumains": 5224,
      "ĠoubliÃ©": 5225,
      "Ġsinc": 5226,
      "ennui": 5227,
      "Ġpersonnes": 5228,
      "appellent": 5229,
      "double": 5230,
      "lÃ¢cher": 5231,
      "Ġkilos": 5232,
      "Ġuh": 5233,
      "Ġmontagnes": 5234,
      "ĠrentrÃ©": 5235,
      "Ġprince": 5236,
      "Ġseconde": 5237,
      "caballero": 5238,
      "hÃ´tel": 5239,
      "Ġdemandes": 5240,
      "Ġbranle": 5241,
      "Ġtwer": 5242,
      "ĠÃ©norme": 5243,
      "Ġcroyais": 5244,
      "Ġpreuve": 5245,
      "Ġkiffe": 5246,
      "installe": 5247,
      "ĠobligÃ©": 5248,
      "dÃ©gage": 5249,
      "ĠnumÃ©ro": 5250,
      "ĠbÃ©nÃ©f": 5251,
      "Ġveines": 5252,
      "10": 5253,
      "ddy": 5254,
      "gam": 5255,
      "ich": 5256,
      "ipi": 5257,
      "ken": 5258,
      "lit": 5259,
      "ny": 5260,
      "ock": 5261,
      "pute": 5262,
      "sale": 5263,
      "tail": 5264,
      "uuh": 5265,
      "Ġdat": 5266,
      "Ġloi": 5267,
      "Ġlut": 5268,
      "Ġliens": 5269,
      "Ġpin": 5270,
      "Ġpages": 5271,
      "Ġcir": 5272,
      "Ġcros": 5273,
      "ĠcÃ©lÃ©": 5274,
      "Ġcimet": 5275,
      "ouilles": 5276,
      "Ġmine": 5277,
      "Ġmob": 5278,
      "ondes": 5279,
      "Ġsain": 5280,
      "Ġsad": 5281,
      "Ġsay": 5282,
      "Ġsoss": 5283,
      "quins": 5284,
      "Ġtaire": 5285,
      "Ã©ma": 5286,
      "rez": 5287,
      "Ġjunk": 5288,
      "asc": 5289,
      "isi": 5290,
      "Ġfro": 5291,
      "Ġfal": 5292,
      "ĠfÃª": 5293,
      "Ġbet": 5294,
      "ĠbÃªt": 5295,
      "eules": 5296,
      "Ġact": 5297,
      "Ġdeal": 5298,
      "Ġric": 5299,
      "Ġrole": 5300,
      "omÃ©": 5301,
      "ĠnÃ´tres": 5302,
      "ini": 5303,
      "Ġgucci": 5304,
      "Ġenc": 5305,
      "ceaux": 5306,
      "Ġchris": 5307,
      "ĠhÃ´": 5308,
      "Ġpardon": 5309,
      "Ġaut": 5310,
      "Ġautom": 5311,
      "rix": 5312,
      "georgio": 5313,
      "Ã©conne": 5314,
      "ĠdÃ©te": 5315,
      "ĠdÃ©range": 5316,
      "ĠtrÃ´ne": 5317,
      "onses": 5318,
      "prie": 5319,
      "ardi": 5320,
      "Ġseins": 5321,
      "Ġsecret": 5322,
      "Ġfroi": 5323,
      "Ġcome": 5324,
      "ĠrÃ©seau": 5325,
      "Ġfaisant": 5326,
      "Ġsaoul": 5327,
      "Ġfinissent": 5328,
      "plaud": 5329,
      "Ġcarre": 5330,
      "toires": 5331,
      "Ġcheval": 5332,
      "gars": 5333,
      "trans": 5334,
      "ĠbarriÃ¨res": 5335,
      "Ġclash": 5336,
      "obli": 5337,
      "illÃ©s": 5338,
      "Ġserai": 5339,
      "Ġseront": 5340,
      "existe": 5341,
      "Ġ13": 5342,
      "Ġ15": 5343,
      "Ġcasino": 5344,
      "Ġbalade": 5345,
      "ĠdÃ©coupe": 5346,
      "arrange": 5347,
      "guÃ©": 5348,
      "biff": 5349,
      "Ġviser": 5350,
      "Ġderni": 5351,
      "Ġcourage": 5352,
      "Ġfoutent": 5353,
      "Ġvoulaient": 5354,
      "visible": 5355,
      "prod": 5356,
      "Ġdope": 5357,
      "Ġdiront": 5358,
      "Ġabsent": 5359,
      "crack": 5360,
      "Ġsyl": 5361,
      "ferai": 5362,
      "issement": 5363,
      "Ġclips": 5364,
      "Ġvoyous": 5365,
      "Ġvoyages": 5366,
      "vresse": 5367,
      "hola": 5368,
      "Ġfix": 5369,
      "Ġvoor": 5370,
      "Ġcrever": 5371,
      "ĠrÃ©ser": 5372,
      "barque": 5373,
      "ĠÃ©vite": 5374,
      "calcule": 5375,
      "Ġcamp": 5376,
      "celui": 5377,
      "Ġmasque": 5378,
      "Ġattendu": 5379,
      "fumer": 5380,
      "izon": 5381,
      "Ġpaquet": 5382,
      "Ġreflet": 5383,
      "euspi": 5384,
      "Ġbicrave": 5385,
      "excuse": 5386,
      "ĠbÃ¢tards": 5387,
      "Ġvagues": 5388,
      "Ġfake": 5389,
      "prennent": 5390,
      "Ġrappeler": 5391,
      "prÃ©sente": 5392,
      "bloc": 5393,
      "Ġfrangin": 5394,
      "ĠbÃ¢timents": 5395,
      "ĠarrÃªter": 5396,
      "Ġjoints": 5397,
      "ĠcollÃ¨gues": 5398,
      "investis": 5399,
      "Ġchialer": 5400,
      "aw": 5401,
      "bous": 5402,
      "back": 5403,
      "dÃ©p": 5404,
      "fa": 5405,
      "fu": 5406,
      "fous": 5407,
      "gis": 5408,
      "gite": 5409,
      "ides": 5410,
      "ms": 5411,
      "marre": 5412,
      "mauvais": 5413,
      "pent": 5414,
      "ru": 5415,
      "rentre": 5416,
      "sortir": 5417,
      "Ġait": 5418,
      "Ġombres": 5419,
      "Ġdil": 5420,
      "ĠlumiÃ¨res": 5421,
      "Ġpoig": 5422,
      "Ġmun": 5423,
      "Ġmem": 5424,
      "ĠsÃ©d": 5425,
      "queur": 5426,
      "Ġtot": 5427,
      "Ġjo": 5428,
      "Ġjolie": 5429,
      "Ġjoies": 5430,
      "asy": 5431,
      "isser": 5432,
      "aro": 5433,
      "Ġbim": 5434,
      "euil": 5435,
      "esty": 5436,
      "Ġrus": 5437,
      "Ġroy": 5438,
      "Ġroll": 5439,
      "Ġralent": 5440,
      "Ġnour": 5441,
      "Ġgou": 5442,
      "cht": 5443,
      "chois": 5444,
      "alÃ©": 5445,
      "devant": 5446,
      "rac": 5447,
      "Ġchute": 5448,
      "ĠhÃ©l": 5449,
      "Ġparado": 5450,
      "apÃ©": 5451,
      "Ġyork": 5452,
      "rimes": 5453,
      "rick": 5454,
      "endormir": 5455,
      "Ã©tu": 5456,
      "Ã©touffe": 5457,
      "Ġouuuh": 5458,
      "ĠdÃ©gu": 5459,
      "Ġviz": 5460,
      "parles": 5461,
      "ueil": 5462,
      "Ġkill": 5463,
      "Ġwal": 5464,
      "Ã´les": 5465,
      "Ġdisci": 5466,
      "Ġceinture": 5467,
      "Ġprofond": 5468,
      "ĠÃ©qui": 5469,
      "ayo": 5470,
      "Ġboug": 5471,
      "Ġzon": 5472,
      "Ġmarrant": 5473,
      "Ġdevenus": 5474,
      "Ġguet": 5475,
      "Ġtraces": 5476,
      "Ġbonjour": 5477,
      "oyÃ©": 5478,
      "Ã©rien": 5479,
      "ĠapprÃ©c": 5480,
      "Ġclic": 5481,
      "couple": 5482,
      "Ġservi": 5483,
      "Ġforc": 5484,
      "Ġsud": 5485,
      "Ġcave": 5486,
      "ĠdÃ©cor": 5487,
      "ĠdÃ©cidÃ©": 5488,
      "Ġcrade": 5489,
      "Ġcalifor": 5490,
      "ĠpensÃ©": 5491,
      "connu": 5492,
      "connait": 5493,
      "aki": 5494,
      "akim": 5495,
      "Ġ200": 5496,
      "Ġemploi": 5497,
      "ĠcertifiÃ©": 5498,
      "Ġcharb": 5499,
      "Ġminimum": 5500,
      "culÃ©": 5501,
      "Ġpropres": 5502,
      "Ġautrement": 5503,
      "ĠcÃ´te": 5504,
      "Ġheureusement": 5505,
      "Ġsmic": 5506,
      "Ġbouts": 5507,
      "Ġbled": 5508,
      "dern": 5509,
      "Ġdrame": 5510,
      "Ġbud": 5511,
      "vouloir": 5512,
      "Ġbabe": 5513,
      "affiche": 5514,
      "Ġvoient": 5515,
      "illage": 5516,
      "Ġefforts": 5517,
      "Ġrencont": 5518,
      "Ġrencontre": 5519,
      "Ġportent": 5520,
      "ĠarrivÃ©": 5521,
      "dojo": 5522,
      "Ġbelge": 5523,
      "Ġsoigne": 5524,
      "ĠtÃ©lÃ©phone": 5525,
      "Ġgrail": 5526,
      "grette": 5527,
      "iendrai": 5528,
      "ĠrÃ¨gle": 5529,
      "ĠfusÃ©e": 5530,
      "Ġnotes": 5531,
      "Ġtechniques": 5532,
      "Ġfatigue": 5533,
      "Ġtrompe": 5534,
      "Ġsample": 5535,
      "Ġpoints": 5536,
      "Ġclassiques": 5537,
      "ything": 5538,
      "aucune": 5539,
      "Ġtension": 5540,
      "Ġbulles": 5541,
      "expliquer": 5542,
      "cÃ´tÃ©": 5543,
      "Ġnerfs": 5544,
      "Ġhardcore": 5545,
      "sinon": 5546,
      "Ġsouhaite": 5547,
      "enchaÃ®ne": 5548,
      "ĠcontrÃ´ler": 5549,
      "ĠÃ©crits": 5550,
      "Ġlentement": 5551,
      "ĠcÃ´tÃ©s": 5552,
      "Ġdingueries": 5553,
      "quilibre": 5554,
      "baisse": 5555,
      "hun": 5556,
      "ivresse": 5557,
      "lar": 5558,
      "mus": 5559,
      "mÃªmes": 5560,
      "og": 5561,
      "pie": 5562,
      "pton": 5563,
      "rance": 5564,
      "sat": 5565,
      "soit": 5566,
      "spire": 5567,
      "tais": 5568,
      "toc": 5569,
      "tures": 5570,
      "uent": 5571,
      "woof": 5572,
      "Ġdre": 5573,
      "Ġdent": 5574,
      "Ġpaille": 5575,
      "ĠpÃ©ch": 5576,
      "aig": 5577,
      "Ġcur": 5578,
      "Ġmouve": 5579,
      "Ġspect": 5580,
      "quier": 5581,
      "Ġtre": 5582,
      "rett": 5583,
      "Ġjnou": 5584,
      "Ġfailles": 5585,
      "Ġvr": 5586,
      "Ġvole": 5587,
      "ĠvÃ©ri": 5588,
      "Ġboit": 5589,
      "ĠbÃªtes": 5590,
      "oine": 5591,
      "Ġdealer": 5592,
      "ĠnÃ©s": 5593,
      "ĠnaÃ®tre": 5594,
      "ina": 5595,
      "intÃ©rieur": 5596,
      "Ġgeste": 5597,
      "ause": 5598,
      "alte": 5599,
      "Ġensuite": 5600,
      "dev": 5601,
      "cevoir": 5602,
      "lace": 5603,
      "Ġchel": 5604,
      "Ġchinois": 5605,
      "iem": 5606,
      "ĠhÃ©s": 5607,
      "Ġhoney": 5608,
      "Ġplaindre": 5609,
      "andes": 5610,
      "ander": 5611,
      "rige": 5612,
      "ĠsiÃ¨": 5613,
      "ontÃ©": 5614,
      "Ġreal": 5615,
      "Ġrefaire": 5616,
      "sid": 5617,
      "tudio": 5618,
      "ĠdÃ©ch": 5619,
      "avy": 5620,
      "Ġtraine": 5621,
      "Ġdira": 5622,
      "igno": 5623,
      "partout": 5624,
      "assume": 5625,
      "Ġcoul": 5626,
      "Ġcouille": 5627,
      "Ġwax": 5628,
      "Ġcoke": 5629,
      "Ã¢t": 5630,
      "Ã¢tre": 5631,
      "Ġcondam": 5632,
      "Ġtony": 5633,
      "Ġbrume": 5634,
      "idÃ©es": 5635,
      "ĠcrÃ¨me": 5636,
      "Ġcrash": 5637,
      "Ġcrist": 5638,
      "Ġpartage": 5639,
      "raph": 5640,
      "ĠÃ©tant": 5641,
      "Ġzou": 5642,
      "Ġmarquer": 5643,
      "Ġcartes": 5644,
      "Ġdevise": 5645,
      "attente": 5646,
      "Ġperdus": 5647,
      "Ġdirection": 5648,
      "ensemble": 5649,
      "appuie": 5650,
      "Ġapproche": 5651,
      "Ġrappes": 5652,
      "Ġsalon": 5653,
      "coupe": 5654,
      "Ġiv": 5655,
      "Ġivre": 5656,
      "Ã©nar": 5657,
      "Ġcacher": 5658,
      "Ġcomportement": 5659,
      "ĠmÃ©chants": 5660,
      "Ġmissi": 5661,
      "ongÃ©": 5662,
      "Ġferais": 5663,
      "Ġfermer": 5664,
      "Ġcoupable": 5665,
      "Ġmoteur": 5666,
      "Ġactes": 5667,
      "Ġlook": 5668,
      "Ġconst": 5669,
      "Ġesquimaux": 5670,
      "Ġentends": 5671,
      "ĠentourÃ©": 5672,
      "Ġcercle": 5673,
      "partir": 5674,
      "Ġsaute": 5675,
      "Ã©vade": 5676,
      "Ġfamilles": 5677,
      "Ġfiler": 5678,
      "ĠpÃ©tard": 5679,
      "prÃ©pare": 5680,
      "probl": 5681,
      "Ġterrible": 5682,
      "Ġchamps": 5683,
      "Ġprice": 5684,
      "ĠdÃ©fonce": 5685,
      "ĠrÃ©ponses": 5686,
      "Ġsemaines": 5687,
      "Ġmeilleures": 5688,
      "balance": 5689,
      "Ġtripes": 5690,
      "bert": 5691,
      "Ġmentir": 5692,
      "Ġbrave": 5693,
      "humeur": 5694,
      "Ġtransforme": 5695,
      "olly": 5696,
      "lettes": 5697,
      "ĠrÃ©cup": 5698,
      "Ġfument": 5699,
      "Ġvictoires": 5700,
      "bels": 5701,
      "Ġcopine": 5702,
      "Ġcontraire": 5703,
      "Ġsquad": 5704,
      "Ġswag": 5705,
      "Ġswitch": 5706,
      "capte": 5707,
      "Ġgrec": 5708,
      "frÃ©rot": 5709,
      "Ġvague": 5710,
      "Ġhiver": 5711,
      "ĠchÃ¨ques": 5712,
      "ĠchaÃ®nes": 5713,
      "Ġpreuves": 5714,
      "----": 5715,
      "Ġsouhait": 5716,
      "Ġainsi": 5717,
      "Ġcontinuer": 5718,
      "Ġconstruire": 5719,
      "Ġlorsque": 5720,
      "Ġouvrir": 5721,
      "Ġincroyaux": 5722,
      "Ġcapitale": 5723,
      "Ġplacard": 5724,
      "Ġzombies": 5725,
      "ĠdegrÃ©s": 5726,
      "Ġcocktail": 5727,
      "Ġrolex": 5728,
      "Ġvizir": 5729,
      "13": 5730,
      "aa": 5731,
      "ball": 5732,
      "bande": 5733,
      "cy": 5734,
      "cot": 5735,
      "cond": 5736,
      "egen": 5737,
      "frappe": 5738,
      "gv": 5739,
      "gens": 5740,
      "ls": 5741,
      "lan": 5742,
      "lie": 5743,
      "mait": 5744,
      "mne": 5745,
      "mos": 5746,
      "mÃ¨de": 5747,
      "mairo": 5748,
      "nage": 5749,
      "ren": 5750,
      "uche": 5751,
      "ution": 5752,
      "xes": 5753,
      "Ġiss": 5754,
      "Ġdab": 5755,
      "aider": 5756,
      "ouille": 5757,
      "ouci": 5758,
      "ough": 5759,
      "enue": 5760,
      "Ġmass": 5761,
      "Ġmouv": 5762,
      "onom": 5763,
      "Ġsl": 5764,
      "Ġsco": 5765,
      "Ġslow": 5766,
      "quest": 5767,
      "Ġtrap": 5768,
      "Ġtenir": 5769,
      "Ġtienne": 5770,
      "Ġjeter": 5771,
      "Ġquasi": 5772,
      "asile": 5773,
      "Ġfig": 5774,
      "Ġfrois": 5775,
      "Ġfif": 5776,
      "Ġfull": 5777,
      "lets": 5778,
      "aises": 5779,
      "Ġves": 5780,
      "Ġveu": 5781,
      "Ġbye": 5782,
      "oiff": 5783,
      "entendre": 5784,
      "Ġdef": 5785,
      "etÃ©": 5786,
      "Ġrun": 5787,
      "Ġrass": 5788,
      "Ġrum": 5789,
      "Ġranc": 5790,
      "Ġrallume": 5791,
      "Ġrdv": 5792,
      "Ġnor": 5793,
      "Ġgord": 5794,
      "Ã¨vre": 5795,
      "chon": 5796,
      "oro": 5797,
      "ali": 5798,
      "seaux": 5799,
      "rale": 5800,
      "Ġpard": 5801,
      "Ġpardonne": 5802,
      "Ġmonsieur": 5803,
      "Ġyout": 5804,
      "Ġyah": 5805,
      "Ã©teste": 5806,
      "Ġside": 5807,
      "Ġsirop": 5808,
      "Ġmesures": 5809,
      "irt": 5810,
      "Ġrer": 5811,
      "Ã©cart": 5812,
      "Ã©couter": 5813,
      "six": 5814,
      "orter": 5815,
      "parÃ©": 5816,
      "angle": 5817,
      "angent": 5818,
      "Ġkan": 5819,
      "Ġwallah": 5820,
      "Ġcogne": 5821,
      "ĠgrillÃ©": 5822,
      "adore": 5823,
      "Ġalli": 5824,
      "Ġmiel": 5825,
      "eulasse": 5826,
      "Ġsaison": 5827,
      "chercher": 5828,
      "Ġmerdes": 5829,
      "icide": 5830,
      "allÃ´": 5831,
      "attrape": 5832,
      "Ġperdent": 5833,
      "ĠjournÃ©es": 5834,
      "dix": 5835,
      "appelles": 5836,
      "Ġclan": 5837,
      "Ġtournent": 5838,
      "Ġcasa": 5839,
      "Ġcasquette": 5840,
      "Ġflic": 5841,
      "Ġciment": 5842,
      "enfance": 5843,
      "envoler": 5844,
      "Ġprises": 5845,
      "Ġembrouilles": 5846,
      "Ã©rir": 5847,
      "Ġfamil": 5848,
      "bienvenue": 5849,
      "ĠpÃ©tasses": 5850,
      "ĠgenÃ¨ve": 5851,
      "Ġassi": 5852,
      "Ġregardes": 5853,
      "laissez": 5854,
      "Ġperdues": 5855,
      "accÃ©lÃ¨re": 5856,
      "notre": 5857,
      "Ġfucking": 5858,
      "Ġheureuse": 5859,
      "Ġdrapeau": 5860,
      "Ġfinira": 5861,
      "club": 5862,
      "Ġhoe": 5863,
      "Ġcourses": 5864,
      "raÃ®ner": 5865,
      "Ġfreesty": 5866,
      "Ġvoeux": 5867,
      "Ġbourgeois": 5868,
      "ĠlÃ©gal": 5869,
      "Ġtransfor": 5870,
      "Ġtrouble": 5871,
      "barrer": 5872,
      "rappelles": 5873,
      "ĠcrÃ©e": 5874,
      "Ġvalise": 5875,
      "Ġblesse": 5876,
      "Ġblessures": 5877,
      "weed": 5878,
      "acteur": 5879,
      "haegen": 5880,
      "Ġhabits": 5881,
      "Ġpersonnel": 5882,
      "ndrome": 5883,
      "Ġkiffer": 5884,
      "Ġrarement": 5885,
      "Ġbouteilles": 5886,
      "ĠpÃ¢le": 5887,
      "Ġchampagne": 5888,
      "ĠlycÃ©e": 5889,
      "201": 5890,
      "ĠbousillÃ©": 5891,
      "Ã©teindre": 5892,
      "Ġhalls": 5893,
      "Ġsamedi": 5894,
      "ĠchÃ¨que": 5895,
      "piral": 5896,
      "rÃ©veille": 5897,
      "Ġespoirs": 5898,
      "Ġguez": 5899,
      "Ġsortes": 5900,
      "uyer": 5901,
      "Ġglobe": 5902,
      "Ġballon": 5903,
      "Ġrythme": 5904,
      "Ġpirates": 5905,
      "Ġsalopes": 5906,
      "Ġscred": 5907,
      "ĠnÃ©cess": 5908,
      "olverval": 5909,
      "ĠdÃ©gueulasse": 5910,
      "couplet": 5911,
      "bad": 5912,
      "cend": 5913,
      "casser": 5914,
      "dom": 5915,
      "del": 5916,
      "gy": 5917,
      "hdi": 5918,
      "kick": 5919,
      "los": 5920,
      "lines": 5921,
      "mit": 5922,
      "nce": 5923,
      "ool": 5924,
      "pom": 5925,
      "por": 5926,
      "prop": 5927,
      "sors": 5928,
      "ssent": 5929,
      "snow": 5930,
      "umes": 5931,
      "vit": 5932,
      "vitÃ©": 5933,
      "wood": 5934,
      "wolverval": 5935,
      "yn": 5936,
      "zy": 5937,
      "Ġdm": 5938,
      "ĠpÃ©p": 5939,
      "Ġpack": 5940,
      "Ġcancer": 5941,
      "oulÃ©": 5942,
      "ound": 5943,
      "enci": 5944,
      "enlÃ¨ve": 5945,
      "Ġmous": 5946,
      "Ġmien": 5947,
      "Ġsus": 5948,
      "Ġserre": 5949,
      "ĠtassÃ©": 5950,
      "Ã©b": 5951,
      "errain": 5952,
      "Ġquai": 5953,
      "Ġqueue": 5954,
      "Ġfic": 5955,
      "arch": 5956,
      "Ġvap": 5957,
      "ĠvÃ©n": 5958,
      "Ġvente": 5959,
      "Ġbasse": 5960,
      "Ġath": 5961,
      "Ġavez": 5962,
      "med": 5963,
      "ild": 5964,
      "inf": 5965,
      "Ġger": 5966,
      "ori": 5967,
      "rose": 5968,
      "Ãªle": 5969,
      "eldon": 5970,
      "Ġonly": 5971,
      "Ġhal": 5972,
      "Ġhits": 5973,
      "Ġhash": 5974,
      "Ġparent": 5975,
      "Ġmaj": 5976,
      "Ġmater": 5977,
      "ato": 5978,
      "ater": 5979,
      "amnÃ©": 5980,
      "Ã©taient": 5981,
      "Ġouai": 5982,
      "Ġrefait": 5983,
      "Ġrecette": 5984,
      "sique": 5985,
      "icro": 5986,
      "icite": 5987,
      "ffes": 5988,
      "Ġtraite": 5989,
      "Ġvive": 5990,
      "aha": 5991,
      "Ġvieill": 5992,
      "tionne": 5993,
      "ardin": 5994,
      "igner": 5995,
      "parti": 5996,
      "Ġkeuf": 5997,
      "Ġkry": 5998,
      "Ġcouteau": 5999
    },
    "merges": [
      [
        "e",
        "s"
      ],
      [
        "Ġ",
        "d"
      ],
      [
        "Ġ",
        "l"
      ],
      [
        "Ġ",
        "p"
      ],
      [
        "a",
        "i"
      ],
      [
        "Ġ",
        "c"
      ],
      [
        "o",
        "u"
      ],
      [
        "e",
        "n"
      ],
      [
        "Ġ",
        "m"
      ],
      [
        "o",
        "n"
      ],
      [
        "Ġ",
        "s"
      ],
      [
        "q",
        "u"
      ],
      [
        "Ġ",
        "t"
      ],
      [
        "Ã",
        "©"
      ],
      [
        "a",
        "n"
      ],
      [
        "r",
        "e"
      ],
      [
        "Ġ",
        "j"
      ],
      [
        "e",
        "r"
      ],
      [
        "Ġ",
        "qu"
      ],
      [
        "a",
        "s"
      ],
      [
        "i",
        "s"
      ],
      [
        "Ġ",
        "f"
      ],
      [
        "l",
        "e"
      ],
      [
        "a",
        "r"
      ],
      [
        "ai",
        "s"
      ],
      [
        "Ġ",
        "v"
      ],
      [
        "Ġ",
        "b"
      ],
      [
        "e",
        "u"
      ],
      [
        "Ġ",
        "a"
      ],
      [
        "es",
        "t"
      ],
      [
        "o",
        "i"
      ],
      [
        "en",
        "t"
      ],
      [
        "u",
        "n"
      ],
      [
        "Ġd",
        "e"
      ],
      [
        "Ġl",
        "a"
      ],
      [
        "e",
        "t"
      ],
      [
        "t",
        "e"
      ],
      [
        "m",
        "e"
      ],
      [
        "Ġ",
        "Ã"
      ],
      [
        "Ġ",
        "r"
      ],
      [
        "Ġp",
        "as"
      ],
      [
        "ou",
        "r"
      ],
      [
        "i",
        "l"
      ],
      [
        "o",
        "m"
      ],
      [
        "Ġ",
        "n"
      ],
      [
        "i",
        "n"
      ],
      [
        "Ġl",
        "es"
      ],
      [
        "an",
        "s"
      ],
      [
        "Ġ",
        "un"
      ],
      [
        "Ġl",
        "e"
      ],
      [
        "Ġ",
        "g"
      ],
      [
        "Ã",
        "¨"
      ],
      [
        "i",
        "t"
      ],
      [
        "c",
        "h"
      ],
      [
        "a",
        "u"
      ],
      [
        "Ġd",
        "es"
      ],
      [
        "o",
        "r"
      ],
      [
        "r",
        "o"
      ],
      [
        "ĠÃ",
        "ł"
      ],
      [
        "a",
        "l"
      ],
      [
        "Ġd",
        "ans"
      ],
      [
        "u",
        "s"
      ],
      [
        "v",
        "e"
      ],
      [
        "'",
        "s"
      ],
      [
        "Ġc",
        "om"
      ],
      [
        "u",
        "r"
      ],
      [
        "Ġ",
        "et"
      ],
      [
        "Ġ",
        "en"
      ],
      [
        "s",
        "e"
      ],
      [
        "Ã",
        "ª"
      ],
      [
        "e",
        "l"
      ],
      [
        "u",
        "is"
      ],
      [
        "Î",
        "³"
      ],
      [
        "d",
        "e"
      ],
      [
        "c",
        "e"
      ],
      [
        "ou",
        "s"
      ],
      [
        "l",
        "a"
      ],
      [
        "ai",
        "t"
      ],
      [
        "r",
        "a"
      ],
      [
        "i",
        "en"
      ],
      [
        "Ġ",
        "on"
      ],
      [
        "Ġc",
        "h"
      ],
      [
        "Ġqu",
        "e"
      ],
      [
        "an",
        "t"
      ],
      [
        "Ġp",
        "our"
      ],
      [
        "Ġcom",
        "me"
      ],
      [
        "'",
        "m"
      ],
      [
        "i",
        "e"
      ],
      [
        "Ġ",
        "h"
      ],
      [
        "Ġp",
        "ar"
      ],
      [
        "n",
        "e"
      ],
      [
        "eu",
        "x"
      ],
      [
        "ou",
        "t"
      ],
      [
        "l",
        "es"
      ],
      [
        "Ġp",
        "l"
      ],
      [
        "Ġm",
        "a"
      ],
      [
        "'",
        "t"
      ],
      [
        "qu",
        "e"
      ],
      [
        "§",
        "a"
      ],
      [
        "Ġm",
        "on"
      ],
      [
        "eu",
        "r"
      ],
      [
        "Ġj",
        "e"
      ],
      [
        "an",
        "d"
      ],
      [
        "a",
        "t"
      ],
      [
        "Ġqu",
        "i"
      ],
      [
        "Î",
        "µ"
      ],
      [
        "a",
        "p"
      ],
      [
        "Ġa",
        "u"
      ],
      [
        "Ġd",
        "u"
      ],
      [
        "o",
        "s"
      ],
      [
        "Ġt",
        "u"
      ],
      [
        "Ġ",
        "y"
      ],
      [
        "r",
        "i"
      ],
      [
        "a",
        "m"
      ],
      [
        "Ġ",
        "est"
      ],
      [
        "en",
        "d"
      ],
      [
        "ĠÃ",
        "§a"
      ],
      [
        "r",
        "es"
      ],
      [
        "Ã©",
        "t"
      ],
      [
        "Ġs",
        "ur"
      ],
      [
        "Ġpl",
        "us"
      ],
      [
        "t",
        "re"
      ],
      [
        "ai",
        "re"
      ],
      [
        "Ġ",
        "ou"
      ],
      [
        "Ġs",
        "i"
      ],
      [
        "Ġm",
        "es"
      ],
      [
        "o",
        "l"
      ],
      [
        "o",
        "is"
      ],
      [
        "e",
        "m"
      ],
      [
        "i",
        "r"
      ],
      [
        "on",
        "t"
      ],
      [
        "g",
        "e"
      ],
      [
        "el",
        "le"
      ],
      [
        "Ã¨",
        "re"
      ],
      [
        "Ġ",
        "re"
      ],
      [
        "Ã©",
        "c"
      ],
      [
        "ai",
        "n"
      ],
      [
        "Ġun",
        "e"
      ],
      [
        "Ã",
        "ł"
      ],
      [
        "s",
        "i"
      ],
      [
        "Ġm",
        "e"
      ],
      [
        "Ġm",
        "ais"
      ],
      [
        "Ġt",
        "out"
      ],
      [
        "ch",
        "e"
      ],
      [
        "r",
        "Ã©"
      ],
      [
        "i",
        "c"
      ],
      [
        "o",
        "t"
      ],
      [
        "f",
        "f"
      ],
      [
        "m",
        "ent"
      ],
      [
        "Ġm",
        "oi"
      ],
      [
        "t",
        "u"
      ],
      [
        "'",
        "d"
      ],
      [
        "il",
        "le"
      ],
      [
        "a",
        "c"
      ],
      [
        "ve",
        "c"
      ],
      [
        "oi",
        "r"
      ],
      [
        "Ġd",
        "Ã©"
      ],
      [
        "a",
        "v"
      ],
      [
        "a",
        "b"
      ],
      [
        "Ġf",
        "ait"
      ],
      [
        "on",
        "n"
      ],
      [
        "Ġ",
        "o"
      ],
      [
        "au",
        "t"
      ],
      [
        "il",
        "s"
      ],
      [
        "j",
        "e"
      ],
      [
        "t",
        "es"
      ],
      [
        "m",
        "es"
      ],
      [
        "Ġt",
        "r"
      ],
      [
        "on",
        "s"
      ],
      [
        "Ġqu",
        "and"
      ],
      [
        "Ġf",
        "aire"
      ],
      [
        "or",
        "t"
      ],
      [
        "p",
        "e"
      ],
      [
        "Ġv",
        "i"
      ],
      [
        "Ġa",
        "vec"
      ],
      [
        "p",
        "r"
      ],
      [
        "l",
        "i"
      ],
      [
        "a",
        "h"
      ],
      [
        "ro",
        "p"
      ],
      [
        "Ġv",
        "ie"
      ],
      [
        "p",
        "s"
      ],
      [
        "Ġd",
        "i"
      ],
      [
        "en",
        "s"
      ],
      [
        "Ġp",
        "r"
      ],
      [
        "Ãª",
        "me"
      ],
      [
        "er",
        "s"
      ],
      [
        "Ãª",
        "te"
      ],
      [
        "a",
        "g"
      ],
      [
        "t",
        "i"
      ],
      [
        "ar",
        "d"
      ],
      [
        "Ġs",
        "e"
      ],
      [
        "i",
        "g"
      ],
      [
        "p",
        "ar"
      ],
      [
        "u",
        "e"
      ],
      [
        "i",
        "m"
      ],
      [
        "an",
        "g"
      ],
      [
        "oi",
        "n"
      ],
      [
        "our",
        "s"
      ],
      [
        "Ã©",
        "s"
      ],
      [
        "as",
        "s"
      ],
      [
        "Ġ",
        "k"
      ],
      [
        "on",
        "ne"
      ],
      [
        "Ġc",
        "ou"
      ],
      [
        "Ġt",
        "e"
      ],
      [
        "l",
        "er"
      ],
      [
        "m",
        "ais"
      ],
      [
        "Ġb",
        "ien"
      ],
      [
        "'",
        "re"
      ],
      [
        "Ġr",
        "ap"
      ],
      [
        "Ġt",
        "a"
      ],
      [
        "u",
        "x"
      ],
      [
        "Ġn",
        "ous"
      ],
      [
        "Ġt",
        "rop"
      ],
      [
        "Ã¨",
        "s"
      ],
      [
        "u",
        "i"
      ],
      [
        "Ġf",
        "r"
      ],
      [
        "Ã©",
        "e"
      ],
      [
        "c",
        "o"
      ],
      [
        "r",
        "ai"
      ],
      [
        "in",
        "e"
      ],
      [
        "u",
        "m"
      ],
      [
        "u",
        "t"
      ],
      [
        "Ġm",
        "Ãªme"
      ],
      [
        "as",
        "se"
      ],
      [
        "Ġ",
        "w"
      ],
      [
        "Ġ",
        "il"
      ],
      [
        "Ã",
        "´"
      ],
      [
        "Ġc",
        "o"
      ],
      [
        "'",
        "ve"
      ],
      [
        "Î",
        "±"
      ],
      [
        "Î",
        "¸"
      ],
      [
        "l",
        "o"
      ],
      [
        "ro",
        "s"
      ],
      [
        "Ġ",
        "e"
      ],
      [
        "m",
        "oi"
      ],
      [
        "es",
        "s"
      ],
      [
        "i",
        "er"
      ],
      [
        "Ġn",
        "e"
      ],
      [
        "v",
        "er"
      ],
      [
        "Ġs",
        "ans"
      ],
      [
        "ien",
        "s"
      ],
      [
        "Ġv",
        "a"
      ],
      [
        "Ġd",
        "is"
      ],
      [
        "Ġr",
        "ien"
      ],
      [
        "v",
        "ais"
      ],
      [
        "Ġou",
        "ais"
      ],
      [
        "end",
        "s"
      ],
      [
        "Ġt",
        "ou"
      ],
      [
        "i",
        "que"
      ],
      [
        "Ġ",
        "in"
      ],
      [
        "Ġp",
        "eu"
      ],
      [
        "Ġg",
        "r"
      ],
      [
        "Ġc",
        "e"
      ],
      [
        "a",
        "d"
      ],
      [
        "Ġa",
        "v"
      ],
      [
        "t",
        "er"
      ],
      [
        "Ġp",
        "ro"
      ],
      [
        "Ġ",
        "Ã©"
      ],
      [
        "un",
        "e"
      ],
      [
        "e",
        "ah"
      ],
      [
        "p",
        "our"
      ],
      [
        "ai",
        "l"
      ],
      [
        "u",
        "c"
      ],
      [
        "Ã",
        "¢"
      ],
      [
        "f",
        "ais"
      ],
      [
        "an",
        "ce"
      ],
      [
        "et",
        "te"
      ],
      [
        "ro",
        "is"
      ],
      [
        "or",
        "s"
      ],
      [
        "a",
        "y"
      ],
      [
        "t",
        "s"
      ],
      [
        "Ġa",
        "l"
      ],
      [
        "qu",
        "i"
      ],
      [
        "u",
        "it"
      ],
      [
        "em",
        "ps"
      ],
      [
        "eur",
        "s"
      ],
      [
        "Ġc",
        "on"
      ],
      [
        "Ġt",
        "on"
      ],
      [
        "Ġb",
        "r"
      ],
      [
        "Ġs",
        "ont"
      ],
      [
        "c",
        "om"
      ],
      [
        "d",
        "es"
      ],
      [
        "Ġt",
        "ous"
      ],
      [
        "Ġt",
        "oi"
      ],
      [
        "i",
        "re"
      ],
      [
        "a",
        "ge"
      ],
      [
        "Ġm",
        "al"
      ],
      [
        "Ġr",
        "Ã©"
      ],
      [
        ".",
        "."
      ],
      [
        "Ġd",
        "it"
      ],
      [
        "Ã",
        "®"
      ],
      [
        "Ã",
        "»"
      ],
      [
        "Ġp",
        "er"
      ],
      [
        "Ġf",
        "aut"
      ],
      [
        "Ġt",
        "Ãªte"
      ],
      [
        "Ġ",
        "ar"
      ],
      [
        "Ã",
        "¹"
      ],
      [
        "l",
        "Ã©"
      ],
      [
        "Ġ",
        ","
      ],
      [
        "i",
        "d"
      ],
      [
        "in",
        "g"
      ],
      [
        "Ã",
        "§a"
      ],
      [
        "Ġs",
        "uis"
      ],
      [
        "Ġb",
        "ou"
      ],
      [
        "Ġj",
        "us"
      ],
      [
        "Ġf",
        "ais"
      ],
      [
        "Ġs",
        "a"
      ],
      [
        "Ġc",
        "r"
      ],
      [
        "Ġf",
        "in"
      ],
      [
        "Ġ",
        "ai"
      ],
      [
        "Ġpar",
        "t"
      ],
      [
        "m",
        "a"
      ],
      [
        "Î",
        "²"
      ],
      [
        "on",
        "d"
      ],
      [
        "p",
        "l"
      ],
      [
        "Ġm",
        "i"
      ],
      [
        "ra",
        "p"
      ],
      [
        "i",
        "on"
      ],
      [
        "am",
        "ais"
      ],
      [
        "om",
        "b"
      ],
      [
        "Ġl",
        "Ãł"
      ],
      [
        "Ġy",
        "eah"
      ],
      [
        "Ġt",
        "es"
      ],
      [
        "t",
        "Ã©"
      ],
      [
        "er",
        "re"
      ],
      [
        "u",
        "l"
      ],
      [
        "Ġs",
        "t"
      ],
      [
        "eu",
        "l"
      ],
      [
        "an",
        "c"
      ],
      [
        "e",
        "au"
      ],
      [
        "Ġs",
        "on"
      ],
      [
        "ou",
        "v"
      ],
      [
        "Î",
        "¶"
      ],
      [
        "Ġs",
        "ais"
      ],
      [
        "qu",
        "es"
      ],
      [
        "et",
        "s"
      ],
      [
        "Ġt",
        "h"
      ],
      [
        "Ġ",
        "Ã©t"
      ],
      [
        "b",
        "le"
      ],
      [
        "ent",
        "re"
      ],
      [
        "Ġ",
        "elle"
      ],
      [
        "j",
        "ours"
      ],
      [
        "ais",
        "se"
      ],
      [
        "p",
        "er"
      ],
      [
        "Ġn",
        "os"
      ],
      [
        "le",
        "ur"
      ],
      [
        "ch",
        "er"
      ],
      [
        "Ġj",
        "amais"
      ],
      [
        "Ġv",
        "eux"
      ],
      [
        "Î",
        "·"
      ],
      [
        "Ġ",
        "z"
      ],
      [
        "on",
        "c"
      ],
      [
        "end",
        "re"
      ],
      [
        "Ġs",
        "ous"
      ],
      [
        "Ġt",
        "emps"
      ],
      [
        "Ġr",
        "i"
      ],
      [
        "Ġg",
        "ros"
      ],
      [
        "Ġm",
        "ar"
      ],
      [
        "is",
        "e"
      ],
      [
        "Ġc",
        "ar"
      ],
      [
        "Ãª",
        "tre"
      ],
      [
        "i",
        "te"
      ],
      [
        "o",
        "le"
      ],
      [
        "Ġp",
        "la"
      ],
      [
        "Ã¨",
        "res"
      ],
      [
        "Ġm",
        "er"
      ],
      [
        "Ġr",
        "Ãª"
      ],
      [
        "in",
        "s"
      ],
      [
        "ou",
        "te"
      ],
      [
        "s",
        "er"
      ],
      [
        "u",
        "re"
      ],
      [
        "Ġg",
        "ar"
      ],
      [
        "r",
        "ais"
      ],
      [
        "Ġ",
        "ils"
      ],
      [
        "Ġo",
        "Ã¹"
      ],
      [
        "Ġv",
        "rai"
      ],
      [
        "d",
        "ans"
      ],
      [
        "Ġde",
        "v"
      ],
      [
        "t",
        "oi"
      ],
      [
        "Ġd",
        "eux"
      ],
      [
        "oi",
        "t"
      ],
      [
        "b",
        "l"
      ],
      [
        "c",
        "i"
      ],
      [
        "ic",
        "i"
      ],
      [
        "m",
        "er"
      ],
      [
        "Ġqu",
        "oi"
      ],
      [
        "ou",
        "ve"
      ],
      [
        "m",
        "on"
      ],
      [
        "e",
        "y"
      ],
      [
        "Ġc",
        "onn"
      ],
      [
        "u",
        "me"
      ],
      [
        "Ġr",
        "est"
      ],
      [
        "au",
        "x"
      ],
      [
        "Ġn",
        "i"
      ],
      [
        "Ã©",
        "es"
      ],
      [
        "ĠÃ",
        "ª"
      ],
      [
        "Ġgr",
        "and"
      ],
      [
        "al",
        "l"
      ],
      [
        "at",
        "t"
      ],
      [
        "co",
        "re"
      ],
      [
        "Ġl",
        "i"
      ],
      [
        "Ġper",
        "d"
      ],
      [
        "an",
        "de"
      ],
      [
        "qu",
        "and"
      ],
      [
        "Ġmon",
        "de"
      ],
      [
        "Ġau",
        "x"
      ],
      [
        "p",
        "uis"
      ],
      [
        "Ġg",
        "u"
      ],
      [
        "Ġdi",
        "re"
      ],
      [
        "c",
        "k"
      ],
      [
        "o",
        "p"
      ],
      [
        "ou",
        "l"
      ],
      [
        "or",
        "te"
      ],
      [
        "Ġp",
        "le"
      ],
      [
        "or",
        "d"
      ],
      [
        "Ġc",
        "es"
      ],
      [
        "Ġt",
        "ra"
      ],
      [
        "a",
        "ce"
      ],
      [
        "Ġs",
        "h"
      ],
      [
        "Ġj",
        "our"
      ],
      [
        "Ġb",
        "on"
      ],
      [
        "o",
        "y"
      ],
      [
        "an",
        "ge"
      ],
      [
        "Ġtou",
        "jours"
      ],
      [
        "n",
        "es"
      ],
      [
        "Î±",
        "Î³"
      ],
      [
        "o",
        "se"
      ],
      [
        "Ġ",
        "Ã©c"
      ],
      [
        "Ġch",
        "e"
      ],
      [
        "ĠÃª",
        "tre"
      ],
      [
        "v",
        "es"
      ],
      [
        "ch",
        "es"
      ],
      [
        "g",
        "ar"
      ],
      [
        "p",
        "as"
      ],
      [
        "v",
        "re"
      ],
      [
        "d",
        "i"
      ],
      [
        "il",
        "les"
      ],
      [
        "a",
        "re"
      ],
      [
        "it",
        "Ã©"
      ],
      [
        "p",
        "le"
      ],
      [
        "ab",
        "le"
      ],
      [
        "a",
        "que"
      ],
      [
        "en",
        "se"
      ],
      [
        "Ã©",
        "r"
      ],
      [
        "es",
        "p"
      ],
      [
        "ai",
        "me"
      ],
      [
        "en",
        "ce"
      ],
      [
        "ap",
        "p"
      ],
      [
        "Ã©",
        "g"
      ],
      [
        "eu",
        "t"
      ],
      [
        "i",
        "Ã¨re"
      ],
      [
        "Ġp",
        "u"
      ],
      [
        "n",
        "er"
      ],
      [
        "Ġv",
        "u"
      ],
      [
        "Ġy",
        "eux"
      ],
      [
        "Ġv",
        "ous"
      ],
      [
        "Ġa",
        "p"
      ],
      [
        "Ã",
        "§"
      ],
      [
        "t",
        "r"
      ],
      [
        "Ġrap",
        "p"
      ],
      [
        "Ġm",
        "ain"
      ],
      [
        "Ġa",
        "m"
      ],
      [
        "Ġp",
        "ot"
      ],
      [
        "au",
        "d"
      ],
      [
        "Ã©t",
        "ais"
      ],
      [
        "s",
        "ent"
      ],
      [
        "t",
        "ant"
      ],
      [
        "Ġb",
        "i"
      ],
      [
        "t",
        "out"
      ],
      [
        "Ġb",
        "ar"
      ],
      [
        "ou",
        "le"
      ],
      [
        "Ġn",
        "uit"
      ],
      [
        "t",
        "res"
      ],
      [
        "v",
        "ois"
      ],
      [
        "Ġv",
        "eut"
      ],
      [
        "Ġf",
        "ois"
      ],
      [
        "ou",
        "ais"
      ],
      [
        "Ġc",
        "l"
      ],
      [
        "gar",
        "de"
      ],
      [
        "qu",
        "oi"
      ],
      [
        "f",
        "aut"
      ],
      [
        "c",
        "t"
      ],
      [
        "Ġde",
        "m"
      ],
      [
        "a",
        "le"
      ],
      [
        "Ġs",
        "al"
      ],
      [
        "Ġjus",
        "te"
      ],
      [
        "c",
        "ou"
      ],
      [
        "Ġv",
        "ois"
      ],
      [
        "Ã¨",
        "te"
      ],
      [
        "im",
        "p"
      ],
      [
        "Ġgar",
        "s"
      ],
      [
        "Ġp",
        "rÃ©"
      ],
      [
        "o",
        "b"
      ],
      [
        "eu",
        "f"
      ],
      [
        "en",
        "ir"
      ],
      [
        "Ġm",
        "an"
      ],
      [
        "it",
        "s"
      ],
      [
        "il",
        "l"
      ],
      [
        "eu",
        "le"
      ],
      [
        "Ġs",
        "er"
      ],
      [
        "j",
        "Ãł"
      ],
      [
        "Ġp",
        "o"
      ],
      [
        "Ġp",
        "et"
      ],
      [
        "v",
        "i"
      ],
      [
        "Ġpar",
        "le"
      ],
      [
        "'",
        ","
      ],
      [
        "Ġon",
        "t"
      ],
      [
        "Ġ",
        "i"
      ],
      [
        "Ġs",
        "es"
      ],
      [
        "Ġen",
        "core"
      ],
      [
        "Ġf",
        "or"
      ],
      [
        "Ã¨",
        "ne"
      ],
      [
        "el",
        "les"
      ],
      [
        "Ġp",
        "eur"
      ],
      [
        "ai",
        "ne"
      ],
      [
        "ers",
        "onne"
      ],
      [
        "..",
        "."
      ],
      [
        "k",
        "e"
      ],
      [
        "t",
        "t"
      ],
      [
        "ai",
        "r"
      ],
      [
        "e",
        "in"
      ],
      [
        "o",
        "d"
      ],
      [
        "ent",
        "s"
      ],
      [
        "Ġs",
        "u"
      ],
      [
        "Ġpeu",
        "t"
      ],
      [
        "e",
        "x"
      ],
      [
        "Ġ",
        "1"
      ],
      [
        "c",
        "es"
      ],
      [
        "v",
        "iens"
      ],
      [
        "Ġs",
        "eul"
      ],
      [
        "Ġt",
        "our"
      ],
      [
        "Ã©",
        "n"
      ],
      [
        "eu",
        "re"
      ],
      [
        "qu",
        "er"
      ],
      [
        "Ġb",
        "as"
      ],
      [
        "Ġg",
        "ens"
      ],
      [
        "Ġg",
        "ra"
      ],
      [
        "Ġc",
        "as"
      ],
      [
        "Ġav",
        "ant"
      ],
      [
        "Ġmer",
        "de"
      ],
      [
        "Ġc",
        "a"
      ],
      [
        "Ġb",
        "al"
      ],
      [
        "Ġd",
        "Ã©c"
      ],
      [
        "Ġm",
        "ort"
      ],
      [
        "f",
        "aire"
      ],
      [
        "Ġn",
        "an"
      ],
      [
        "i",
        "f"
      ],
      [
        "s",
        "es"
      ],
      [
        "Ġcom",
        "p"
      ],
      [
        "Ġc",
        "ette"
      ],
      [
        "Ġm",
        "Ã©"
      ],
      [
        "ar",
        "r"
      ],
      [
        "oi",
        "re"
      ],
      [
        "Ġe",
        "x"
      ],
      [
        "o",
        "c"
      ],
      [
        "an",
        "n"
      ],
      [
        "Ġmi",
        "eux"
      ],
      [
        "Ã¨",
        "me"
      ],
      [
        "g",
        "u"
      ],
      [
        "i",
        "le"
      ],
      [
        "Ã©",
        "p"
      ],
      [
        "Ġco",
        "eur"
      ],
      [
        "Ġv",
        "oir"
      ],
      [
        "Ġp",
        "h"
      ],
      [
        "si",
        "on"
      ],
      [
        "s",
        "Ã©"
      ],
      [
        "Ġj",
        "eu"
      ],
      [
        "ri",
        "ve"
      ],
      [
        "Ġs",
        "ort"
      ],
      [
        "Ġb",
        "l"
      ],
      [
        "a",
        "Ã®"
      ],
      [
        "Ġs",
        "ens"
      ],
      [
        "Ġf",
        "l"
      ],
      [
        "Ġb",
        "eau"
      ],
      [
        "Ġm",
        "is"
      ],
      [
        "Ġn",
        "o"
      ],
      [
        "b",
        "r"
      ],
      [
        "b",
        "i"
      ],
      [
        "Ġqu",
        "el"
      ],
      [
        "oi",
        "x"
      ],
      [
        "b",
        "re"
      ],
      [
        "Î±",
        "Î²"
      ],
      [
        "com",
        "me"
      ],
      [
        "Ã©t",
        "ait"
      ],
      [
        "Ġo",
        "h"
      ],
      [
        "is",
        "te"
      ],
      [
        "Ġc",
        "i"
      ],
      [
        "am",
        "our"
      ],
      [
        "om",
        "me"
      ],
      [
        "uc",
        "k"
      ],
      [
        "on",
        "g"
      ],
      [
        "Ġ",
        "Ċ"
      ],
      [
        "b",
        "e"
      ],
      [
        "i",
        "es"
      ],
      [
        "m",
        "Ãªme"
      ],
      [
        "Ġm",
        "et"
      ],
      [
        "ail",
        "le"
      ],
      [
        "Ġp",
        "uis"
      ],
      [
        "Ġme",
        "c"
      ],
      [
        "t",
        "en"
      ],
      [
        "Ġf",
        "er"
      ],
      [
        "c",
        "er"
      ],
      [
        "Ġv",
        "er"
      ],
      [
        "Ã´",
        "t"
      ],
      [
        "en",
        "f"
      ],
      [
        "p",
        "h"
      ],
      [
        "an",
        "te"
      ],
      [
        "ag",
        "es"
      ],
      [
        "Ġd",
        "ou"
      ],
      [
        "Ġn",
        "on"
      ],
      [
        "Ġl",
        "eur"
      ],
      [
        "Ġg",
        "o"
      ],
      [
        "ant",
        "s"
      ],
      [
        "Ġc",
        "ra"
      ],
      [
        "Ġs",
        "ou"
      ],
      [
        "Ġch",
        "er"
      ],
      [
        "Ġpas",
        "se"
      ],
      [
        "p",
        "eux"
      ],
      [
        "Ã",
        "¯"
      ],
      [
        "ais",
        "e"
      ],
      [
        "Ġv",
        "is"
      ],
      [
        "f",
        "ait"
      ],
      [
        "Ġj",
        "ou"
      ],
      [
        "ut",
        "ain"
      ],
      [
        "a",
        "me"
      ],
      [
        "o",
        "h"
      ],
      [
        "Ġd",
        "onc"
      ],
      [
        "t",
        "a"
      ],
      [
        "Ġrest",
        "e"
      ],
      [
        "Ġp",
        "i"
      ],
      [
        "Ġc",
        "al"
      ],
      [
        "pr",
        "ends"
      ],
      [
        "c",
        "rois"
      ],
      [
        "z",
        "e"
      ],
      [
        "pr",
        "Ã¨s"
      ],
      [
        "ĠrÃª",
        "ves"
      ],
      [
        "Ġp",
        "eux"
      ],
      [
        "oi",
        "g"
      ],
      [
        "Ġen",
        "f"
      ],
      [
        "ĠdÃ©",
        "jÃł"
      ],
      [
        "Ġd",
        "er"
      ],
      [
        "Ġl",
        "oin"
      ],
      [
        "Ġf",
        "ond"
      ],
      [
        "Ġcou",
        "p"
      ],
      [
        "d",
        "Ã©"
      ],
      [
        "r",
        "is"
      ],
      [
        "Ġa",
        "tt"
      ],
      [
        "ig",
        "h"
      ],
      [
        "Ġre",
        "g"
      ],
      [
        "ang",
        "er"
      ],
      [
        "Ġs",
        "av"
      ],
      [
        "re",
        "m"
      ],
      [
        "Ġch",
        "aque"
      ],
      [
        "Ġp",
        "ens"
      ],
      [
        "o",
        "k"
      ],
      [
        "Ġfr",
        "Ã¨re"
      ],
      [
        "Ġl",
        "aisse"
      ],
      [
        "Ġc",
        "or"
      ],
      [
        "on",
        "de"
      ],
      [
        "ten",
        "ant"
      ],
      [
        "a",
        "vec"
      ],
      [
        "c",
        "onn"
      ],
      [
        "Ġp",
        "ersonne"
      ],
      [
        "n",
        "ent"
      ],
      [
        "Ġche",
        "z"
      ],
      [
        "Ġm",
        "Ã¨re"
      ],
      [
        "es",
        "oin"
      ],
      [
        "Ġe",
        "h"
      ],
      [
        "v",
        "ous"
      ],
      [
        "a",
        "k"
      ],
      [
        "o",
        "w"
      ],
      [
        "Ġc",
        "ont"
      ],
      [
        "leur",
        "s"
      ],
      [
        "Ġp",
        "os"
      ],
      [
        "Ġc",
        "our"
      ],
      [
        "lo",
        "w"
      ],
      [
        "d",
        "s"
      ],
      [
        "Ġn",
        "ouve"
      ],
      [
        "Ġc",
        "ap"
      ],
      [
        "Ġtout",
        "es"
      ],
      [
        "Ġc",
        "rois"
      ],
      [
        "end",
        "ant"
      ],
      [
        "Ġma",
        "t"
      ],
      [
        "Ġa",
        "prÃ¨s"
      ],
      [
        "Ġtou",
        "te"
      ],
      [
        "Ġvi",
        "te"
      ],
      [
        "u",
        "p"
      ],
      [
        "on",
        "e"
      ],
      [
        "Ġs",
        "oir"
      ],
      [
        "g",
        "ent"
      ],
      [
        "en",
        "v"
      ],
      [
        "Ġr",
        "ou"
      ],
      [
        "l",
        "Ãł"
      ],
      [
        "v",
        "ent"
      ],
      [
        "ac",
        "k"
      ],
      [
        "Ġre",
        "m"
      ],
      [
        "Ġs",
        "c"
      ],
      [
        "Ġ",
        "2"
      ],
      [
        "Ġs",
        "ent"
      ],
      [
        "g",
        "ue"
      ],
      [
        "Ġf",
        "ont"
      ],
      [
        "it",
        "es"
      ],
      [
        "ai",
        "ent"
      ],
      [
        "Ġm",
        "il"
      ],
      [
        "f",
        "i"
      ],
      [
        "cou",
        "p"
      ],
      [
        "l",
        "le"
      ],
      [
        "Ġde",
        "puis"
      ],
      [
        "Ġpr",
        "is"
      ],
      [
        "Ġth",
        "e"
      ],
      [
        "i",
        "ons"
      ],
      [
        "Ġt",
        "omb"
      ],
      [
        "ti",
        "on"
      ],
      [
        "Ġv",
        "as"
      ],
      [
        "ff",
        "e"
      ],
      [
        "p",
        "ense"
      ],
      [
        "t",
        "te"
      ],
      [
        "Ġ",
        "ici"
      ],
      [
        "Ġple",
        "in"
      ],
      [
        "Ġm",
        "ot"
      ],
      [
        "m",
        "Ã©"
      ],
      [
        "r",
        "as"
      ],
      [
        "Ġf",
        "eu"
      ],
      [
        "n",
        "s"
      ],
      [
        "r",
        "ait"
      ],
      [
        "Ã¨",
        "ve"
      ],
      [
        "pl",
        "us"
      ],
      [
        "Ġc",
        "ol"
      ],
      [
        "Ġv",
        "ille"
      ],
      [
        "Ġa",
        "c"
      ],
      [
        "Ġtr",
        "Ã¨s"
      ],
      [
        "Ġf",
        "out"
      ],
      [
        "os",
        "es"
      ],
      [
        "Ġc",
        "eux"
      ],
      [
        "Ġs",
        "Ã»"
      ],
      [
        "Ġ",
        "ans"
      ],
      [
        "Ġl",
        "o"
      ],
      [
        "x",
        "x"
      ],
      [
        "Ġs",
        "our"
      ],
      [
        "ay",
        "e"
      ],
      [
        "Ġc",
        "ons"
      ],
      [
        "Ġ",
        "em"
      ],
      [
        "Ġp",
        "e"
      ],
      [
        "Ã©",
        "ri"
      ],
      [
        "Ġb",
        "esoin"
      ],
      [
        "oi",
        "e"
      ],
      [
        "Ġpl",
        "an"
      ],
      [
        "Ãª",
        "t"
      ],
      [
        "a",
        "ch"
      ],
      [
        "Ġ",
        "es"
      ],
      [
        "Ġl",
        "ui"
      ],
      [
        "rap",
        "pe"
      ],
      [
        "s",
        "t"
      ],
      [
        "Ġv",
        "oul"
      ],
      [
        "Ġpla",
        "ce"
      ],
      [
        "Ġ",
        "ent"
      ],
      [
        "le",
        "z"
      ],
      [
        "ass",
        "er"
      ],
      [
        "v",
        "Ã©"
      ],
      [
        "Ġf",
        "ace"
      ],
      [
        "est",
        "e"
      ],
      [
        "Ġh",
        "ey"
      ],
      [
        "p",
        "i"
      ],
      [
        "j",
        "our"
      ],
      [
        "Ġc",
        "er"
      ],
      [
        "v",
        "is"
      ],
      [
        "Ġpot",
        "es"
      ],
      [
        "re",
        "r"
      ],
      [
        "par",
        "t"
      ],
      [
        "Ġfr",
        "Ã¨res"
      ],
      [
        "p",
        "li"
      ],
      [
        "p",
        "asse"
      ],
      [
        "Ġr",
        "es"
      ],
      [
        "at",
        "s"
      ],
      [
        "Ġ",
        "entre"
      ],
      [
        "s",
        "ur"
      ],
      [
        "Ġt",
        "erre"
      ],
      [
        "oin",
        "t"
      ],
      [
        "Ġs",
        "au"
      ],
      [
        "av",
        "ais"
      ],
      [
        "onn",
        "er"
      ],
      [
        "m",
        "an"
      ],
      [
        "Ġl",
        "ong"
      ],
      [
        "ar",
        "rive"
      ],
      [
        "Ġm",
        "o"
      ],
      [
        "Ġau",
        "tres"
      ],
      [
        "f",
        "r"
      ],
      [
        "ou",
        "d"
      ],
      [
        "Ã©",
        "v"
      ],
      [
        "a",
        "de"
      ],
      [
        "t",
        "ou"
      ],
      [
        "Ġn",
        "oir"
      ],
      [
        "att",
        "ends"
      ],
      [
        "ri",
        "Ã¨re"
      ],
      [
        "Ġf",
        "am"
      ],
      [
        "or",
        "m"
      ],
      [
        "Ġd",
        "r"
      ],
      [
        "Ġp",
        "ol"
      ],
      [
        "ch",
        "Ã©"
      ],
      [
        "c",
        "ar"
      ],
      [
        "Ġd",
        "Ã©t"
      ],
      [
        "ai",
        "e"
      ],
      [
        "Ġf",
        "ort"
      ],
      [
        "l",
        "ent"
      ],
      [
        "Ġs",
        "ol"
      ],
      [
        "Ġf",
        "ils"
      ],
      [
        "Ġcom",
        "ment"
      ],
      [
        "Ġmoi",
        "ns"
      ],
      [
        "Ġte",
        "x"
      ],
      [
        "n",
        "Ã©"
      ],
      [
        "Ġv",
        "os"
      ],
      [
        "Ġjus",
        "qu"
      ],
      [
        "Ġf",
        "um"
      ],
      [
        "it",
        "ch"
      ],
      [
        "b",
        "ien"
      ],
      [
        "v",
        "ie"
      ],
      [
        "arr",
        "Ãªte"
      ],
      [
        "y",
        "eah"
      ],
      [
        "Ġf",
        "il"
      ],
      [
        "ou",
        "ver"
      ],
      [
        "Ġs",
        "k"
      ],
      [
        "Ġs",
        "o"
      ],
      [
        "Ġb",
        "e"
      ],
      [
        "us",
        "si"
      ],
      [
        "Ġci",
        "el"
      ],
      [
        "Ġpar",
        "ler"
      ],
      [
        "Ġl",
        "eurs"
      ],
      [
        "Ġp",
        "Ã©t"
      ],
      [
        "Ġp",
        "utain"
      ],
      [
        "at",
        "ion"
      ],
      [
        "t",
        "on"
      ],
      [
        "Ã©",
        "d"
      ],
      [
        "t",
        "h"
      ],
      [
        "o",
        "que"
      ],
      [
        "Ġconn",
        "ais"
      ],
      [
        "b",
        "li"
      ],
      [
        "v",
        "ers"
      ],
      [
        "is",
        "toi"
      ],
      [
        "p",
        "rÃ©"
      ],
      [
        "s",
        "a"
      ],
      [
        "Ġg",
        "en"
      ],
      [
        "em",
        "ent"
      ],
      [
        "t",
        "our"
      ],
      [
        "Ġtr",
        "uc"
      ],
      [
        "g",
        "o"
      ],
      [
        "Ġb",
        "elle"
      ],
      [
        "ai",
        "res"
      ],
      [
        "Ġv",
        "ais"
      ],
      [
        "Ġpour",
        "quoi"
      ],
      [
        "eul",
        "ent"
      ],
      [
        "ole",
        "il"
      ],
      [
        "Ġp",
        "ap"
      ],
      [
        "Ã©",
        "l"
      ],
      [
        "Ġb",
        "la"
      ],
      [
        "e",
        "d"
      ],
      [
        "e",
        "h"
      ],
      [
        "qu",
        "Ã©"
      ],
      [
        "Ġf",
        "em"
      ],
      [
        "h",
        "eure"
      ],
      [
        "Ġs",
        "ouv"
      ],
      [
        "Ġh",
        "ein"
      ],
      [
        "Ġj",
        "ours"
      ],
      [
        "Ġv",
        "ers"
      ],
      [
        "ien",
        "ne"
      ],
      [
        "ille",
        "ur"
      ],
      [
        "Ġgu",
        "eule"
      ],
      [
        "y",
        "le"
      ],
      [
        "Ġpar",
        "is"
      ],
      [
        "Ġv",
        "eulent"
      ],
      [
        "Ġpet",
        "it"
      ],
      [
        "l",
        "ui"
      ],
      [
        "Ġch",
        "ar"
      ],
      [
        "Ġc",
        "ab"
      ],
      [
        "ĠsÃ»",
        "r"
      ],
      [
        "c",
        "on"
      ],
      [
        "Ġ",
        "as"
      ],
      [
        "pr",
        "is"
      ],
      [
        "Ġs",
        "ang"
      ],
      [
        "Ġl",
        "ar"
      ],
      [
        "oi",
        "rÃ©"
      ],
      [
        "p",
        "ro"
      ],
      [
        "Ġt",
        "i"
      ],
      [
        "Ġf",
        "ou"
      ],
      [
        "Ġdi",
        "x"
      ],
      [
        "Ġsh",
        "it"
      ],
      [
        "Ġt",
        "ard"
      ],
      [
        "av",
        "ant"
      ],
      [
        "h",
        "i"
      ],
      [
        "Ġd",
        "ro"
      ],
      [
        "Ã©c",
        "oute"
      ],
      [
        "Ġdev",
        "ant"
      ],
      [
        "m",
        "is"
      ],
      [
        "m",
        "ain"
      ],
      [
        "Ġd",
        "o"
      ],
      [
        "Ġa",
        "ussi"
      ],
      [
        "Ġvi",
        "vre"
      ],
      [
        "conn",
        "ais"
      ],
      [
        "Ġr",
        "entre"
      ],
      [
        "Ġpar",
        "ce"
      ],
      [
        "t",
        "ous"
      ],
      [
        "Ġt",
        "rois"
      ],
      [
        "Ġreg",
        "ard"
      ],
      [
        "l",
        "aisse"
      ],
      [
        "Ġl",
        "ais"
      ],
      [
        "Ġm",
        "y"
      ],
      [
        "Ġt",
        "er"
      ],
      [
        "Ġr",
        "ue"
      ],
      [
        "Ġperd",
        "u"
      ],
      [
        "g",
        "es"
      ],
      [
        "Ġch",
        "am"
      ],
      [
        "Ġd",
        "ur"
      ],
      [
        "Ġm",
        "in"
      ],
      [
        "n",
        "ous"
      ],
      [
        "ent",
        "e"
      ],
      [
        "eur",
        "es"
      ],
      [
        "0",
        "0"
      ],
      [
        "Ġou",
        "i"
      ],
      [
        "ic",
        "k"
      ],
      [
        "Ġp",
        "ri"
      ],
      [
        "Ġm",
        "au"
      ],
      [
        "as",
        "h"
      ],
      [
        "tu",
        "re"
      ],
      [
        "ĠdÃ©",
        "p"
      ],
      [
        "Ġs",
        "ait"
      ],
      [
        "n",
        "i"
      ],
      [
        "ac",
        "c"
      ],
      [
        "c",
        "u"
      ],
      [
        "Ġs",
        "tu"
      ],
      [
        "et",
        "tes"
      ],
      [
        "se",
        "m"
      ],
      [
        "g",
        "ne"
      ],
      [
        "p",
        "es"
      ],
      [
        "Ġ",
        "eu"
      ],
      [
        "Ã§",
        "on"
      ],
      [
        "Ġfam",
        "ille"
      ],
      [
        "h",
        "ui"
      ],
      [
        "s",
        "te"
      ],
      [
        "bl",
        "ie"
      ],
      [
        "Ġmain",
        "tenant"
      ],
      [
        "Ġd",
        "ir"
      ],
      [
        "Ġc",
        "au"
      ],
      [
        "il",
        "ler"
      ],
      [
        "Ġh",
        "eures"
      ],
      [
        "asse",
        "z"
      ],
      [
        "Ġc",
        "ul"
      ],
      [
        "Ġm",
        "us"
      ],
      [
        "Ġf",
        "ac"
      ],
      [
        "ar",
        "gent"
      ],
      [
        "Ġpl",
        "u"
      ],
      [
        "par",
        "le"
      ],
      [
        "h",
        "ey"
      ],
      [
        "Ġb",
        "ais"
      ],
      [
        "ess",
        "es"
      ],
      [
        "Ġm",
        "euf"
      ],
      [
        "Ġb",
        "ille"
      ],
      [
        "ĠÃ©t",
        "ait"
      ],
      [
        "m",
        "i"
      ],
      [
        "Ġw",
        "e"
      ],
      [
        "Ġpro",
        "d"
      ],
      [
        "f",
        "Ã¨re"
      ],
      [
        "Ġ",
        "ann"
      ],
      [
        "Ġt",
        "ant"
      ],
      [
        "Ġa",
        "b"
      ],
      [
        "Ã¨",
        "mes"
      ],
      [
        "ĠrÃª",
        "ve"
      ],
      [
        "r",
        "ien"
      ],
      [
        "Ġm",
        "ets"
      ],
      [
        "Ġt",
        "o"
      ],
      [
        "d",
        "onc"
      ],
      [
        "Ġc",
        "an"
      ],
      [
        "Ã©c",
        "ris"
      ],
      [
        "ain",
        "s"
      ],
      [
        "Ġ",
        "eux"
      ],
      [
        "in",
        "es"
      ],
      [
        "Ġri",
        "mes"
      ],
      [
        "Ġ",
        "im"
      ],
      [
        "Ġ",
        "imp"
      ],
      [
        "Ġma",
        "g"
      ],
      [
        "u",
        "es"
      ],
      [
        "Ġ",
        "id"
      ],
      [
        "us",
        "e"
      ],
      [
        "Ġh",
        "an"
      ],
      [
        "ar",
        "t"
      ],
      [
        "Ġdem",
        "ain"
      ],
      [
        "Ġquel",
        "ques"
      ],
      [
        "jour",
        "d"
      ],
      [
        "c",
        "ra"
      ],
      [
        "Ġpro",
        "bl"
      ],
      [
        "e",
        "ff"
      ],
      [
        "c",
        "s"
      ],
      [
        "h",
        "Ã©"
      ],
      [
        "Ġp",
        "rop"
      ],
      [
        "Ġpr",
        "om"
      ],
      [
        "a",
        "z"
      ],
      [
        "Ġv",
        "oix"
      ],
      [
        "Ġvi",
        "ent"
      ],
      [
        "Ġv",
        "it"
      ],
      [
        "res",
        "sion"
      ],
      [
        "Ġs",
        "y"
      ],
      [
        "Ġs",
        "eule"
      ],
      [
        "Ġau",
        "tre"
      ],
      [
        "a",
        "f"
      ],
      [
        "n",
        "o"
      ],
      [
        "Ġch",
        "aud"
      ],
      [
        "Ġch",
        "oses"
      ],
      [
        "ĠdÃ©",
        "f"
      ],
      [
        "ass",
        "es"
      ],
      [
        "Ġvrai",
        "ment"
      ],
      [
        "is",
        "tes"
      ],
      [
        "omb",
        "re"
      ],
      [
        "f",
        "ois"
      ],
      [
        "Ġc",
        "Ã´"
      ],
      [
        "Ġs",
        "ac"
      ],
      [
        "Ãª",
        "tes"
      ],
      [
        "Ġpr",
        "endre"
      ],
      [
        "Ġcon",
        "tre"
      ],
      [
        "Ġp",
        "orte"
      ],
      [
        "Ġh",
        "istoi"
      ],
      [
        "os",
        "se"
      ],
      [
        "ĠdÃ©",
        "b"
      ],
      [
        "ĠdÃ©",
        "s"
      ],
      [
        "Ġpu",
        "te"
      ],
      [
        "d",
        "is"
      ],
      [
        "f",
        "er"
      ],
      [
        "Ġf",
        "uck"
      ],
      [
        "Ġv",
        "ol"
      ],
      [
        "Ġcas",
        "h"
      ],
      [
        "Ġt",
        "ap"
      ],
      [
        "Ġf",
        "low"
      ],
      [
        "Ġbeau",
        "coup"
      ],
      [
        "Ġp",
        "rem"
      ],
      [
        "ai",
        "mer"
      ],
      [
        "an",
        "e"
      ],
      [
        "Ġh",
        "eure"
      ],
      [
        "anc",
        "es"
      ],
      [
        "Ġder",
        "n"
      ],
      [
        "o",
        "Ã¹"
      ],
      [
        "Ġh",
        "aine"
      ],
      [
        "app",
        "elle"
      ],
      [
        "Ġmet",
        "tre"
      ],
      [
        "o",
        "o"
      ],
      [
        "Ġs",
        "p"
      ],
      [
        "Ġs",
        "oleil"
      ],
      [
        "Ġh",
        "aut"
      ],
      [
        "Ġpe",
        "ine"
      ],
      [
        "b",
        "Ã©"
      ],
      [
        "n",
        "on"
      ],
      [
        "Ġp",
        "at"
      ],
      [
        "Ġs",
        "m"
      ],
      [
        "ent",
        "Ã´t"
      ],
      [
        "Ġn",
        "u"
      ],
      [
        "Ġre",
        "garde"
      ],
      [
        "pe",
        "ct"
      ],
      [
        "Ġmau",
        "vais"
      ],
      [
        "Ġ",
        "assez"
      ],
      [
        "Ġc",
        "ri"
      ],
      [
        "is",
        "se"
      ],
      [
        "Ġr",
        "am"
      ],
      [
        "ĠrÃ©",
        "p"
      ],
      [
        "Ġfor",
        "ce"
      ],
      [
        "Ġgen",
        "re"
      ],
      [
        "Ġb",
        "at"
      ],
      [
        "al",
        "ors"
      ],
      [
        "h",
        "eur"
      ],
      [
        "i",
        "ff"
      ],
      [
        "om",
        "mes"
      ],
      [
        "a",
        "Ã¯"
      ],
      [
        "d",
        "u"
      ],
      [
        "g",
        "ra"
      ],
      [
        "Ġd",
        "onne"
      ],
      [
        "Ġl",
        "Ã¢"
      ],
      [
        "Ġp",
        "an"
      ],
      [
        "Ġp",
        "au"
      ],
      [
        "Ġp",
        "ie"
      ],
      [
        "Ġs",
        "em"
      ],
      [
        "Ġb",
        "out"
      ],
      [
        "Ġme",
        "illeur"
      ],
      [
        "onn",
        "es"
      ],
      [
        "Ġb",
        "le"
      ],
      [
        "Ġb",
        "onne"
      ],
      [
        "rÃ©",
        "s"
      ],
      [
        "Ġsa",
        "le"
      ],
      [
        "b",
        "les"
      ],
      [
        "c",
        "re"
      ],
      [
        "d",
        "er"
      ],
      [
        "v",
        "ant"
      ],
      [
        "Ġch",
        "ance"
      ],
      [
        "at",
        "re"
      ],
      [
        "o",
        "ot"
      ],
      [
        "it",
        "u"
      ],
      [
        "Ġdro",
        "gue"
      ],
      [
        "f",
        "in"
      ],
      [
        "Ġd",
        "ar"
      ],
      [
        "Ġl",
        "im"
      ],
      [
        "elle",
        "ment"
      ],
      [
        "Ġp",
        "ou"
      ],
      [
        "Ġqu",
        "it"
      ],
      [
        "Ġin",
        "s"
      ],
      [
        "Ġperd",
        "re"
      ],
      [
        "i",
        "de"
      ],
      [
        "t",
        "ent"
      ],
      [
        "es",
        "h"
      ],
      [
        "Ġc",
        "li"
      ],
      [
        "ard",
        "s"
      ],
      [
        "en",
        "de"
      ],
      [
        "ment",
        "s"
      ],
      [
        "Ġdi",
        "eu"
      ],
      [
        "pour",
        "quoi"
      ],
      [
        "Ġd",
        "ra"
      ],
      [
        "it",
        "er"
      ],
      [
        "Ġau",
        "c"
      ],
      [
        "Ġp",
        "Ã¨re"
      ],
      [
        "ĠÃ",
        "¢"
      ],
      [
        "Ġfin",
        "i"
      ],
      [
        "h",
        "ors"
      ],
      [
        "en",
        "u"
      ],
      [
        "Ġr",
        "ac"
      ],
      [
        "b",
        "al"
      ],
      [
        "Ġm",
        "ic"
      ],
      [
        "Ġf",
        "rÃ©"
      ],
      [
        "au",
        "rais"
      ],
      [
        "ve",
        "au"
      ],
      [
        "Ġno",
        "tre"
      ],
      [
        "Ġs",
        "oit"
      ],
      [
        "Ġb",
        "an"
      ],
      [
        "Ġcou",
        "ple"
      ],
      [
        "Ġal",
        "lez"
      ],
      [
        "d",
        "re"
      ],
      [
        "f",
        "s"
      ],
      [
        "Ġcor",
        "ps"
      ],
      [
        "Ġmil",
        "li"
      ],
      [
        "Ġn",
        "Ã©g"
      ],
      [
        "Ġdans",
        "e"
      ],
      [
        "ess",
        "aye"
      ],
      [
        "g",
        "ros"
      ],
      [
        "Ġp",
        "ay"
      ],
      [
        "Ãª",
        "mes"
      ],
      [
        "Ġch",
        "ant"
      ],
      [
        "esp",
        "oir"
      ],
      [
        "tou",
        "jours"
      ],
      [
        "Ġt",
        "Ã©"
      ],
      [
        "Ġt",
        "ri"
      ],
      [
        "Ġr",
        "ais"
      ],
      [
        "Ġr",
        "oule"
      ],
      [
        "pr",
        "endre"
      ],
      [
        "co",
        "ol"
      ],
      [
        "b",
        "er"
      ],
      [
        "ri",
        "r"
      ],
      [
        "Ġap",
        "p"
      ],
      [
        "c",
        "ours"
      ],
      [
        "h",
        "ab"
      ],
      [
        "n",
        "an"
      ],
      [
        "is",
        "s"
      ],
      [
        "ar",
        "re"
      ],
      [
        "Ġb",
        "u"
      ],
      [
        "ĠÃ©",
        "p"
      ],
      [
        "com",
        "p"
      ],
      [
        "Ġmus",
        "ique"
      ],
      [
        "f",
        "or"
      ],
      [
        "g",
        "er"
      ],
      [
        "v",
        "oul"
      ],
      [
        "ou",
        "blie"
      ],
      [
        "te",
        "m"
      ],
      [
        "Ġdem",
        "ande"
      ],
      [
        "Ġcomp",
        "te"
      ],
      [
        "c",
        "r"
      ],
      [
        "t",
        "rop"
      ],
      [
        "p",
        "Ã©"
      ],
      [
        "Ġqu",
        "ar"
      ],
      [
        "Ġv",
        "iens"
      ],
      [
        "ur",
        "es"
      ],
      [
        "Ġen",
        "vie"
      ],
      [
        "Ġch",
        "ose"
      ],
      [
        "f",
        "uck"
      ],
      [
        "n",
        "Ã©e"
      ],
      [
        "r",
        "Ãª"
      ],
      [
        "Ġm",
        "or"
      ],
      [
        "ang",
        "Ã©"
      ],
      [
        "Ġal",
        "l"
      ],
      [
        "Ġmot",
        "s"
      ],
      [
        "c",
        "l"
      ],
      [
        "Ġtr",
        "ain"
      ],
      [
        "aÃ®",
        "t"
      ],
      [
        "b",
        "ou"
      ],
      [
        "Ġp",
        "res"
      ],
      [
        "Ġb",
        "itch"
      ],
      [
        "it",
        "i"
      ],
      [
        "Ġcou",
        "ps"
      ],
      [
        "Ġgu",
        "erre"
      ],
      [
        "g",
        "r"
      ],
      [
        "o",
        "re"
      ],
      [
        "Ġm",
        "ent"
      ],
      [
        "Ġt",
        "ellement"
      ],
      [
        "Ġa",
        "d"
      ],
      [
        "au",
        "tre"
      ],
      [
        "f",
        "ume"
      ],
      [
        "in",
        "qui"
      ],
      [
        "Ġlar",
        "mes"
      ],
      [
        "Ġp",
        "ire"
      ],
      [
        "Ġv",
        "oy"
      ],
      [
        "Ġfin",
        "ir"
      ],
      [
        "Ġrapp",
        "eurs"
      ],
      [
        "Ġpo",
        "te"
      ],
      [
        "Ġjeu",
        "nes"
      ],
      [
        "f",
        "ond"
      ],
      [
        "Ġ",
        "?"
      ],
      [
        "ou",
        "e"
      ],
      [
        "te",
        "l"
      ],
      [
        "Ġo",
        "k"
      ],
      [
        "Ġvi",
        "de"
      ],
      [
        "Ġf",
        "au"
      ],
      [
        "Ġcom",
        "m"
      ],
      [
        "Ġh",
        "o"
      ],
      [
        "Ġal",
        "ler"
      ],
      [
        "Ġal",
        "ors"
      ],
      [
        "Ġtex",
        "tes"
      ],
      [
        "h",
        "er"
      ],
      [
        "k",
        "s"
      ],
      [
        "Ġp",
        "ous"
      ],
      [
        "a",
        "ve"
      ],
      [
        "m",
        "m"
      ],
      [
        "Ġ",
        "3"
      ],
      [
        "Ġb",
        "o"
      ],
      [
        "Ġb",
        "ab"
      ],
      [
        "oi",
        "d"
      ],
      [
        "Ã©t",
        "Ã©"
      ],
      [
        "si",
        "ble"
      ],
      [
        "qui",
        "pe"
      ],
      [
        "b",
        "on"
      ],
      [
        "Ġp",
        "ense"
      ],
      [
        "Ġj",
        "oint"
      ],
      [
        "os",
        "s"
      ],
      [
        "Ġrest",
        "er"
      ],
      [
        "r",
        "ent"
      ],
      [
        "Ġ",
        "an"
      ],
      [
        "Ġv",
        "ont"
      ],
      [
        "ch",
        "ent"
      ],
      [
        "em",
        "p"
      ],
      [
        "Ġpr",
        "Ã¨s"
      ],
      [
        "Ġpu",
        "tes"
      ],
      [
        "Ġsour",
        "ire"
      ],
      [
        "a",
        "ff"
      ],
      [
        "i",
        "o"
      ],
      [
        "n",
        "ique"
      ],
      [
        "Ġ",
        "ass"
      ],
      [
        "Ġl",
        "ou"
      ],
      [
        "Ġb",
        "Ã¢"
      ],
      [
        "Ġa",
        "ur"
      ],
      [
        "Ġri",
        "me"
      ],
      [
        "a",
        "te"
      ],
      [
        "c",
        "Ã©"
      ],
      [
        "v",
        "res"
      ],
      [
        "Ġm",
        "iens"
      ],
      [
        "Ġf",
        "ai"
      ],
      [
        "Ġpr",
        "ends"
      ],
      [
        "Ġst",
        "yle"
      ],
      [
        "Ġpot",
        "o"
      ],
      [
        "Ġcher",
        "che"
      ],
      [
        "Ġbille",
        "ts"
      ],
      [
        "Ġd",
        "oig"
      ],
      [
        "Ġa",
        "h"
      ],
      [
        "ent",
        "ends"
      ],
      [
        "ot",
        "o"
      ],
      [
        "Ġmain",
        "s"
      ],
      [
        "Ġgra",
        "ve"
      ],
      [
        "Ã©p",
        "oque"
      ],
      [
        "sem",
        "ble"
      ],
      [
        "Ġprobl",
        "Ã¨mes"
      ],
      [
        "Ġc",
        "el"
      ],
      [
        "Ġpas",
        "ser"
      ],
      [
        "Ġ",
        "it"
      ],
      [
        "on",
        "ce"
      ],
      [
        "Ġs",
        "uc"
      ],
      [
        "Ġf",
        "ous"
      ],
      [
        "Ġa",
        "ff"
      ],
      [
        "Ġch",
        "anger"
      ],
      [
        "Ġav",
        "oir"
      ],
      [
        "Ġt",
        "ire"
      ],
      [
        "Ġy",
        "ou"
      ],
      [
        "Ġcr",
        "oire"
      ],
      [
        "Ã´",
        "le"
      ],
      [
        "ĠÃ©t",
        "oi"
      ],
      [
        "h",
        "o"
      ],
      [
        "j",
        "us"
      ],
      [
        "Ġp",
        "ai"
      ],
      [
        "Ġm",
        "Ãªmes"
      ],
      [
        "er",
        "ai"
      ],
      [
        "Ġn",
        "om"
      ],
      [
        "av",
        "oir"
      ],
      [
        "Ġnouve",
        "au"
      ],
      [
        "p",
        "la"
      ],
      [
        "Ġp",
        "endant"
      ],
      [
        "Ã©",
        "ch"
      ],
      [
        "Ġv",
        "oi"
      ],
      [
        "Ġg",
        "ag"
      ],
      [
        "f",
        "e"
      ],
      [
        "j",
        "o"
      ],
      [
        "u",
        "le"
      ],
      [
        "Ġf",
        "i"
      ],
      [
        "Ġg",
        "al"
      ],
      [
        "ro",
        "t"
      ],
      [
        "b",
        "es"
      ],
      [
        "c",
        "ont"
      ],
      [
        "r",
        "oule"
      ],
      [
        "Ġ",
        "or"
      ],
      [
        "enf",
        "er"
      ],
      [
        "igh",
        "t"
      ],
      [
        "Ġfac",
        "ile"
      ],
      [
        "c",
        "ette"
      ],
      [
        "x",
        "e"
      ],
      [
        "est",
        "in"
      ],
      [
        "ass",
        "Ã©"
      ],
      [
        "voul",
        "ais"
      ],
      [
        "r",
        "it"
      ],
      [
        "v",
        "oir"
      ],
      [
        "Ġc",
        "ours"
      ],
      [
        "Ġc",
        "asse"
      ],
      [
        "an",
        "che"
      ],
      [
        "Ġf",
        "ume"
      ],
      [
        "ar",
        "s"
      ],
      [
        "Ġb",
        "ra"
      ],
      [
        "Ġg",
        "l"
      ],
      [
        "al",
        "itÃ©"
      ],
      [
        "la",
        "m"
      ],
      [
        "ra",
        "Ã®"
      ],
      [
        "Ġje",
        "an"
      ],
      [
        "n",
        "os"
      ],
      [
        "Ġm",
        "om"
      ],
      [
        "Ġb",
        "ut"
      ],
      [
        "ĠdÃ©",
        "m"
      ],
      [
        "Ġdis",
        "ent"
      ],
      [
        "xx",
        "x"
      ],
      [
        "Ġc",
        "ro"
      ],
      [
        "Ġc",
        "lo"
      ],
      [
        "Ġv",
        "ent"
      ],
      [
        "Ġpr",
        "end"
      ],
      [
        "Ġpart",
        "ir"
      ],
      [
        "Ġjeu",
        "ne"
      ],
      [
        "Ġfem",
        "me"
      ],
      [
        "c",
        "a"
      ],
      [
        "eu",
        "h"
      ],
      [
        "Ġsi",
        "m"
      ],
      [
        "Ġdi",
        "ff"
      ],
      [
        "Ġai",
        "r"
      ],
      [
        "anc",
        "er"
      ],
      [
        "Ġgo",
        "Ã»"
      ],
      [
        "k",
        "a"
      ],
      [
        "Ġf",
        "aux"
      ],
      [
        "Ġy",
        "o"
      ],
      [
        "Ġvi",
        "eux"
      ],
      [
        "prÃ©",
        "fÃ¨re"
      ],
      [
        "Ġf",
        "re"
      ],
      [
        "il",
        "la"
      ],
      [
        "Ġh",
        "e"
      ],
      [
        "i",
        "Ã¨me"
      ],
      [
        "Ġc",
        "in"
      ],
      [
        "Ġv",
        "o"
      ],
      [
        "av",
        "ance"
      ],
      [
        "pr",
        "it"
      ],
      [
        "Ġcou",
        "illes"
      ],
      [
        "Ġbas",
        "e"
      ],
      [
        "Ġdes",
        "s"
      ],
      [
        "Ġf",
        "ol"
      ],
      [
        "Ġb",
        "our"
      ],
      [
        "il",
        "lÃ©"
      ],
      [
        "Ġfout",
        "re"
      ],
      [
        "l",
        "ot"
      ],
      [
        "rÃ©",
        "p"
      ],
      [
        "ad",
        "is"
      ],
      [
        "g",
        "ique"
      ],
      [
        "i",
        "ent"
      ],
      [
        "Ġd",
        "os"
      ],
      [
        "Ġqu",
        "atre"
      ],
      [
        "Ġb",
        "ah"
      ],
      [
        "de",
        "m"
      ],
      [
        "onn",
        "Ã©"
      ],
      [
        "Ġtra",
        "Ã®"
      ],
      [
        "Ġsav",
        "oir"
      ],
      [
        "Ġquar",
        "ti"
      ],
      [
        "b",
        "at"
      ],
      [
        "Ġl",
        "Ã©g"
      ],
      [
        "is",
        "t"
      ],
      [
        "Ġv",
        "rais"
      ],
      [
        "ce",
        "p"
      ],
      [
        "out",
        "es"
      ],
      [
        "pr",
        "end"
      ],
      [
        "Ġni",
        "quer"
      ],
      [
        "s",
        "s"
      ],
      [
        "Ġc",
        "re"
      ],
      [
        "Ġn",
        "a"
      ],
      [
        "Ġe",
        "ff"
      ],
      [
        "Ġbr",
        "Ã»"
      ],
      [
        "all",
        "ume"
      ],
      [
        "Ġmec",
        "s"
      ],
      [
        "c",
        "le"
      ],
      [
        "m",
        "in"
      ],
      [
        "m",
        "ets"
      ],
      [
        "r",
        "Ã¨s"
      ],
      [
        "qu",
        "el"
      ],
      [
        "Ġb",
        "ail"
      ],
      [
        "Ġr",
        "en"
      ],
      [
        "ur",
        "s"
      ],
      [
        "Ġh",
        "omme"
      ],
      [
        "ri",
        "c"
      ],
      [
        "gu",
        "es"
      ],
      [
        "t",
        "ard"
      ],
      [
        "Ġ",
        "4"
      ],
      [
        "on",
        "te"
      ],
      [
        "Ġg",
        "e"
      ],
      [
        "di",
        "o"
      ],
      [
        "Ġcal",
        "me"
      ],
      [
        "Ġcab",
        "a"
      ],
      [
        "tem",
        "ps"
      ],
      [
        "p",
        "ersonne"
      ],
      [
        "Ġc",
        "ent"
      ],
      [
        "Ġsou",
        "ff"
      ],
      [
        "c",
        "ent"
      ],
      [
        "Î±",
        "Îµ"
      ],
      [
        "esp",
        "Ã¨re"
      ],
      [
        "b",
        "um"
      ],
      [
        "h",
        "um"
      ],
      [
        "i",
        "p"
      ],
      [
        "Ġ",
        "up"
      ],
      [
        "Ġl",
        "une"
      ],
      [
        "Ġp",
        "or"
      ],
      [
        "Ġf",
        "ier"
      ],
      [
        "Ġr",
        "Ã©s"
      ],
      [
        "Ġpar",
        "les"
      ],
      [
        "Ġtr",
        "ans"
      ],
      [
        "ti",
        "ons"
      ],
      [
        "aimer",
        "ais"
      ],
      [
        "Ġd",
        "onner"
      ],
      [
        "Ã¨",
        "ge"
      ],
      [
        "ri",
        "re"
      ],
      [
        "res",
        "s"
      ],
      [
        "ĠcÃ´",
        "tÃ©"
      ],
      [
        "Ġd",
        "on"
      ],
      [
        "Ġf",
        "Ãªte"
      ],
      [
        "Ġn",
        "Ã©"
      ],
      [
        "ol",
        "l"
      ],
      [
        "Ġtr",
        "ou"
      ],
      [
        "Ġdir",
        "ait"
      ],
      [
        "a",
        "Ã§on"
      ],
      [
        "u",
        "er"
      ],
      [
        "Ġp",
        "ig"
      ],
      [
        "Ġc",
        "la"
      ],
      [
        "Ġqu",
        "est"
      ],
      [
        "ol",
        "Ã©"
      ],
      [
        "Ġtour",
        "ne"
      ],
      [
        "main",
        "tenant"
      ],
      [
        "Ġcau",
        "se"
      ],
      [
        "Ġpai",
        "x"
      ],
      [
        "Ġp",
        "ort"
      ],
      [
        "ui",
        "te"
      ],
      [
        "Ġmat",
        "in"
      ],
      [
        "Ġfil",
        "m"
      ],
      [
        "Ġann",
        "Ã©es"
      ],
      [
        "r",
        "ain"
      ],
      [
        "Ġj",
        "j"
      ],
      [
        "Ġv",
        "end"
      ],
      [
        "Ġb",
        "ig"
      ],
      [
        "un",
        "es"
      ],
      [
        "ap",
        "rÃ¨s"
      ],
      [
        "Ġre",
        "u"
      ],
      [
        "Ġvi",
        "es"
      ],
      [
        "um",
        "iÃ¨re"
      ],
      [
        "Ġres",
        "pect"
      ],
      [
        "v",
        "u"
      ],
      [
        "ou",
        "i"
      ],
      [
        "en",
        "core"
      ],
      [
        "Ġm",
        "Ã©t"
      ],
      [
        "as",
        "e"
      ],
      [
        "Ġpas",
        "sÃ©"
      ],
      [
        "or",
        "g"
      ],
      [
        "al",
        "cool"
      ],
      [
        "Ġtr",
        "iste"
      ],
      [
        "Ġjou",
        "e"
      ],
      [
        "Ġsouv",
        "ent"
      ],
      [
        "t",
        "rois"
      ],
      [
        "Ġ",
        "7"
      ],
      [
        "Ġp",
        "ein"
      ],
      [
        "Ġs",
        "ch"
      ],
      [
        "Ġde",
        "hors"
      ],
      [
        "Ġh",
        "Ã©"
      ],
      [
        "Ġta",
        "ff"
      ],
      [
        "Ġav",
        "ait"
      ],
      [
        "Ġsort",
        "ir"
      ],
      [
        "b",
        "ar"
      ],
      [
        "m",
        "am"
      ],
      [
        "et",
        "er"
      ],
      [
        "Ġch",
        "ange"
      ],
      [
        "ail",
        "leurs"
      ],
      [
        "Ġar",
        "ri"
      ],
      [
        "Ġder",
        "riÃ¨re"
      ],
      [
        "g",
        "n"
      ],
      [
        "p",
        "os"
      ],
      [
        "Ġb",
        "euh"
      ],
      [
        "eu",
        "m"
      ],
      [
        "ch",
        "aque"
      ],
      [
        "Ġou",
        "h"
      ],
      [
        "Ġam",
        "is"
      ],
      [
        "aÃ®",
        "tre"
      ],
      [
        "le",
        "t"
      ],
      [
        "Ġv",
        "Ã©r"
      ],
      [
        "Ġr",
        "Ã©c"
      ],
      [
        "Ġn",
        "ique"
      ],
      [
        "Ġh",
        "um"
      ],
      [
        "Ġai",
        "me"
      ],
      [
        "rap",
        "p"
      ],
      [
        "Ġsal",
        "es"
      ],
      [
        "fi",
        "ance"
      ],
      [
        "ĠÃ¢",
        "me"
      ],
      [
        "f",
        "l"
      ],
      [
        "Ġr",
        "end"
      ],
      [
        "al",
        "ler"
      ],
      [
        "ig",
        "ne"
      ],
      [
        "Ġar",
        "r"
      ],
      [
        "Ġman",
        "que"
      ],
      [
        "Ġser",
        "a"
      ],
      [
        "Ġt",
        "y"
      ],
      [
        "Ġf",
        "u"
      ],
      [
        "Ġv",
        "erre"
      ],
      [
        "Ġb",
        "ag"
      ],
      [
        "Ġb",
        "aise"
      ],
      [
        "Ġpr",
        "Ãªt"
      ],
      [
        "Ġrap",
        "pe"
      ],
      [
        "ĠÃ©",
        "v"
      ],
      [
        "Ġrapp",
        "elle"
      ],
      [
        "Ġsk",
        "u"
      ],
      [
        "d",
        "eux"
      ],
      [
        "Ġl",
        "it"
      ],
      [
        "as",
        "si"
      ],
      [
        "Ġpas",
        "s"
      ],
      [
        "Ġtr",
        "ouver"
      ],
      [
        "Ġbal",
        "le"
      ],
      [
        "Ġhistoi",
        "res"
      ],
      [
        "c",
        "ro"
      ],
      [
        "s",
        "h"
      ],
      [
        "Ġc",
        "rÃ©"
      ],
      [
        "Ġv",
        "al"
      ],
      [
        "ien",
        "nent"
      ],
      [
        "Ġma",
        "man"
      ],
      [
        "Ġmais",
        "on"
      ],
      [
        "Ġbi",
        "z"
      ],
      [
        "h",
        "an"
      ],
      [
        "Ġp",
        "al"
      ],
      [
        "Ġb",
        "les"
      ],
      [
        "ch",
        "ant"
      ],
      [
        "ouv",
        "re"
      ],
      [
        "d",
        "ic"
      ],
      [
        "v",
        "a"
      ],
      [
        "Ġf",
        "e"
      ],
      [
        "Ġb",
        "lo"
      ],
      [
        "Ġr",
        "oute"
      ],
      [
        "Ġg",
        "av"
      ],
      [
        "ig",
        "n"
      ],
      [
        "ĠrÃ©",
        "ve"
      ],
      [
        "mer",
        "de"
      ],
      [
        "Ġbon",
        "heur"
      ],
      [
        "aud",
        "rait"
      ],
      [
        "euf",
        "s"
      ],
      [
        "Ġjou",
        "er"
      ],
      [
        "d",
        "ent"
      ],
      [
        "g",
        "en"
      ],
      [
        "i",
        "k"
      ],
      [
        "v",
        "as"
      ],
      [
        "Ġt",
        "Ãªtes"
      ],
      [
        "Ġv",
        "e"
      ],
      [
        "Ġv",
        "ic"
      ],
      [
        "Ġtr",
        "ouv"
      ],
      [
        "Ġfr",
        "an"
      ],
      [
        "Ġfr",
        "oid"
      ],
      [
        "Ġw",
        "h"
      ],
      [
        "cher",
        "che"
      ],
      [
        "s",
        "ous"
      ],
      [
        "Ġ",
        "x"
      ],
      [
        "Ġs",
        "ors"
      ],
      [
        "Ġh",
        "er"
      ],
      [
        "Ġpar",
        "lent"
      ],
      [
        "ti",
        "que"
      ],
      [
        "Ġar",
        "rive"
      ],
      [
        "Ġrentre",
        "r"
      ],
      [
        "i",
        "eu"
      ],
      [
        "s",
        "ans"
      ],
      [
        "Ġ",
        "esp"
      ],
      [
        "Ġd",
        "Ã»"
      ],
      [
        "Ġr",
        "at"
      ],
      [
        "in",
        "t"
      ],
      [
        "al",
        "le"
      ],
      [
        "Ġou",
        "bli"
      ],
      [
        "Ġvi",
        "ol"
      ],
      [
        "c",
        "al"
      ],
      [
        "g",
        "ard"
      ],
      [
        "is",
        "sent"
      ],
      [
        "ar",
        "i"
      ],
      [
        "Ġmon",
        "n"
      ],
      [
        "Ġwe",
        "ed"
      ],
      [
        "Ġdern",
        "iÃ¨re"
      ],
      [
        "n",
        "tre"
      ],
      [
        "v",
        "ol"
      ],
      [
        "Ġs",
        "il"
      ],
      [
        "ra",
        "m"
      ],
      [
        "pr",
        "Ã©c"
      ],
      [
        "Ġgr",
        "is"
      ],
      [
        "Ġcon",
        "fiance"
      ],
      [
        "Ġlais",
        "ser"
      ],
      [
        "d",
        "o"
      ],
      [
        "p",
        "p"
      ],
      [
        "p",
        "ens"
      ],
      [
        "en",
        "ne"
      ],
      [
        "Ġpour",
        "tant"
      ],
      [
        "Ġh",
        "ommes"
      ],
      [
        "Ġli",
        "bre"
      ],
      [
        "Ã©n",
        "Ã©"
      ],
      [
        "Ġreg",
        "re"
      ],
      [
        "Ġplu",
        "ie"
      ],
      [
        "Ġ",
        "and"
      ],
      [
        "Ġ",
        "xxx"
      ],
      [
        "Ġm",
        "ois"
      ],
      [
        "Ġch",
        "oix"
      ],
      [
        "Ġch",
        "angÃ©"
      ],
      [
        "ing",
        "t"
      ],
      [
        "ure",
        "r"
      ],
      [
        "Ġstu",
        "dio"
      ],
      [
        "Ġbais",
        "er"
      ],
      [
        "inqui",
        "Ã¨te"
      ],
      [
        "c",
        "in"
      ],
      [
        "i",
        "ers"
      ],
      [
        "p",
        "utain"
      ],
      [
        "Ġc",
        "it"
      ],
      [
        "Ġc",
        "am"
      ],
      [
        "Ġs",
        "in"
      ],
      [
        "Ġv",
        "oud"
      ],
      [
        "Ġr",
        "o"
      ],
      [
        "Ġr",
        "is"
      ],
      [
        "Ġpro",
        "j"
      ],
      [
        "Ġperd",
        "s"
      ],
      [
        "Ġ1",
        "6"
      ],
      [
        "env",
        "oie"
[...]
