{
  "version": "1.0",
  "truncation": null,
  "padding": null,
  "added_tokens": [
    {
      "id": 0,
      "content": "<PAD>",
      "single_word": false,
      "lstrip": false,
      "rstrip": false,
      "normalized": false,
      "special": true
    },
    {
      "id": 1,
      "content": "α",
      "single_word": false,
      "lstrip": false,
      "rstrip": false,
      "normalized": false,
      "special": true
    },
    {
      "id": 2,
      "content": "β",
      "single_word": false,
      "lstrip": false,
      "rstrip": false,
      "normalized": false,
      "special": true
    },
    {
      "id": 3,
      "content": "γ",
      "single_word": false,
      "lstrip": false,
      "rstrip": false,
      "normalized": false,
      "special": true
    },
    {
      "id": 4,
      "content": "ε",
      "single_word": false,
      "lstrip": false,
      "rstrip": false,
      "normalized": false,
      "special": true
    },
    {
      "id": 5,
      "content": "ζ",
      "single_word": false,
      "lstrip": false,
      "rstrip": false,
      "normalized": false,
      "special": true
    },
    {
      "id": 6,
      "content": "η",
      "single_word": false,
      "lstrip": false,
      "rstrip": false,
      "normalized": false,
      "special": true
    },
    {
      "id": 7,
      "content": "θ",
      "single_word": false,
      "lstrip": false,
      "rstrip": false,
      "normalized": false,
      "special": true
    },
    {
      "id": 8,
      "content": "/β",
      "single_word": false,
      "lstrip": false,
      "rstrip": false,
      "normalized": false,
      "special": true
    },
    {
      "id": 9,
      "content": "/γ",
      "single_word": false,
      "lstrip": false,
      "rstrip": false,
      "normalized": false,
      "special": true
    },
    {
      "id": 10,
      "content": "/ε",
      "single_word": false,
      "lstrip": false,
      "rstrip": false,
      "normalized": false,
      "special": true
    },
    {
      "id": 11,
      "content": "/ζ",
      "single_word": false,
      "lstrip": false,
      "rstrip": false,
      "normalized": false,
      "special": true
    },
    {
      "id": 12,
      "content": "/η",
      "single_word": false,
      "lstrip": false,
      "rstrip": false,
      "normalized": false,
      "special": true
    }
  ],
  "normalizer": null,
  "pre_tokenizer": {
    "type": "ByteLevel",
    "add_prefix_space": false,
    "trim_offsets": true,
    "use_regex": true
  },
  "post_processor": {
    "type": "ByteLevel",
    "add_prefix_space": true,
    "trim_offsets": false,
    "use_regex": true
  },
  "decoder": {
    "type": "ByteLevel",
    "add_prefix_space": true,
    "trim_offsets": true,
    "use_regex": true
  },
  "model": {
    "type": "BPE",
    "dropout": null,
    "unk_token": null,
    "continuing_subword_prefix": null,
    "end_of_word_suffix": null,
    "fuse_unk": false,
    "byte_fallback": false,
    "ignore_merges": false,
    "vocab": {
      "<PAD>": 0,
      "α": 1,
      "β": 2,
      "γ": 3,
      "ε": 4,
      "ζ": 5,
      "η": 6,
      "θ": 7,
      "/β": 8,
      "/γ": 9,
      "/ε": 10,
      "/ζ": 11,
      "/η": 12,
      "!": 13,
      "\"": 14,
      "#": 15,
      "$": 16,
      "%": 17,
      "&": 18,
      "'": 19,
      "(": 20,
      ")": 21,
      "*": 22,
      "+": 23,
      ",": 24,
      "-": 25,
      ".": 26,
      "/": 27,
      "0": 28,
      "1": 29,
      "2": 30,
      "3": 31,
      "4": 32,
      "5": 33,
      "6": 34,
      "7": 35,
      "8": 36,
      "9": 37,
      ":": 38,
      ";": 39,
      "<": 40,
      "=": 41,
      ">": 42,
      "?": 43,
      "@": 44,
      "A": 45,
      "B": 46,
      "C": 47,
      "D": 48,
      "E": 49,
      "F": 50,
      "G": 51,
      "H": 52,
      "I": 53,
      "J": 54,
      "K": 55,
      "L": 56,
      "M": 57,
      "N": 58,
      "O": 59,
      "P": 60,
      "Q": 61,
      "R": 62,
      "S": 63,
      "T": 64,
      "U": 65,
      "V": 66,
      "W": 67,
      "X": 68,
      "Y": 69,
      "Z": 70,
      "[": 71,
      "\\": 72,
      "]": 73,
      "^": 74,
      "_": 75,
      "`": 76,
      "a": 77,
      "b": 78,
      "c": 79,
      "d": 80,
      "e": 81,
      "f": 82,
      "g": 83,
      "h": 84,
      "i": 85,
      "j": 86,
      "k": 87,
      "l": 88,
      "m": 89,
      "n": 90,
      "o": 91,
      "p": 92,
      "q": 93,
      "r": 94,
      "s": 95,
      "t": 96,
      "u": 97,
      "v": 98,
      "w": 99,
      "x": 100,
      "y": 101,
      "z": 102,
      "{": 103,
      "|": 104,
      "}": 105,
      "~": 106,
      "¡": 107,
      "¢": 108,
      "£": 109,
      "¤": 110,
      "¥": 111,
      "¦": 112,
      "§": 113,
      "¨": 114,
      "©": 115,
      "ª": 116,
      "«": 117,
      "¬": 118,
      "®": 119,
      "¯": 120,
      "°": 121,
      "±": 122,
      "²": 123,
      "³": 124,
      "´": 125,
      "µ": 126,
      "¶": 127,
      "·": 128,
      "¸": 129,
      "¹": 130,
      "º": 131,
      "»": 132,
      "¼": 133,
      "½": 134,
      "¾": 135,
      "¿": 136,
      "À": 137,
      "Á": 138,
      "Â": 139,
      "Ã": 140,
      "Ä": 141,
      "Å": 142,
      "Æ": 143,
      "Ç": 144,
      "È": 145,
      "É": 146,
      "Ê": 147,
      "Ë": 148,
      "Ì": 149,
      "Í": 150,
      "Î": 151,
      "Ï": 152,
      "Ð": 153,
      "Ñ": 154,
      "Ò": 155,
      "Ó": 156,
      "Ô": 157,
      "Õ": 158,
      "Ö": 159,
      "×": 160,
      "Ø": 161,
      "Ù": 162,
      "Ú": 163,
      "Û": 164,
      "Ü": 165,
      "Ý": 166,
      "Þ": 167,
      "ß": 168,
      "à": 169,
      "á": 170,
      "â": 171,
      "ã": 172,
      "ä": 173,
      "å": 174,
      "æ": 175,
      "ç": 176,
      "è": 177,
      "é": 178,
      "ê": 179,
      "ë": 180,
      "ì": 181,
      "í": 182,
      "î": 183,
      "ï": 184,
      "ð": 185,
      "ñ": 186,
      "ò": 187,
      "ó": 188,
      "ô": 189,
      "õ": 190,
      "ö": 191,
      "÷": 192,
      "ø": 193,
      "ù": 194,
      "ú": 195,
      "û": 196,
      "ü": 197,
      "ý": 198,
      "þ": 199,
      "ÿ": 200,
      "Ā": 201,
      "ā": 202,
      "Ă": 203,
      "ă": 204,
      "Ą": 205,
      "ą": 206,
      "Ć": 207,
      "ć": 208,
      "Ĉ": 209,
      "ĉ": 210,
      "Ċ": 211,
      "ċ": 212,
      "Č": 213,
      "č": 214,
      "Ď": 215,
      "ď": 216,
      "Đ": 217,
      "đ": 218,
      "Ē": 219,
      "ē": 220,
      "Ĕ": 221,
      "ĕ": 222,
      "Ė": 223,
      "ė": 224,
      "Ę": 225,
      "ę": 226,
      "Ě": 227,
      "ě": 228,
      "Ĝ": 229,
      "ĝ": 230,
      "Ğ": 231,
      "ğ": 232,
      "Ġ": 233,
      "ġ": 234,
      "Ģ": 235,
      "ģ": 236,
      "Ĥ": 237,
      "ĥ": 238,
      "Ħ": 239,
      "ħ": 240,
      "Ĩ": 241,
      "ĩ": 242,
      "Ī": 243,
      "ī": 244,
      "Ĭ": 245,
      "ĭ": 246,
      "Į": 247,
      "į": 248,
      "İ": 249,
      "ı": 250,
      "Ĳ": 251,
      "ĳ": 252,
      "Ĵ": 253,
      "ĵ": 254,
      "Ķ": 255,
      "ķ": 256,
      "ĸ": 257,
      "Ĺ": 258,
      "ĺ": 259,
      "Ļ": 260,
      "ļ": 261,
      "Ľ": 262,
      "ľ": 263,
      "Ŀ": 264,
      "ŀ": 265,
      "Ł": 266,
      "ł": 267,
      "Ń": 268,
      "es": 269,
      "Ġd": 270,
      "Ġl": 271,
      "Ġp": 272,
      "ai": 273,
      "Ġc": 274,
      "ou": 275,
      "Ġm": 276,
      "en": 277,
      "on": 278,
      "Ġs": 279,
      "Ġt": 280,
      "qu": 281,
      "Ã©": 282,
      "an": 283,
      "Ġj": 284,
      "re": 285,
      "er": 286,
      "as": 287,
      "Ġqu": 288,
      "is": 289,
      "Ġf": 290,
      "le": 291,
      "ais": 292,
      "Ġb": 293,
      "ar": 294,
      "eu": 295,
      "Ġv": 296,
      "Ġa": 297,
      "est": 298,
      "Ġla": 299,
      "oi": 300,
      "un": 301,
      "me": 302,
      "te": 303,
      "ent": 304,
      "Ġde": 305,
      "et": 306,
      "ĠÃ": 307,
      "Ġpas": 308,
      "il": 309,
      "Ġr": 310,
      "our": 311,
      "om": 312,
      "ans": 313,
      "Ġles": 314,
      "in": 315,
      "Ġun": 316,
      "Ġn": 317,
      "Ġle": 318,
      "Ġg": 319,
      "au": 320,
      "ch": 321,
      "Ã¨": 322,
      "ro": 323,
      "'s": 324,
      "Ġdans": 325,
      "it": 326,
      "Ġdes": 327,
      "or": 328,
      "ĠÃł": 329,
      "ve": 330,
      "al": 331,
      "Ġcom": 332,
      "us": 333,
      "uis": 334,
      "ur": 335,
      "se": 336,
      "el": 337,
      "Ġen": 338,
      "Ãª": 339,
      "Î³": 340,
      "Ġet": 341,
      "la": 342,
      "ait": 343,
      "ous": 344,
      "de": 345,
      "Ġcomme": 346,
      "ra": 347,
      "eux": 348,
      "'m": 349,
      "Ġch": 350,
      "ce": 351,
      "Ġon": 352,
      "ien": 353,
      "Ġpour": 354,
      "Ġh": 355,
      "ne": 356,
      "§a": 357,
      "'t": 358,
      "ant": 359,
      "Ġque": 360,
      "Ġma": 361,
      "les": 362,
      "Ġpl": 363,
      "ie": 364,
      "out": 365,
      "Ġy": 366,
      "que": 367,
      "Ġpar": 368,
      "Ġmon": 369,
      "Ġdu": 370,
      "Îµ": 371,
      "eur": 372,
      "at": 373,
      "ap": 374,
      "and": 375,
      "Ġqui": 376,
      "Ġtu": 377,
      "ĠÃ§a": 378,
      "Ġje": 379,
      "ri": 380,
      "Ġsur": 381,
      "os": 382,
      "Ġau": 383,
      "am": 384,
      "Ġest": 385,
      "end": 386,
      "Ġplus": 387,
      "res": 388,
      "Ġsi": 389,
      "aire": 390,
      "Ã©t": 391,
      "elle": 392,
      "Ġou": 393,
      "ois": 394,
      "ont": 395,
      "Ġmes": 396,
      "ol": 397,
      "Ã©c": 398,
      "Ġune": 399,
      "ge": 400,
      "Ãł": 401,
      "ain": 402,
      "tre": 403,
      "che": 404,
      "Ġre": 405,
      "ir": 406,
      "Ã¨re": 407,
      "Ġmais": 408,
      "em": 409,
      "'d": 410,
      "Ġtout": 411,
      "rÃ©": 412,
      "ic": 413,
      "aut": 414,
      "si": 415,
      "Ġme": 416,
      "ah": 417,
      "ille": 418,
      "ot": 419,
      "ils": 420,
      "ac": 421,
      "Ġfait": 422,
      "ment": 423,
      "ab": 424,
      "ff": 425,
      "Ġmoi": 426,
      "tu": 427,
      "av": 428,
      "Ġo": 429,
      "vec": 430,
      "pe": 431,
      "ĠdÃ©": 432,
      "ort": 433,
      "oir": 434,
      "onn": 435,
      "ig": 436,
      "Ġtr": 437,
      "je": 438,
      "Ġfaire": 439,
      "rop": 440,
      "im": 441,
      "ons": 442,
      "Ġquand": 443,
      "tes": 444,
      "Ãªte": 445,
      "Ãªme": 446,
      "Ġavec": 447,
      "ier": 448,
      "Ġvi": 449,
      "ard": 450,
      "Ġk": 451,
      "ag": 452,
      "Ġpr": 453,
      "mes": 454,
      "pr": 455,
      "ps": 456,
      "ens": 457,
      "ire": 458,
      "oin": 459,
      "ass": 460,
      "Ġbien": 461,
      "par": 462,
      "'re": 463,
      "eah": 464,
      "onne": 465,
      "ours": 466,
      "Ġte": 467,
      "ers": 468,
      "ler": 469,
      "Ġse": 470,
      "Ġvie": 471,
      "ue": 472,
      "Ġw": 473,
      "ĠmÃªme": 474,
      "ut": 475,
      "Ġtrop": 476,
      "ros": 477,
      "ang": 478,
      "Ġta": 479,
      "ique": 480,
      "Ġrap": 481,
      "lo": 482,
      "vais": 483,
      "rai": 484,
      "ux": 485,
      "Ġcou": 486,
      "Ã©s": 487,
      "asse": 488,
      "'ve": 489,
      "co": 490,
      "Î±": 491,
      "Î¸": 492,
      "Ã©e": 493,
      "Ġ,": 494,
      "um": 495,
      "Ġva": 496,
      "Ġil": 497,
      "fais": 498,
      "ts": 499,
      "Ã¨s": 500,
      "ine": 501,
      "uc": 502,
      "pl": 503,
      "Ġdis": 504,
      "Ġnous": 505,
      "Ã´": 506,
      "ette": 507,
      "ti": 508,
      "onc": 509,
      "iens": 510,
      "Ġco": 511,
      "oute": 512,
      "moi": 513,
      "ail": 514,
      "Ġe": 515,
      "Ġfr": 516,
      "rois": 517,
      "mais": 518,
      "ad": 519,
      "ui": 520,
      "Ġal": 521,
      "ess": 522,
      "ay": 523,
      "Ġav": 524,
      "Ġpro": 525,
      "Ġpeu": 526,
      "ends": 527,
      "ter": 528,
      "Ġce": 529,
      "Ã¢": 530,
      "Ġsans": 531,
      "Ġton": 532,
      "Ġfaut": 533,
      "pour": 534,
      "Ġin": 535,
      "Ġyeah": 536,
      "Ġne": 537,
      "qui": 538,
      "Ġgr": 539,
      "ors": 540,
      "ĠtÃªte": 541,
      "eurs": 542,
      "Î²": 543,
      "Ã§a": 544,
      "Ġtoi": 545,
      "Ġouais": 546,
      "Ġbr": 547,
      "Ġtous": 548,
      "Ġelle": 549,
      "ance": 550,
      "Ġfais": 551,
      "ver": 552,
      "Î¶": 553,
      "Ġdi": 554,
      "age": 555,
      "ĠÃ©": 556,
      "une": 557,
      "Ġsont": 558,
      "Ġrien": 559,
      "Ġst": 560,
      "ond": 561,
      "Ġmi": 562,
      "bl": 563,
      "Ġsa": 564,
      "emps": 565,
      "ion": 566,
      "Ġdit": 567,
      "amais": 568,
      "com": 569,
      "Î·": 570,
      "Ġar": 571,
      "ĠrÃ©": 572,
      "Ġveu": 573,
      "rap": 574,
      "ul": 575,
      "Ġdeux": 576,
      "Ġsous": 577,
      "ill": 578,
      "ing": 579,
      "Ġgros": 580,
      "Ã»": 581,
      "Ã®": 582,
      "Ġtou": 583,
      "tÃ©": 584,
      "Ġils": 585,
      "ĠlÃł": 586,
      "Ġz": 587,
      "Ã¹": 588,
      "id": 589,
      "ume": 590,
      "Ġsuis": 591,
      "Ġjus": 592,
      "he": 593,
      "Ġper": 594,
      "uit": 595,
      "ma": 596,
      "ser": 597,
      "Ġmal": 598,
      "Ġfin": 599,
      "jours": 600,
      "Ġmer": 601,
      "Ġai": 602,
      "Ġcr": 603,
      "ques": 604,
      "Ġjamais": 605,
      "Ġpart": 606,
      "eau": 607,
      "per": 608,
      "Ġveux": 609,
      "erre": 610,
      "aisse": 611,
      "Ġvrai": 612,
      "Ġson": 613,
      "Ġcl": 614,
      "ars": 615,
      "anc": 616,
      "Ġbou": 617,
      "ble": 618,
      "omb": 619,
      "Ġtes": 620,
      "Ġhe": 621,
      "Ġsais": 622,
      "Ġpo": 623,
      "ise": 624,
      "entre": 625,
      "ouve": 626,
      "ck": 627,
      "Ġpla": 628,
      "des": 629,
      "all": 630,
      "ĠÃ©t": 631,
      "leur": 632,
      "ci": 633,
      "oit": 634,
      "ure": 635,
      "Ġcar": 636,
      "dans": 637,
      "',": 638,
      "ets": 639,
      "Ġgu": 640,
      "puis": 641,
      "faut": 642,
      "ouv": 643,
      "Ġmar": 644,
      "endre": 645,
      "mon": 646,
      "di": 647,
      "aime": 648,
      "Ġsh": 649,
      "cher": 650,
      "rais": 651,
      "ĠoÃ¹": 652,
      "Ġtemps": 653,
      "arde": 654,
      "ange": 655,
      "core": 656,
      "aux": 657,
      "ici": 658,
      "ole": 659,
      "ande": 660,
      "Ġseu": 661,
      "Ġconn": 662,
      "nÃ©": 663,
      "vi": 664,
      "oul": 665,
      "ins": 666,
      "Ġces": 667,
      "att": 668,
      "mer": 669,
      "pas": 670,
      "quand": 671,
      "Ã©l": 672,
      "este": 673,
      "toi": 674,
      "Ġbi": 675,
      "Ġyeux": 676,
      "Ġveut": 677,
      "Ġli": 678,
      "Ġvu": 679,
      "ches": 680,
      "Ã¨res": 681,
      "vois": 682,
      "Ġtoujours": 683,
      "Ġple": 684,
      "Ġtra": 685,
      "Ġaux": 686,
      "Ġrapp": 687,
      "Ġche": 688,
      "ace": 689,
      "Ġperd": 690,
      "Ãªtre": 691,
      "..": 692,
      "ke": 693,
      "nes": 694,
      "ord": 695,
      "ner": 696,
      "Ġgrand": 697,
      "Ġgo": 698,
      "bi": 699,
      "ĠÃ©c": 700,
      "Ġmort": 701,
      "aud": 702,
      "op": 703,
      "Ġdev": 704,
      "tr": 705,
      "Ġmain": 706,
      "Ġquoi": 707,
      "ĠrÃª": 708,
      "Ġni": 709,
      "Ġnos": 710,
      "ple": 711,
      "oule": 712,
      "Ġgra": 713,
      "Ã©tais": 714,
      "are": 715,
      "Ġmonde": 716,
      "able": 717,
      "quoi": 718,
      "Ġgars": 719,
      "ose": 720,
      "Ġjour": 721,
      "Ġbal": 722,
      "Ġap": 723,
      "illes": 724,
      "garde": 725,
      "oy": 726,
      "euf": 727,
      "Ã¨te": 728,
      "Ġdire": 729,
      "ash": 730,
      "Ġbon": 731,
      "orte": 732,
      "Ã©g": 733,
      "Ġont": 734,
      "cou": 735,
      "itÃ©": 736,
      "ense": 737,
      "ĠÃª": 738,
      "app": 739,
      "Ã¨ne": 740,
      "Ġencore": 741,
      "lent": 742,
      "oc": 743,
      "Ġi": 744,
      "Ġca": 745,
      "Ġjuste": 746,
      "Ġdem": 747,
      "Ġsal": 748,
      "Ġdonc": 749,
      "Ġri": 750,
      "esp": 751,
      "Ã§": 752,
      "Ġvous": 753,
      "ves": 754,
      "aque": 755,
      "Ġpu": 756,
      "its": 757,
      "Ġmerde": 758,
      "ĠĊ": 759,
      "Ġman": 760,
      "uck": 761,
      "tt": 762,
      "viens": 763,
      "Ġ1": 764,
      "Ġmis": 765,
      "Ã©p": 766,
      "ct": 767,
      "Ã©r": 768,
      "jÃł": 769,
      "gu": 770,
      "tres": 771,
      "ĠprÃ©": 772,
      "air": 773,
      "Ġbas": 774,
      "Ġcont": 775,
      "Ġjeu": 776,
      "Ġfois": 777,
      "ĠÃªtre": 778,
      "faire": 779,
      "ale": 780,
      "be": 781,
      "ouais": 782,
      "Ġbar": 783,
      "Ġtour": 784,
      "tout": 785,
      "Ġcon": 786,
      "igh": 787,
      "rive": 788,
      "Ġser": 789,
      "Ġmieux": 790,
      "Ġavant": 791,
      "Ġparle": 792,
      "if": 793,
      "Ġbeau": 794,
      "ersonne": 795,
      "peux": 796,
      "Ġfl": 797,
      "arr": 798,
      "Ã´t": 799,
      "up": 800,
      "ite": 801,
      "ses": 802,
      "vre": 803,
      "Ġfor": 804,
      "Ġcette": 805,
      "Ġgens": 806,
      "sÃ©": 807,
      "aine": 808,
      "yeah": 809,
      "Ġpot": 810,
      "Ġquel": 811,
      "elles": 812,
      "sent": 813,
      "crois": 814,
      "Ġvis": 815,
      "ow": 816,
      "ten": 817,
      "Ġpi": 818,
      "one": 819,
      "Ġmo": 820,
      "quer": 821,
      "ze": 822,
      "aille": 823,
      "Ġph": 824,
      "Ã¨me": 825,
      "ces": 826,
      "low": 827,
      "Ġvois": 828,
      "ents": 829,
      "Ġpeut": 830,
      "Ġpe": 831,
      "Ġcap": 832,
      "imp": 833,
      "eure": 834,
      "Ġam": 835,
      "Ġsort": 836,
      "Ġth": 837,
      "Ġcomp": 838,
      "comme": 839,
      "ĠdÃ©c": 840,
      "Ġdou": 841,
      "iÃ¨re": 842,
      "Ġvoir": 843,
      "lÃł": 844,
      "br": 845,
      "tant": 846,
      "oire": 847,
      "ok": 848,
      "Ġpeur": 849,
      "aise": 850,
      "Ġbl": 851,
      "ob": 852,
      "enir": 853,
      "Ġsens": 854,
      "ex": 855,
      "ong": 856,
      "oig": 857,
      "dÃ©": 858,
      "ta": 859,
      "fait": 860,
      "ame": 861,
      "ack": 862,
      "utain": 863,
      "Ġleur": 864,
      "Ġci": 865,
      "Ã©es": 866,
      "ies": 867,
      "Ġsu": 868,
      "Ġpasse": 869,
      "Ã©tait": 870,
      "Ġseul": 871,
      "Ġpet": 872,
      "Ġfer": 873,
      "Ġnan": 874,
      "Ġex": 875,
      "aÃ®": 876,
      "ns": 877,
      "ĠmÃ©": 878,
      "ak": 879,
      "gard": 880,
      "Ġses": 881,
      "omme": 882,
      "Ġlo": 883,
      "Ġver": 884,
      "Ġcal": 885,
      "Ġmet": 886,
      "Ġnouve": 887,
      "Ġoh": 888,
      "Ġjou": 889,
      "ages": 890,
      "prÃ¨s": 891,
      "fer": 892,
      "lle": 893,
      "Ġcol": 894,
      "rem": 895,
      "ds": 896,
      "Ġcoeur": 897,
      "Ġpeux": 898,
      "Ġcra": 899,
      "ile": 900,
      "rappe": 901,
      "ence": 902,
      "Ġatt": 903,
      "Ġcher": 904,
      "bre": 905,
      "nent": 906,
      "mÃªme": 907,
      "tenant": 908,
      "oh": 909,
      "iste": 910,
      "oix": 911,
      "Ġloin": 912,
      "Ġfond": 913,
      "Ġpuis": 914,
      "art": 915,
      "Ġnuit": 916,
      "Ġmec": 917,
      "Ġlaisse": 918,
      "Ġfont": 919,
      "ĠtrÃ¨s": 920,
      "endant": 921,
      "prends": 922,
      "ĠaprÃ¨s": 923,
      "coup": 924,
      "tte": 925,
      "Ã©n": 926,
      "Ġdepuis": 927,
      "Ġeh": 928,
      "ph": 929,
      "Ġan": 930,
      "li": 931,
      "vous": 932,
      "Ãªt": 933,
      "anger": 934,
      "ente": 935,
      "onde": 936,
      "Ġsc": 937,
      "ĠdÃ©jÃł": 938,
      "Ġhey": 939,
      "ĠmÃ¨re": 940,
      "esoin": 941,
      "Ġville": 942,
      "avais": 943,
      "oint": 944,
      "ions": 945,
      "Ġno": 946,
      "ants": 947,
      "ante": 948,
      "Ġmat": 949,
      "Ã©coute": 950,
      "sion": 951,
      "Ġhan": 952,
      "env": 953,
      "ines": 954,
      "Ġvas": 955,
      "itch": 956,
      "Ġpos": 957,
      "Ġceux": 958,
      "oie": 959,
      "gue": 960,
      "oo": 961,
      "ĠpÃ©t": 962,
      "Ġcoup": 963,
      "arrive": 964,
      "Ġchez": 965,
      "Ġpersonne": 966,
      "ĠfrÃ¨re": 967,
      "ach": 968,
      "iff": 969,
      "ris": 970,
      "Ġsoir": 971,
      "Ġsour": 972,
      "Ġtoutes": 973,
      "Ġder": 974,
      "conn": 975,
      "pense": 976,
      "plus": 977,
      "avec": 978,
      "Ġreste": 979,
      "Ġmoins": 980,
      "asser": 981,
      "lÃ©": 982,
      "sa": 983,
      "Ġsou": 984,
      "Ġtoute": 985,
      "Ġdix": 986,
      "ed": 987,
      "Ã¯": 988,
      "Ġ2": 989,
      "Ġici": 990,
      "Ġcor": 991,
      "ĠsÃ»": 992,
      "Ġfort": 993,
      "aye": 994,
      "nÃ©e": 995,
      "eule": 996,
      "Ġenv": 997,
      "ras": 998,
      "Ġcab": 999,
      "Ġtruc": 1000,
      "Ġplein": 1001,
      "Ġplan": 1002,
      "olo": 1003,
      "Ġbesoin": 1004,
      "man": 1005,
      "Ġlong": 1006,
      "Ġthe": 1007,
      "Ġmin": 1008,
      "Ġfum": 1009,
      "mÃ©": 1010,
      "vent": 1011,
      "Ġchaque": 1012,
      "Ġvite": 1013,
      "Ġcour": 1014,
      "Ġpris": 1015,
      "parle": 1016,
      "tour": 1017,
      "Ġnon": 1018,
      "riÃ¨re": 1019,
      "rer": 1020,
      "ats": 1021,
      "...": 1022,
      "fi": 1023,
      "vÃ©": 1024,
      "quÃ©": 1025,
      "Ġres": 1026,
      "tou": 1027,
      "Ġtrois": 1028,
      "Ġbe": 1029,
      "Ġcomment": 1030,
      "Ġshit": 1031,
      "oque": 1032,
      "Ġjours": 1033,
      "aient": 1034,
      "Ġrou": 1035,
      "leurs": 1036,
      "Ġfout": 1037,
      "Ġvoul": 1038,
      "Ġputain": 1039,
      "attends": 1040,
      "bÃ©": 1041,
      "Ġsent": 1042,
      "Ġrem": 1043,
      "rait": 1044,
      "Ġdr": 1045,
      "Ġcas": 1046,
      "Ġhein": 1047,
      "Ġcrois": 1048,
      "Ġso": 1049,
      "Ġgen": 1050,
      "oses": 1051,
      "Ġcer": 1052,
      "lui": 1053,
      "Ġpens": 1054,
      "Ġti": 1055,
      "oud": 1056,
      "Ġac": 1057,
      "Ġrest": 1058,
      "ites": 1059,
      "Ġpourquoi": 1060,
      "prÃ©": 1061,
      "Ġsav": 1062,
      "ick": 1063,
      "Ġterre": 1064,
      "Ġbla": 1065,
      "ade": 1066,
      "Ġprod": 1067,
      "vis": 1068,
      "Ġans": 1069,
      "mi": 1070,
      "Ã¨ve": 1071,
      "Ġgueule": 1072,
      "passe": 1073,
      "Ġfil": 1074,
      "arg": 1075,
      "Ġvers": 1076,
      "Ġautres": 1077,
      "iers": 1078,
      "fr": 1079,
      "Ġcons": 1080,
      "eh": 1081,
      "Ġpap": 1082,
      "Ġbille": 1083,
      "ienne": 1084,
      "arrÃªte": 1085,
      "aie": 1086,
      "Ġcash": 1087,
      "Ġfuck": 1088,
      "onner": 1089,
      "Ġem": 1090,
      "Ġlui": 1091,
      "Ġstu": 1092,
      "entÃ´t": 1093,
      "alle": 1094,
      "ton": 1095,
      "Ġas": 1096,
      "avant": 1097,
      "fin": 1098,
      "Ġeu": 1099,
      "Ġeux": 1100,
      "Ġconnais": 1101,
      "ĠrÃªves": 1102,
      "pro": 1103,
      "Ġnoir": 1104,
      "amour": 1105,
      "bien": 1106,
      "fume": 1107,
      "heure": 1108,
      "Ġleurs": 1109,
      "Ġbais": 1110,
      "Ġrentre": 1111,
      "Ġwe": 1112,
      "tion": 1113,
      "Ġplace": 1114,
      "cer": 1115,
      "Ġdo": 1116,
      "Ġsac": 1117,
      "ĠbÃ©": 1118,
      "Ġtex": 1119,
      "tous": 1120,
      "Ġparler": 1121,
      "Ġmot": 1122,
      "Ġsait": 1123,
      "Ġtomb": 1124,
      "Ġfam": 1125,
      "Ġregard": 1126,
      "ffe": 1127,
      "Ġquelques": 1128,
      "st": 1129,
      "Ġent": 1130,
      "Ġcan": 1131,
      "Ġmaintenant": 1132,
      "go": 1133,
      "pi": 1134,
      "Ġface": 1135,
      "yle": 1136,
      "Ġfils": 1137,
      "Ġdevant": 1138,
      "Ġchaud": 1139,
      "ĠdÃ©f": 1140,
      "Ġveulent": 1141,
      "00": 1142,
      "nous": 1143,
      "Ġsau": 1144,
      "Ġfeu": 1145,
      "part": 1146,
      "Ġes": 1147,
      "hey": 1148,
      "Ġpri": 1149,
      "aires": 1150,
      "illeur": 1151,
      "Ġjusqu": 1152,
      "Ġflow": 1153,
      "ettes": 1154,
      "ture": 1155,
      "ĠsÃ»r": 1156,
      "ĠcÃ´": 1157,
      "chÃ©": 1158,
      "ussi": 1159,
      "pect": 1160,
      "ĠfrÃ¨res": 1161,
      "Ġvos": 1162,
      "Ġdro": 1163,
      "Ġlais": 1164,
      "ation": 1165,
      "Ġok": 1166,
      "az": 1167,
      "gros": 1168,
      "ule": 1169,
      "Ġbelle": 1170,
      "donc": 1171,
      "jeu": 1172,
      "mis": 1173,
      "ni": 1174,
      "sur": 1175,
      "imes": 1176,
      "Ġvient": 1177,
      "eures": 1178,
      "oubl": 1179,
      "Ġter": 1180,
      "Ã©ri": 1181,
      "oleil": 1182,
      "od": 1183,
      "Ġentre": 1184,
      "Ġmeuf": 1185,
      "Ġbab": 1186,
      "pli": 1187,
      "for": 1188,
      "Ġdir": 1189,
      "Ġmy": 1190,
      "oli": 1191,
      "assez": 1192,
      "hi": 1193,
      "mo": 1194,
      "Ġcul": 1195,
      "fÃ¨re": 1196,
      "Ġdar": 1197,
      "Ġtap": 1198,
      "th": 1199,
      "ĠdÃ©t": 1200,
      "Ġviens": 1201,
      "Ġvais": 1202,
      "oirÃ©": 1203,
      "Ġheures": 1204,
      "Ġciel": 1205,
      "connais": 1206,
      "Ġconc": 1207,
      "Ġmets": 1208,
      "Ġjoint": 1209,
      "istoi": 1210,
      "Ġenf": 1211,
      "Ġhaut": 1212,
      "Ġprem": 1213,
      "Ãªmes": 1214,
      "atre": 1215,
      "Ġaller": 1216,
      "Ġpeine": 1217,
      "Ġfac": 1218,
      "Ġmag": 1219,
      "Ġall": 1220,
      "Ġjeune": 1221,
      "Ġbeaucoup": 1222,
      "xx": 1223,
      "Ġlar": 1224,
      "Ġmau": 1225,
      "Ġtard": 1226,
      "ges": 1227,
      "Ġprop": 1228,
      "Ġgrave": 1229,
      "oot": 1230,
      "ste": 1231,
      "vers": 1232,
      "Ġdur": 1233,
      "Ġto": 1234,
      "Ġautre": 1235,
      "Ġvraiment": 1236,
      "pes": 1237,
      "Ġcau": 1238,
      "isse": 1239,
      "Ġchance": 1240,
      "ign": 1241,
      "eff": 1242,
      "gra": 1243,
      "han": 1244,
      "hors": 1245,
      "Ġpres": 1246,
      "Ġfou": 1247,
      "Ġram": 1248,
      "Ġchar": 1249,
      "Ġassez": 1250,
      "Ġmus": 1251,
      "Ġvol": 1252,
      "acc": 1253,
      "imsa": 1254,
      "Ġgenre": 1255,
      "Ġsp": 1256,
      "Ġsang": 1257,
      "Ġtant": 1258,
      "asses": 1259,
      "ĠÃ©tait": 1260,
      "Ġperdu": 1261,
      "bou": 1262,
      "jo": 1263,
      "ĠfrÃ©": 1264,
      "Ġaussi": 1265,
      "laisse": 1266,
      "Ġble": 1267,
      "Ġprobl": 1268,
      "dis": 1269,
      "main": 1270,
      "sem": 1271,
      "oto": 1272,
      "Ġkh": 1273,
      "Ġprendre": 1274,
      "Ġfamille": 1275,
      "do": 1276,
      "der": 1277,
      "Ġim": 1278,
      "Ġbonne": 1279,
      "ĠrÃªve": 1280,
      "cs": 1281,
      "jour": 1282,
      "Ġporte": 1283,
      "Ġcri": 1284,
      "af": 1285,
      "esh": 1286,
      "toujours": 1287,
      "ouver": 1288,
      "Ġbitch": 1289,
      "Ġhaine": 1290,
      "ards": 1291,
      "pourquoi": 1292,
      "appelle": 1293,
      "Ã©poque": 1294,
      "ight": 1295,
      "Ġpoto": 1296,
      "cra": 1297,
      "no": 1298,
      "ĠmÃªmes": 1299,
      "Ġsoit": 1300,
      "Ġfem": 1301,
      "Ġbat": 1302,
      "Ġregarde": 1303,
      "pris": 1304,
      "Ġperdre": 1305,
      "Ġdemande": 1306,
      "Ġdrogue": 1307,
      "Ġpou": 1308,
      "Ġpat": 1309,
      "Ã¨mes": 1310,
      "Ġplu": 1311,
      "Ġparce": 1312,
      "ains": 1313,
      "Ġfinir": 1314,
      "Ã§on": 1315,
      "rien": 1316,
      "roule": 1317,
      "aimer": 1318,
      "Ġcham": 1319,
      "Ġoui": 1320,
      "ombre": 1321,
      "pla": 1322,
      "ues": 1323,
      "Ġsouv": 1324,
      "iss": 1325,
      "Ġfume": 1326,
      "mets": 1327,
      "Ġrue": 1328,
      "Ġrimes": 1329,
      "angÃ©": 1330,
      "ate": 1331,
      "Ġ?": 1332,
      "Ġment": 1333,
      "once": 1334,
      "Ġtri": 1335,
      "iller": 1336,
      "bar": 1337,
      "nique": 1338,
      "Ġban": 1339,
      "Ġvont": 1340,
      "rÃ©s": 1341,
      "ave": 1342,
      "Ġpau": 1343,
      "onte": 1344,
      "anche": 1345,
      "Ġbos": 1346,
      "Ġab": 1347,
      "Ãªtes": 1348,
      "Ġcouple": 1349,
      "Ġrappeurs": 1350,
      "Ġpetit": 1351,
      "Ġbillets": 1352,
      "Ġchose": 1353,
      "esses": 1354,
      "Ġenvie": 1355,
      "du": 1356,
      "trop": 1357,
      "ommes": 1358,
      "use": 1359,
      "onnes": 1360,
      "Ġdemain": 1361,
      "Ġforce": 1362,
      "cette": 1363,
      "Ġsale": 1364,
      "gne": 1365,
      "hab": 1366,
      "mm": 1367,
      "Ġdonne": 1368,
      "Ġmic": 1369,
      "Ġyou": 1370,
      "oll": 1371,
      "Ã¢t": 1372,
      "Ġnouveau": 1373,
      "fuck": 1374,
      "pÃ©": 1375,
      "Ġport": 1376,
      "Ġcasse": 1377,
      "Ġrac": 1378,
      "Ġins": 1379,
      "ances": 1380,
      "ber": 1381,
      "Ġ3": 1382,
      "Ġsoleil": 1383,
      "rac": 1384,
      "Ã©cris": 1385,
      "ĠrÃ©p": 1386,
      "Ġapp": 1387,
      "Ġcontre": 1388,
      "jeune": 1389,
      "car": 1390,
      "oÃ¹": 1391,
      "tent": 1392,
      "Ġdoig": 1393,
      "Ġbut": 1394,
      "Ġvit": 1395,
      "Ġmettre": 1396,
      "aÃ¯": 1397,
      "Ġpendant": 1398,
      "Ġbout": 1399,
      "Ġroule": 1400,
      "Ġtrain": 1401,
      "Ġbase": 1402,
      "ĠfrÃ©ro": 1403,
      "cr": 1404,
      "fs": 1405,
      "Ġid": 1406,
      "Ġchant": 1407,
      "Ġalors": 1408,
      "Ġstyle": 1409,
      "hÃ©": 1410,
      "Ġpous": 1411,
      "Ġmill": 1412,
      "ane": 1413,
      "Ġven": 1414,
      "Ġnu": 1415,
      "orm": 1416,
      "rir": 1417,
      "Ġauc": 1418,
      "dre": 1419,
      "deux": 1420,
      "Ġpie": 1421,
      "Ġsy": 1422,
      "Ġbo": 1423,
      "tem": 1424,
      "Ġnom": 1425,
      "aÃ®t": 1426,
      "Ġcro": 1427,
      "Ġsem": 1428,
      "quipe": 1429,
      "Ġseule": 1430,
      "rÃª": 1431,
      "Ġjj": 1432,
      "Ġquit": 1433,
      "Ġfaux": 1434,
      "Ġbu": 1435,
      "Ġgos": 1436,
      "autre": 1437,
      "Ġchoses": 1438,
      "igne": 1439,
      "Ġdieu": 1440,
      "cl": 1441,
      "Ġaff": 1442,
      "Ġren": 1443,
      "Ġvide": 1444,
      "fois": 1445,
      "fond": 1446,
      "Ġup": 1447,
      "ĠdÃ©s": 1448,
      "Ġpute": 1449,
      "gr": 1450,
      "Ġpan": 1451,
      "Ġclo": 1452,
      "inqui": 1453,
      "Ġgag": 1454,
      "Ġouh": 1455,
      "Ġpote": 1456,
      "Ġrespect": 1457,
      "Ġmauvais": 1458,
      "ip": 1459,
      "Ġpai": 1460,
      "Ġpay": 1461,
      "Ġsuc": 1462,
      "Ġquatre": 1463,
      "argent": 1464,
      "istes": 1465,
      "tel": 1466,
      "Ġparles": 1467,
      "emp": 1468,
      "Ġmeilleur": 1469,
      "comp": 1470,
      "Ġdirait": 1471,
      "Ġmusique": 1472,
      "vant": 1473,
      "Ġsol": 1474,
      "Ġhistoi": 1475,
      "ĠÃ©p": 1476,
      "allume": 1477,
      "Ġcaba": 1478,
      "fe": 1479,
      "trois": 1480,
      "Ġvoix": 1481,
      "Ġad": 1482,
      "inq": 1483,
      "Ġjean": 1484,
      "Ġrappe": 1485,
      "Ġcouilles": 1486,
      "aff": 1487,
      "bles": 1488,
      "ore": 1489,
      "rent": 1490,
      "Ġlou": 1491,
      "Ġtire": 1492,
      "Ã©v": 1493,
      "ĠÃ¢": 1494,
      "aurais": 1495,
      "Ġyo": 1496,
      "Ġprends": 1497,
      "Ġsec": 1498,
      "essaye": 1499,
      "Ġcompte": 1500,
      "ca": 1501,
      "Ġass": 1502,
      "ari": 1503,
      "Ġheure": 1504,
      "Ġparis": 1505,
      "ĠnÃ©g": 1506,
      "ments": 1507,
      "Ġvivre": 1508,
      "Ã¢che": 1509,
      "ancer": 1510,
      "Ġdon": 1511,
      "ist": 1512,
      "Ġbah": 1513,
      "nÃ©es": 1514,
      "bal": 1515,
      "ide": 1516,
      "voul": 1517,
      "ĠlÃ©g": 1518,
      "ase": 1519,
      "Ġah": 1520,
      "Ġdisent": 1521,
      "Ġputes": 1522,
      "semble": 1523,
      "Ġ4": 1524,
      "Ġcent": 1525,
      "Ġcit": 1526,
      "enf": 1527,
      "Ġbig": 1528,
      "ures": 1529,
      "Ġalle": 1530,
      "Ġfini": 1531,
      "Ġpotes": 1532,
      "ĠpiÃ¨": 1533,
      "Ġsourire": 1534,
      "prÃ©fÃ¨re": 1535,
      "ĠcÃ´tÃ©": 1536,
      "oublie": 1537,
      "Ġlarmes": 1538,
      "cont": 1539,
      "ey": 1540,
      "Ġimp": 1541,
      "Ġfai": 1542,
      "euh": 1543,
      "Ġverre": 1544,
      "Ġmaman": 1545,
      "uite": 1546,
      "ĠproblÃ¨mes": 1547,
      "sus": 1548,
      "Ġgav": 1549,
      "itu": 1550,
      "Ġbaby": 1551,
      "Ġho": 1552,
      "Ġoubl": 1553,
      "dio": 1554,
      "Ġdern": 1555,
      "bon": 1556,
      "mar": 1557,
      "personne": 1558,
      "ttes": 1559,
      "Ġcel": 1560,
      "Ġpasser": 1561,
      "Ġnique": 1562,
      "alent": 1563,
      "ellement": 1564,
      "rÃ©p": 1565,
      "ĠmÃ©t": 1566,
      "Ġfi": 1567,
      "ĠfÃªte": 1568,
      "chent": 1569,
      "Ġmains": 1570,
      "Ġballe": 1571,
      "Ġjeunes": 1572,
      "Ġlove": 1573,
      "temps": 1574,
      "hui": 1575,
      "mÃ¨ne": 1576,
      "va": 1577,
      "Ġlimsa": 1578,
      "Ġcla": 1579,
      "Ã©ch": 1580,
      "Ġbra": 1581,
      "assÃ©": 1582,
      "bientÃ´t": 1583,
      "Ġfacile": 1584,
      "Ġcause": 1585,
      "gre": 1586,
      "jus": 1587,
      "mme": 1588,
      "Ġesp": 1589,
      "Ġty": 1590,
      "Ġblo": 1591,
      "iter": 1592,
      "ress": 1593,
      "avoir": 1594,
      "Ġprom": 1595,
      "Ġavait": 1596,
      "voulais": 1597,
      "ln": 1598,
      "ub": 1599,
      "Ġit": 1600,
      "ĠpÃ¨re": 1601,
      "Ġfau": 1602,
      "Ġbles": 1603,
      "Ġbail": 1604,
      "Ġro": 1605,
      "Ġsix": 1606,
      "Ã©cout": 1607,
      "illÃ©": 1608,
      "Ġguerre": 1609,
      "Ġrappelle": 1610,
      "ĠgoÃ»": 1611,
      "Ġrester": 1612,
      "cours": 1613,
      "ger": 1614,
      "jet": 1615,
      "nan": 1616,
      "sous": 1617,
      "Ġdra": 1618,
      "Ġquart": 1619,
      "Ġfe": 1620,
      "Ġprend": 1621,
      "ks": 1622,
      "Ġmil": 1623,
      "Ġvent": 1624,
      "oid": 1625,
      "illa": 1626,
      "Ġgl": 1627,
      "ĠchangÃ©": 1628,
      "Ġvieux": 1629,
      "ĠprÃªt": 1630,
      "prendre": 1631,
      "adis": 1632,
      "vite": 1633,
      "bes": 1634,
      "but": 1635,
      "voir": 1636,
      "entends": 1637,
      "Ġdanse": 1638,
      "Ġhigh": 1639,
      "ĠderriÃ¨re": 1640,
      "lnay": 1641,
      "Ġor": 1642,
      "Ġdos": 1643,
      "Ġmor": 1644,
      "Ġvoi": 1645,
      "Ġdehors": 1646,
      "coeur": 1647,
      "Ġcroire": 1648,
      "Ġpop": 1649,
      "dent": 1650,
      "heur": 1651,
      "Ġbag": 1652,
      "onnÃ©": 1653,
      "Ġarri": 1654,
      "oof": 1655,
      "fl": 1656,
      "ntre": 1657,
      "pt": 1658,
      "Ġsons": 1659,
      "quel": 1660,
      "Ġaur": 1661,
      "Ġrat": 1662,
      "dem": 1663,
      "sible": 1664,
      "ull": 1665,
      "Ġnotre": 1666,
      "jourd": 1667,
      "bum": 1668,
      "min": 1669,
      "enn": 1670,
      "Ġben": 1671,
      "Ġroute": 1672,
      "iti": 1673,
      "ĠÃ©toi": 1674,
      "Ġbaiser": 1675,
      "Ġpremier": 1676,
      "cu": 1677,
      "iÃ¨me": 1678,
      "Ġtellement": 1679,
      "ert": 1680,
      "Ġtaff": 1681,
      "rapp": 1682,
      "espÃ¨re": 1683,
      "Ġjoue": 1684,
      "cle": 1685,
      "her": 1686,
      "rain": 1687,
      "oue": 1688,
      "ast": 1689,
      "alitÃ©": 1690,
      "resse": 1691,
      "Ġsim": 1692,
      "ĠtraÃ®": 1693,
      "gues": 1694,
      "Ġcherche": 1695,
      "Ġweed": 1696,
      "Ġtextes": 1697,
      "Ġpaix": 1698,
      "cro": 1699,
      "jamais": 1700,
      "nos": 1701,
      "rit": 1702,
      "Ġpense": 1703,
      "enfer": 1704,
      "Ġbaise": 1705,
      "Ġchange": 1706,
      "ric": 1707,
      "ĠdÃ©p": 1708,
      "ingt": 1709,
      "Ġcorps": 1710,
      "bat": 1711,
      "Ġsk": 1712,
      "Ġquest": 1713,
      "unk": 1714,
      "ĠrÃ©c": 1715,
      "Ġgal": 1716,
      "Ġreu": 1717,
      "ĠprÃ¨s": 1718,
      "Ġcop": 1719,
      "Ġavoir": 1720,
      "gueu": 1721,
      "Ġrentrer": 1722,
      "cÃ©": 1723,
      "gique": 1724,
      "mons": 1725,
      "uer": 1726,
      "Ġbeuh": 1727,
      "Ġrais": 1728,
      "ĠgÃ©": 1729,
      "Ġcomm": 1730,
      "prend": 1731,
      "umiÃ¨re": 1732,
      "Ġair": 1733,
      "ĠÃ©cout": 1734,
      "tru": 1735,
      "Ġtape": 1736,
      "Ġallez": 1737,
      "Ġcre": 1738,
      "Ġcours": 1739,
      "Ġstre": 1740,
      "Ġfre": 1741,
      "Ġfla": 1742,
      "Ġfous": 1743,
      "deau": 1744,
      "Ġhum": 1745,
      "Ġob": 1746,
      "cherche": 1747,
      "Ġrime": 1748,
      "Ġfilm": 1749,
      "aimerais": 1750,
      "Ġdoigts": 1751,
      "dic": 1752,
      "hum": 1753,
      "rÃ¨s": 1754,
      "Ġmois": 1755,
      "Ġsors": 1756,
      "Ġve": 1757,
      "Ġpass": 1758,
      "ĠpassÃ©": 1759,
      "int": 1760,
      "aller": 1761,
      "Ġchanger": 1762,
      "Ġeff": 1763,
      "ĠscÃ¨ne": 1764,
      "we": 1765,
      "Ġdonner": 1766,
      "ĠbÃ¢t": 1767,
      "Ġag": 1768,
      "Ġgar": 1769,
      "ĠfrÃ©rot": 1770,
      "sh": 1771,
      "Ġsm": 1772,
      "erai": 1773,
      "Ġfle": 1774,
      "Ġval": 1775,
      "veau": 1776,
      "depuis": 1777,
      "Ġher": 1778,
      "olÃ©": 1779,
      "ement": 1780,
      "Ġcoups": 1781,
      "Ġaime": 1782,
      "Ġnouvelle": 1783,
      "envoie": 1784,
      "gn": 1785,
      "mam": 1786,
      "ss": 1787,
      "ĠtÃ©": 1788,
      "Ġjet": 1789,
      "Ġvo": 1790,
      "Ġvrais": 1791,
      "Ġtrouv": 1792,
      "pourrais": 1793,
      "Ġbiz": 1794,
      "Ġmots": 1795,
      "bo": 1796,
      "ry": 1797,
      "Ġpire": 1798,
      "Ġsomme": 1799,
      "Ã©ro": 1800,
      "Ġbord": 1801,
      "agne": 1802,
      "Ġgris": 1803,
      "Ġarr": 1804,
      "Ġarrive": 1805,
      "vient": 1806,
      "Ġjouer": 1807,
      "Ġstudio": 1808,
      "moke": 1809,
      "cal": 1810,
      "eil": 1811,
      "lou": 1812,
      "Ġpig": 1813,
      "enne": 1814,
      "ĠtÃªtes": 1815,
      "Ġfol": 1816,
      "Ġboy": 1817,
      "unes": 1818,
      "oment": 1819,
      "chet": 1820,
      "aprÃ¨s": 1821,
      "rite": 1822,
      "endu": 1823,
      "Ġtriste": 1824,
      "Ġcool": 1825,
      "Ġgrosse": 1826,
      "ĠbientÃ´t": 1827,
      "Ġ16": 1828,
      "Ġsavent": 1829,
      "Ġpapa": 1830,
      "cent": 1831,
      "donne": 1832,
      "gen": 1833,
      "io": 1834,
      "putain": 1835,
      "vu": 1836,
      "ana": 1837,
      "assi": 1838,
      "Ġgrai": 1839,
      "Ġparlent": 1840,
      "Ġtrou": 1841,
      "ĠjournÃ©e": 1842,
      "eufs": 1843,
      "Ġcalme": 1844,
      "Ġmecs": 1845,
      "ĠannÃ©es": 1846,
      "Ġtrucs": 1847,
      "ba": 1848,
      "ga": 1849,
      "oui": 1850,
      "Ġmiens": 1851,
      "encore": 1852,
      "Ġber": 1853,
      "Ġvoit": 1854,
      "iner": 1855,
      "Ġgent": 1856,
      "ico": 1857,
      "Ġtrans": 1858,
      "Ã´le": 1859,
      "Ġniquer": 1860,
      "Ġballes": 1861,
      "Ġfemme": 1862,
      "inquiÃ¨te": 1863,
      "Ġcity": 1864,
      "bel": 1865,
      "cre": 1866,
      "ho": 1867,
      "ial": 1868,
      "Ġ7": 1869,
      "Ġsai": 1870,
      "Ġsin": 1871,
      "Ġsois": 1872,
      "Ġris": 1873,
      "ĠrÃ©s": 1874,
      "chant": 1875,
      "rat": 1876,
      "ailleurs": 1877,
      "Ġpartir": 1878,
      "ouvre": 1879,
      "Ġlongtemps": 1880,
      "Ġlaisser": 1881,
      "cel": 1882,
      "ieu": 1883,
      "po": 1884,
      "Ġlune": 1885,
      "Ġcam": 1886,
      "Ġsch": 1887,
      "Ġsolo": 1888,
      "Ġfesses": 1889,
      "Ã¨ge": 1890,
      "raÃ®": 1891,
      "osma": 1892,
      "Ġmaison": 1893,
      "cool": 1894,
      "serve": 1895,
      "Ġpartout": 1896,
      "allait": 1897,
      "audrait": 1898,
      "maintenant": 1899,
      "bab": 1900,
      "Ġand": 1901,
      "Ġmur": 1902,
      "Ġbre": 1903,
      "Ġbons": 1904,
      "ĠvÃ©r": 1905,
      "Ġgau": 1906,
      "Ġmontre": 1907,
      "Ġretour": 1908,
      "Ġkiff": 1909,
      "prÃ©c": 1910,
      "Ġgrandi": 1911,
      "Ġ10": 1912,
      "ĠpÃ©ter": 1913,
      "Ġaucun": 1914,
      "Ġhistoires": 1915,
      "ceux": 1916,
      "na": 1917,
      "vas": 1918,
      "vres": 1919,
      "wesh": 1920,
      "zz": 1921,
      "Ġpare": 1922,
      "ĠcrÃ©": 1923,
      "ĠsoirÃ©": 1924,
      "quent": 1925,
      "arre": 1926,
      "met": 1927,
      "ĠnÃ©": 1928,
      "Ġnight": 1929,
      "Ġdiff": 1930,
      "Ġvision": 1931,
      "Ġmatin": 1932,
      "ize": 1933,
      "uh": 1934,
      "Ġpil": 1935,
      "Ġsoig": 1936,
      "Ġtas": 1937,
      "Ġtar": 1938,
      "Ġtel": 1939,
      "ĠtÃ©l": 1940,
      "chaque": 1941,
      "Ġcombien": 1942,
      "rache": 1943,
      "Ġchoix": 1944,
      "Ġmerci": 1945,
      "ĠÃ©coute": 1946,
      "dy": 1947,
      "ka": 1948,
      "ron": 1949,
      "ven": 1950,
      "xe": 1951,
      "Ġx": 1952,
      "Ġpaye": 1953,
      "Ġcinq": 1954,
      "ouh": 1955,
      "oupe": 1956,
      "Ġvoy": 1957,
      "ression": 1958,
      "ĠÃ©quipe": 1959,
      "Ã»le": 1960,
      "ĠÃ©tÃ©": 1961,
      "Ġrouge": 1962,
      "Ġfoutre": 1963,
      "Ġtime": 1964,
      "Ġgavas": 1965,
      "don": 1966,
      "ich": 1967,
      "mmes": 1968,
      "Ġpal": 1969,
      "oux": 1970,
      "Ġtable": 1971,
      "Ġgam": 1972,
      "Ã¨rent": 1973,
      "veille": 1974,
      "ĠdÃ©l": 1975,
      "ailles": 1976,
      "Ġboule": 1977,
      "Ġsera": 1978,
      "Ġsortir": 1979,
      "Ġsavoir": 1980,
      "die": 1981,
      "Ġ9": 1982,
      "Ġoi": 1983,
      "Ġpers": 1984,
      "Ġcoin": 1985,
      "Ġbro": 1986,
      "avance": 1987,
      "tiÃ©": 1988,
      "Ġfroid": 1989,
      "onds": 1990,
      "Ġmanque": 1991,
      "Ġdouble": 1992,
      "Ġappel": 1993,
      "Ġpieds": 1994,
      "ĠdÃ»": 1995,
      "Ġsmoke": 1996,
      "erais": 1997,
      "Ġfa": 1998,
      "Ġbour": 1999,
      "ĠbÃªte": 2000,
      "ett": 2001,
      "Ġgang": 2002,
      "Ġmoney": 2003,
      "autres": 2004,
      "ĠdÃ©g": 2005,
      "essaie": 2006,
      "Ġbruit": 2007,
      "Ġbouche": 2008,
      "Ġperds": 2009,
      "Ġriche": 2010,
      "Ġcoll": 2011,
      "fiance": 2012,
      "xxx": 2013,
      "bla": 2014,
      "naie": 2015,
      "utes": 2016,
      "Ġtours": 2017,
      "Ġfu": 2018,
      "Ġfier": 2019,
      "Ġback": 2020,
      "eum": 2021,
      "Ġenne": 2022,
      "Ġparti": 2023,
      "rire": 2024,
      "Ġtrouve": 2025,
      "Ġwh": 2026,
      "Ġpoches": 2027,
      "ciel": 2028,
      "ek": 2029,
      "ik": 2030,
      "nd": 2031,
      "pos": 2032,
      "ĠdÃ¨s": 2033,
      "Ġcelle": 2034,
      "Ġfoot": 2035,
      "Ġvoud": 2036,
      "cho": 2037,
      "iennent": 2038,
      "Ã©ter": 2039,
      "utÃ´t": 2040,
      "appel": 2041,
      "Ġfumer": 2042,
      "Ġtexte": 2043,
      "Ġpluie": 2044,
      "Ġaffaires": 2045,
      "Ġsimple": 2046,
      "pendant": 2047,
      "rouve": 2048,
      "Ġelles": 2049,
      "Ġdents": 2050,
      "ĠlÃ¨ve": 2051,
      "Ġpaire": 2052,
      "Ġcle": 2053,
      "Ġmc": 2054,
      "ĠsÃ©": 2055,
      "ases": 2056,
      "Ġfut": 2057,
      "Ġveste": 2058,
      "Ġtue": 2059,
      "ĠmoitiÃ©": 2060,
      "umer": 2061,
      "oncÃ©": 2062,
      "ĠfumÃ©e": 2063,
      "ĠÃ¢me": 2064,
      "Ġpiges": 2065,
      "Ġgauche": 2066,
      "lais": 2067,
      "lles": 2068,
      "port": 2069,
      "Ġdois": 2070,
      "ĠlumiÃ¨re": 2071,
      "Ġpur": 2072,
      "ende": 2073,
      "Ġchem": 2074,
      "Ġparadis": 2075,
      "Ġmonnaie": 2076,
      "ices": 2077,
      "igo": 2078,
      "Ġprof": 2079,
      "Ġplay": 2080,
      "Ġmarche": 2081,
      "Ġtourne": 2082,
      "Ġamis": 2083,
      "Ġsuper": 2084,
      "Ġrempl": 2085,
      "Ġsouvenir": 2086,
      "cons": 2087,
      "lot": 2088,
      "now": 2089,
      "regarde": 2090,
      "issent": 2091,
      "let": 2092,
      "Ã¨tes": 2093,
      "Ġensemble": 2094,
      "irai": 2095,
      "ager": 2096,
      "Ġtrav": 2097,
      "Ġgrands": 2098,
      "Ġsales": 2099,
      "Ã©rie": 2100,
      "Ġsouff": 2101,
      "rÃªve": 2102,
      "ĠÃ©toiles": 2103,
      "cul": 2104,
      "teur": 2105,
      "Ġ5": 2106,
      "airo": 2107,
      "Ġmen": 2108,
      "ano": 2109,
      "Ġjam": 2110,
      "ises": 2111,
      "Ġfour": 2112,
      "Ġfrappe": 2113,
      "Ġgarde": 2114,
      "Ġdanser": 2115,
      "ousse": 2116,
      "Ġhommes": 2117,
      "acun": 2118,
      "pars": 2119,
      "Ġwoof": 2120,
      "urer": 2121,
      "Ġseum": 2122,
      "Ġtourner": 2123,
      "ormal": 2124,
      "cte": 2125,
      "fa": 2126,
      "aite": 2127,
      "anÃ§": 2128,
      "Ġfus": 2129,
      "Ġvingt": 2130,
      "oient": 2131,
      "Ġress": 2132,
      "ourir": 2133,
      "Ġnot": 2134,
      "Ġchans": 2135,
      "Ġpourtant": 2136,
      "Ġhab": 2137,
      "anges": 2138,
      "Ġchev": 2139,
      "oseille": 2140,
      "Ġbonheur": 2141,
      "ights": 2142,
      "Ġpetits": 2143,
      "ferme": 2144,
      "Ġvoulait": 2145,
      "ĠbÃ©bÃ©": 2146,
      "Ġtombe": 2147,
      "Ġprix": 2148,
      "force": 2149,
      "Ġcouplet": 2150,
      "juste": 2151,
      "con": 2152,
      "dit": 2153,
      "dÃ©s": 2154,
      "son": 2155,
      "ute": 2156,
      "esqui": 2157,
      "Ġtosma": 2158,
      "Ġbus": 2159,
      "Ġbel": 2160,
      "Ġbri": 2161,
      "oite": 2162,
      "Ġge": 2163,
      "Ġgame": 2164,
      "attend": 2165,
      "Ġlife": 2166,
      "espoir": 2167,
      "aÃ®tre": 2168,
      "jj": 2169,
      "lis": 2170,
      "Ġdout": 2171,
      "Ġpol": 2172,
      "inÃ©": 2173,
      "ics": 2174,
      "Ġcoupe": 2175,
      "ingue": 2176,
      "Ã®t": 2177,
      "Ã©lange": 2178,
      "Ġconfiance": 2179,
      "Ġcrack": 2180,
      "Ġstud": 2181,
      "itude": 2182,
      "beau": 2183,
      "peu": 2184,
      "Ġly": 2185,
      "Ġlour": 2186,
      "Ġcasser": 2187,
      "ales": 2188,
      "antÃ©": 2189,
      "ĠplutÃ´t": 2190,
      "atte": 2191,
      "aines": 2192,
      "Ġop": 2193,
      "Ġvies": 2194,
      "ĠprÃ©c": 2195,
      "importe": 2196,
      "casse": 2197,
      "gÃ©": 2198,
      "gle": 2199,
      "iz": 2200,
      "ime": 2201,
      "rou": 2202,
      "su": 2203,
      "esse": 2204,
      "Ġdom": 2205,
      "Ġdor": 2206,
      "Ġdie": 2207,
      "Ġdalle": 2208,
      "Ġlit": 2209,
      "Ġligne": 2210,
      "Ġlights": 2211,
      "Ġmaille": 2212,
      "Ġsw": 2213,
      "Ġbad": 2214,
      "Ġbande": 2215,
      "arri": 2216,
      "Ġvendre": 2217,
      "Ã¨nes": 2218,
      "Ġcompris": 2219,
      "rÃ©e": 2220,
      "prit": 2221,
      "Ġwesh": 2222,
      "Ġrapper": 2223,
      "brou": 2224,
      "Ġsuff": 2225,
      "Ã¯e": 2226,
      "ĠvÃ©ritÃ©": 2227,
      "Ġpareil": 2228,
      "cap": 2229,
      "dou": 2230,
      "mat": 2231,
      "mÃ©s": 2232,
      "ruc": 2233,
      "vie": 2234,
      "Ġcass": 2235,
      "Ġmou": 2236,
      "Ġnah": 2237,
      "emande": 2238,
      "Ġbrille": 2239,
      "hein": 2240,
      "Ġguette": 2241,
      "dieu": 2242,
      "Ġboss": 2243,
      "Ġcouplets": 2244,
      "Ġgosses": 2245,
      "Ġhola": 2246,
      "Ġraison": 2247,
      "aw": 2248,
      "tin": 2249,
      "Ġis": 2250,
      "Ġlet": 2251,
      "Ġsn": 2252,
      "quette": 2253,
      "annÃ©e": 2254,
      "Ġbois": 2255,
      "aurai": 2256,
      "Ġdessus": 2257,
      "alors": 2258,
      "Ġhom": 2259,
      "atch": 2260,
      "andes": 2261,
      "oss": 2262,
      "Ġref": 2263,
      "act": 2264,
      "Ġteam": 2265,
      "Ġbiff": 2266,
      "ĠidÃ©es": 2267,
      "Ġdernier": 2268,
      "cti": 2269,
      "ez": 2270,
      "homme": 2271,
      "pri": 2272,
      "poto": 2273,
      "ront": 2274,
      "tter": 2275,
      "Ġfille": 2276,
      "Ġvend": 2277,
      "iles": 2278,
      "Ġrent": 2279,
      "Ġdesc": 2280,
      "ramÃ¨ne": 2281,
      "check": 2282,
      "ables": 2283,
      "Ġog": 2284,
      "Ġkil": 2285,
      "Ġtech": 2286,
      "Ġbras": 2287,
      "Ġpose": 2288,
      "Ġconnu": 2289,
      "Ġlibre": 2290,
      "Ġrappeur": 2291,
      "Ġbarre": 2292,
      "Ġquelque": 2293,
      "Ġblanc": 2294,
      "Ġferme": 2295,
      "Ġdojo": 2296,
      "Ġdaron": 2297,
      "raconte": 2298,
      "Ġpaname": 2299,
      "Ġfaute": 2300,
      "ĠsoirÃ©e": 2301,
      "Ġclean": 2302,
      "20": 2303,
      "bas": 2304,
      "gie": 2305,
      "ki": 2306,
      "mot": 2307,
      "nouve": 2308,
      "pa": 2309,
      "range": 2310,
      "Ġ-": 2311,
      "Ġlang": 2312,
      "ĠpÃ©": 2313,
      "era": 2314,
      "Ġfen": 2315,
      "Ġboute": 2316,
      "estin": 2317,
      "Ġdedans": 2318,
      "inv": 2319,
      "inue": 2320,
      "Ġnes": 2321,
      "Ġchiff": 2322,
      "ĠhÃ©": 2323,
      "Ġhier": 2324,
      "Ġautant": 2325,
      "Ġfaites": 2326,
      "avenir": 2327,
      "Ġkeufs": 2328,
      "Ġteh": 2329,
      "Ġfrance": 2330,
      "merci": 2331,
      "oudre": 2332,
      "place": 2333,
      "Ġmilieu": 2334,
      "can": 2335,
      "da": 2336,
      "pap": 2337,
      "Ġess": 2338,
      "Ġpis": 2339,
      "ĠpÃ¢": 2340,
      "Ġmas": 2341,
      "Ġspe": 2342,
      "Ġtor": 2343,
      "Ġtiens": 2344,
      "Ġdead": 2345,
      "Ġhonn": 2346,
      "Ġhors": 2347,
      "ost": 2348,
      "Ġore": 2349,
      "imag": 2350,
      "Ġart": 2351,
      "Ġpartie": 2352,
      "Ġconnait": 2353,
      "impression": 2354,
      "ĠlaissÃ©": 2355,
      "Ġbleu": 2356,
      "Ġfemmes": 2357,
      "Ġclope": 2358,
      "compte": 2359,
      "Ġbails": 2360,
      "croy": 2361,
      "prÃ©cie": 2362,
      "cÃ¨s": 2363,
      "geu": 2364,
      "gent": 2365,
      "non": 2366,
      "pose": 2367,
      "ty": 2368,
      "Ġpois": 2369,
      "Ġpouv": 2370,
      "ĠpÃ¨te": 2371,
      "Ġste": 2372,
      "Ġfonce": 2373,
      "aulnay": 2374,
      "aujourd": 2375,
      "Ã¨le": 2376,
      "ital": 2377,
      "Ãªter": 2378,
      "Ġcho": 2379,
      "Ġparfois": 2380,
      "plique": 2381,
      "Ġalbum": 2382,
      "ĠplaÃ®t": 2383,
      "ĠcarrÃ©": 2384,
      "Ġcach": 2385,
      "Ġdroit": 2386,
      "allez": 2387,
      "Ġvoler": 2388,
      "grand": 2389,
      "Ġcelui": 2390,
      "ly": 2391,
      "pens": 2392,
      "ye": 2393,
      "Ġxxx": 2394,
      "aimes": 2395,
      "Ġmille": 2396,
      "Ġbit": 2397,
      "Ġbous": 2398,
      "Ġvan": 2399,
      "Ġvaut": 2400,
      "Ġgla": 2401,
      "char": 2402,
      "usement": 2403,
      "Ġret": 2404,
      "Ġstress": 2405,
      "ombres": 2406,
      "merde": 2407,
      "Ġcache": 2408,
      "Ġrempli": 2409,
      "Ġdonut": 2410,
      "bois": 2411,
      "bah": 2412,
      "cab": 2413,
      "eilleur": 2414,
      "fÃ©": 2415,
      "ha": 2416,
      "pou": 2417,
      "vo": 2418,
      "Ġdoit": 2419,
      "ĠlÃ¨": 2420,
      "ennent": 2421,
      "Ġsel": 2422,
      "Ġja": 2423,
      "Ġfant": 2424,
      "Ġrend": 2425,
      "Ġrage": 2426,
      "Ġgard": 2427,
      "uss": 2428,
      "chez": 2429,
      "Ġrev": 2430,
      "sident": 2431,
      "ĠdÃ©mons": 2432,
      "orts": 2433,
      "Ġcouleur": 2434,
      "Ġdist": 2435,
      "Ã¢ne": 2436,
      "ĠÃ©v": 2437,
      "Ġgrosses": 2438,
      "Ġze": 2439,
      "Ġvraie": 2440,
      "Ġcadeau": 2441,
      "Ġcompter": 2442,
      "frain": 2443,
      "ĠdÃ©foncÃ©": 2444,
      "ĠnÃ©gro": 2445,
      "Ġgraille": 2446,
      "eille": 2447,
      "gh": 2448,
      "ient": 2449,
      "passer": 2450,
      "Ġpor": 2451,
      "Ġcous": 2452,
      "Ġcaisse": 2453,
      "Ġfilles": 2454,
      "ĠchÃ¨": 2455,
      "Ġchois": 2456,
      "ature": 2457,
      "ots": 2458,
      "otte": 2459,
      "Ġcheck": 2460,
      "Ġsalle": 2461,
      "Ġconse": 2462,
      "Ġbillet": 2463,
      "Ġchambre": 2464,
      "ĠpiÃ¨ce": 2465,
      "--": 2466,
      "bres": 2467,
      "cas": 2468,
      "iques": 2469,
      "jass": 2470,
      "my": 2471,
      "pet": 2472,
      "pir": 2473,
      "Ġ6": 2474,
      "Ġailleurs": 2475,
      "ĠdonnÃ©": 2476,
      "aide": 2477,
      "Ġcents": 2478,
      "Ġmeur": 2479,
      "ĠmÃ¨res": 2480,
      "Ġsil": 2481,
      "Ġsoin": 2482,
      "Ġsombre": 2483,
      "Ġtaille": 2484,
      "quet": 2485,
      "Ã©te": 2486,
      "euse": 2487,
      "alcool": 2488,
      "Ġend": 2489,
      "cep": 2490,
      "Ġhomme": 2491,
      "Ġhmm": 2492,
      "ieks": 2493,
      "ates": 2494,
      "Ġtrouver": 2495,
      "Ã¢ce": 2496,
      "ĠrÃ©veille": 2497,
      "Ġzin": 2498,
      "Ġconnard": 2499,
      "instru": 2500,
      "Ġriches": 2501,
      "acks": 2502,
      "Ġpetite": 2503,
      "itesse": 2504,
      "Ġenfants": 2505,
      "ĠramÃ¨ne": 2506,
      "Ġvenu": 2507,
      "Ġpromis": 2508,
      "baby": 2509,
      "bus": 2510,
      "sage": 2511,
      "tra": 2512,
      "Ġu": 2513,
      "Ġlun": 2514,
      "Ġpa": 2515,
      "Ġcad": 2516,
      "Ġsap": 2517,
      "Ġtal": 2518,
      "reux": 2519,
      "Ġbang": 2520,
      "intÃ©": 2521,
      "Ġnormal": 2522,
      "Ã¨che": 2523,
      "Ġhy": 2524,
      "Ġmach": 2525,
      "parfois": 2526,
      "Ġbriller": 2527,
      "comm": 2528,
      "comment": 2529,
      "Ã»te": 2530,
      "ĠÃ©crit": 2531,
      "Ġmiss": 2532,
      "ĠprÃ©fÃ¨re": 2533,
      "Ġphases": 2534,
      "ignon": 2535,
      "Ġchamp": 2536,
      "ĠtrouvÃ©": 2537,
      "ĠfenÃªtre": 2538,
      "ev": 2539,
      "yo": 2540,
      "ĠlÃ¢": 2541,
      "Ġpom": 2542,
      "enu": 2543,
      "Ġsam": 2544,
      "Ġfasse": 2545,
      "Ġfallait": 2546,
      "Ġbats": 2547,
      "ester": 2548,
      "Ġru": 2549,
      "Ġrid": 2550,
      "ith": 2551,
      "Ġmont": 2552,
      "Ġnew": 2553,
      "Ġgrande": 2554,
      "Ġsame": 2555,
      "Ġzone": 2556,
      "ombe": 2557,
      "ĠprÃ©sident": 2558,
      "Ġflash": 2559,
      "ĠcaptÃ©": 2560,
      "Ġminutes": 2561,
      "olide": 2562,
      "Ġsouvent": 2563,
      "Ġgosse": 2564,
      "Ġflex": 2565,
      "Ġchemin": 2566,
      "bit": 2567,
      "hor": 2568,
      "hier": 2569,
      "Ġpeau": 2570,
      "Ġpoint": 2571,
      "Ġmanger": 2572,
      "Ġmourir": 2573,
      "Ġsaut": 2574,
      "Ġbelles": 2575,
      "eul": 2576,
      "Ġvin": 2577,
      "chain": 2578,
      "rice": 2579,
      "Ġsig": 2580,
      "Ġreb": 2581,
      "Ġregre": 2582,
      "Ġtrous": 2583,
      "parce": 2584,
      "Ġnez": 2585,
      "ĠrÃ©el": 2586,
      "Ġcru": 2587,
      "Ġdevenir": 2588,
      "Ġphoto": 2589,
      "ĠfumÃ©": 2590,
      "iÃ¨res": 2591,
      "Ġanc": 2592,
      "Ġpoin": 2593,
      "Ġcav": 2594,
      "Ġmange": 2595,
      "Ġsqu": 2596,
      "Ġsli": 2597,
      "Ġju": 2598,
      "isent": 2599,
      "Ġboire": 2600,
      "teau": 2601,
      "itÃ©s": 2602,
      "Ġchacun": 2603,
      "Ġhun": 2604,
      "Ã©tÃ©": 2605,
      "oler": 2606,
      "Ġretr": 2607,
      "abord": 2608,
      "Ġtran": 2609,
      "assent": 2610,
      "parler": 2611,
      "ĠrÃ©f": 2612,
      "ĠrÃ©g": 2613,
      "Ġclar": 2614,
      "Ġik": 2615,
      "ĠmÃ©lo": 2616,
      "Ġattend": 2617,
      "Ġsenti": 2618,
      "Ġsauf": 2619,
      "Ġnuages": 2620,
      "ĠgoÃ»t": 2621,
      "Ġstreet": 2622,
      "Ġfutur": 2623,
      "Ġspeed": 2624,
      "cis": 2625,
      "feu": 2626,
      "fie": 2627,
      "font": 2628,
      "flow": 2629,
      "iÃ©": 2630,
      "nu": 2631,
      "oeil": 2632,
      "Ġsommes": 2633,
      "Ġtch": 2634,
      "Ã©quipe": 2635,
      "Ġjal": 2636,
      "Ġdevient": 2637,
      "ĠgÃ©n": 2638,
      "Ġmama": 2639,
      "Ġtuer": 2640,
      "Ã´mes": 2641,
      "ĠfranÃ§": 2642,
      "Ġprojet": 2643,
      "blant": 2644,
      "Ġclassi": 2645,
      "Ġbouff": 2646,
      "Ġdouze": 2647,
      "Ġ20": 2648,
      "Ġvoulu": 2649,
      "Ġdroite": 2650,
      "Ġmeufs": 2651,
      "Ġpropre": 2652,
      "Ġpied": 2653,
      "Ġbizarre": 2654,
      "Ġoreilles": 2655,
      "bler": 2656,
      "dÃ©c": 2657,
      "hÃ´": 2658,
      "limsa": 2659,
      "nou": 2660,
      "pire": 2661,
      "prem": 2662,
      "vise": 2663,
      "ya": 2664,
      "Ġpoi": 2665,
      "Ġcuis": 2666,
      "Ġtit": 2667,
      "ino": 2668,
      "Ġnet": 2669,
      "Ġnord": 2670,
      "Ġgue": 2671,
      "alla": 2672,
      "iend": 2673,
      "antes": 2674,
      "Ġmad": 2675,
      "ĠmaÃ®": 2676,
      "Ġparents": 2677,
      "Ġouf": 2678,
      "avait": 2679,
      "imum": 2680,
      "pourtant": 2681,
      "Ġclair": 2682,
      "allon": 2683,
      "Ġlike": 2684,
      "oyer": 2685,
      "aÃ®ne": 2686,
      "achÃ¨te": 2687,
      "Ġproduit": 2688,
      "ormir": 2689,
      "Ġaucune": 2690,
      "Ġtypes": 2691,
      "Ġaura": 2692,
      "Ġfolie": 2693,
      "Ġsinon": 2694,
      "bout": 2695,
      "big": 2696,
      "cule": 2697,
      "lÃ¨ve": 2698,
      "ran": 2699,
      "Ġant": 2700,
      "Ġpoli": 2701,
      "Ġmu": 2702,
      "Ġtro": 2703,
      "quit": 2704,
      "erse": 2705,
      "Ġfat": 2706,
      "Ġvaisse": 2707,
      "Ġgre": 2708,
      "Ġgaz": 2709,
      "roche": 2710,
      "Ġyes": 2711,
      "ations": 2712,
      "ape": 2713,
      "onter": 2714,
      "Ã©cole": 2715,
      "assure": 2716,
      "ailler": 2717,
      "ident": 2718,
      "sert": 2719,
      "Ġclasse": 2720,
      "Ġshow": 2721,
      "vide": 2722,
      "Ġsalaire": 2723,
      "onez": 2724,
      "Ġmode": 2725,
      "ĠsÃ»re": 2726,
      "ĠenfoirÃ©": 2727,
      "Ġmagie": 2728,
      "Ġcrier": 2729,
      "Ġportes": 2730,
      "Ġquitter": 2731,
      "Ġreuf": 2732,
      "ĠarrÃªte": 2733,
      "Ġbouteille": 2734,
      "aj": 2735,
      "affe": 2736,
      "blo": 2737,
      "iv": 2738,
      "net": 2739,
      "nie": 2740,
      "rr": 2741,
      "sans": 2742,
      "wow": 2743,
      "Ġdim": 2744,
      "Ġcond": 2745,
      "Ġsonne": 2746,
      "Ġtw": 2747,
      "quille": 2748,
      "Ġjack": 2749,
      "isÃ©": 2750,
      "iser": 2751,
      "Ġfoi": 2752,
      "Ġvue": 2753,
      "Ġrues": 2754,
      "Ġnul": 2755,
      "rage": 2756,
      "Ġchau": 2757,
      "ami": 2758,
      "tions": 2759,
      "Ġdiable": 2760,
      "erreur": 2761,
      "Ġforme": 2762,
      "Ġsorti": 2763,
      "Ġblack": 2764,
      "Ġquartiers": 2765,
      "herbe": 2766,
      "Ġquestions": 2767,
      "ĠbÃ¢tard": 2768,
      "hun": 2769,
      "roit": 2770,
      "ules": 2771,
      "Ġpain": 2772,
      "Ġmoment": 2773,
      "isme": 2774,
      "Ġbav": 2775,
      "Ġgot": 2776,
      "ala": 2777,
      "Ġchien": 2778,
      "ander": 2779,
      "Ġsir": 2780,
      "irÃ©": 2781,
      "iroir": 2782,
      "ffre": 2783,
      "onnel": 2784,
      "Ġbrill": 2785,
      "Ġpleine": 2786,
      "ocus": 2787,
      "Ġsert": 2788,
      "Ġcaptes": 2789,
      "ĠpÃ©tasse": 2790,
      "tourne": 2791,
      "Ġsoeur": 2792,
      "Ġcert": 2793,
      "Ġacc": 2794,
      "heureusement": 2795,
      "gratte": 2796,
      "Ġsemblant": 2797,
      "Ġpayer": 2798,
      "rÃ©ponds": 2799,
      "Ġpouvoir": 2800,
      "'-": 2801,
      "bonne": 2802,
      "face": 2803,
      "ote": 2804,
      "sy": 2805,
      "to": 2806,
      "ĠlÃ¢che": 2807,
      "Ġmairo": 2808,
      "ĠsantÃ©": 2809,
      "Ġtort": 2810,
      "Ġjob": 2811,
      "Ġbul": 2812,
      "Ġbonnes": 2813,
      "Ġrendre": 2814,
      "Ġmonter": 2815,
      "Ġaulnay": 2816,
      "aint": 2817,
      "abri": 2818,
      "Ã¢me": 2819,
      "Ġsty": 2820,
      "Ġappris": 2821,
      "Ã§u": 2822,
      "Ġthunes": 2823,
      "Ġpossible": 2824,
      "Ġcourse": 2825,
      "Ġtient": 2826,
      "ĠbÃ©nÃ©": 2827,
      "Ġfaim": 2828,
      "Ġoublier": 2829,
      "ĠtÃ©lÃ©": 2830,
      "cÃ´": 2831,
      "dam": 2832,
      "histoi": 2833,
      "ib": 2834,
      "jets": 2835,
      "pare": 2836,
      "porte": 2837,
      "Ġpue": 2838,
      "Ġcend": 2839,
      "Ġtab": 2840,
      "lek": 2841,
      "eus": 2842,
      "Ġvic": 2843,
      "Ġvise": 2844,
      "Ġvitesse": 2845,
      "seau": 2846,
      "Ġchiens": 2847,
      "Ġplais": 2848,
      "endors": 2849,
      "Ġouver": 2850,
      "lop": 2851,
      "Ġavance": 2852,
      "Ġpeuvent": 2853,
      "verse": 2854,
      "Ġcroit": 2855,
      "Ġcarte": 2856,
      "Ġgrammes": 2857,
      "Ġcontr": 2858,
      "Ġcontent": 2859,
      "Ġphras": 2860,
      "Ġblan": 2861,
      "envers": 2862,
      "lÃ©ch": 2863,
      "Ġenvoie": 2864,
      "ĠpremiÃ¨re": 2865,
      "Ġgagner": 2866,
      "Ġtype": 2867,
      "Ġquestion": 2868,
      "faÃ§on": 2869,
      "premier": 2870,
      "cla": 2871,
      "fou": 2872,
      "gs": 2873,
      "lÃ¢che": 2874,
      "men": 2875,
      "ster": 2876,
      "yth": 2877,
      "zer": 2878,
      "Ġpun": 2879,
      "Ġcy": 2880,
      "Ġmienne": 2881,
      "Ġsui": 2882,
      "Ġsorte": 2883,
      "Ġtah": 2884,
      "Ġtise": 2885,
      "Ã©vite": 2886,
      "arrache": 2887,
      "Ġventre": 2888,
      "inture": 2889,
      "Ġnav": 2890,
      "Ġgri": 2891,
      "auc": 2892,
      "itent": 2893,
      "ush": 2894,
      "ushi": 2895,
      "ration": 2896,
      "Ġhi": 2897,
      "Ġmonte": 2898,
      "siÃ¨re": 2899,
      "onnent": 2900,
      "Ġtrait": 2901,
      "Ã¢ge": 2902,
      "ĠbrÃ»le": 2903,
      "ĠdeuxiÃ¨me": 2904,
      "Ġtouche": 2905,
      "Ġira": 2906,
      "Ġcame": 2907,
      "Ġchercher": 2908,
      "Ġlongue": 2909,
      "Ġfoutu": 2910,
      "Ġvoulais": 2911,
      "000": 2912,
      "Ġmicro": 2913,
      "Ġseulement": 2914,
      "Ġtirer": 2915,
      "Ġheureux": 2916,
      "Ġmorce": 2917,
      "cinq": 2918,
      "faudrait": 2919,
      "hone": 2920,
      "hmm": 2921,
      "ix": 2922,
      "ice": 2923,
      "mu": 2924,
      "Ġigo": 2925,
      "Ġpolo": 2926,
      "Ġpull": 2927,
      "Ġcig": 2928,
      "Ġconne": 2929,
      "Ġsup": 2930,
      "Ġsuite": 2931,
      "quÃ©s": 2932,
      "Ã©ner": 2933,
      "Ġfaudrait": 2934,
      "Ġbeur": 2935,
      "Ġbic": 2936,
      "arche": 2937,
      "ettre": 2938,
      "ĠrÃ¨": 2939,
      "Ġnin": 2940,
      "Ġlean": 2941,
      "Ġget": 2942,
      "ĠgÃ¢": 2943,
      "alph": 2944,
      "Ãªche": 2945,
      "ience": 2946,
      "Ġmax": 2947,
      "Ġaujourd": 2948,
      "Ġoc": 2949,
      "Ġtrom": 2950,
      "Ġkar": 2951,
      "Ġknow": 2952,
      "paris": 2953,
      "Ġwow": 2954,
      "Ġfrais": 2955,
      "ĠgrÃ¢ce": 2956,
      "Ġbran": 2957,
      "ondes": 2958,
      "Ġmix": 2959,
      "idÃ©": 2960,
      "Ġmalade": 2961,
      "Ġfines": 2962,
      "Ġbouge": 2963,
      "Ġmarre": 2964,
      "Ġtravers": 2965,
      "Ġride": 2966,
      "guette": 2967,
      "Ġverras": 2968,
      "ĠpensÃ©es": 2969,
      "Ġpresque": 2970,
      "Ġpauvre": 2971,
      "Ġsym": 2972,
      "Ġquartier": 2973,
      "Ġsouvenirs": 2974,
      "Ġchansons": 2975,
      "Ġdoutes": 2976,
      "allah": 2977,
      "ax": 2978,
      "balle": 2979,
      "fle": 2980,
      "frÃ©": 2981,
      "hy": 2982,
      "ige": 2983,
      "nif": 2984,
      "oche": 2985,
      "sant": 2986,
      "way": 2987,
      "Ġus": 2988,
      "Ġlu": 2989,
      "Ġlim": 2990,
      "Ġcat": 2991,
      "Ġcos": 2992,
      "ĠcÃ©l": 2993,
      "Ġsombres": 2994,
      "Ġtess": 2995,
      "lever": 2996,
      "Ġbac": 2997,
      "Ġvilla": 2998,
      "Ġpassent": 2999,
      "Ġgare": 3000,
      "Ġgif": 3001,
      "chi": 3002,
      "org": 3003,
      "Ġcompli": 3004,
      "igu": 3005,
      "Ġviol": 3006,
      "Ġavent": 3007,
      "Ġinv": 3008,
      "errer": 3009,
      "Ġplat": 3010,
      "Ġlieu": 3011,
      "Ġappar": 3012,
      "Ġserait": 3013,
      "ĠfermÃ©s": 3014,
      "ĠmÃ©d": 3015,
      "Ġattendant": 3016,
      "envie": 3017,
      "ood": 3018,
      "Ġcerveau": 3019,
      "stÃ¨me": 3020,
      "Ġsauce": 3021,
      "odeur": 3022,
      "accord": 3023,
      "ĠproblÃ¨me": 3024,
      "Ġkhos": 3025,
      "Ġchanter": 3026,
      "Ã©coutes": 3027,
      "demande": 3028,
      "Ġherbes": 3029,
      "Ġchiffres": 3030,
      "ĠsÃ»rement": 3031,
      "hit": 3032,
      "lig": 3033,
      "mal": 3034,
      "oles": 3035,
      "tar": 3036,
      "Ġmoy": 3037,
      "ences": 3038,
      "asb": 3039,
      "Ġband": 3040,
      "unt": 3041,
      "Ġras": 3042,
      "Ġroi": 3043,
      "Ġrond": 3044,
      "Ġgol": 3045,
      "aler": 3046,
      "Ġhas": 3047,
      "Ġplans": 3048,
      "Ġyeu": 3049,
      "ossible": 3050,
      "Ã©cial": 3051,
      "Ġof": 3052,
      "ĠdÃ©b": 3053,
      "oins": 3054,
      "Ġseize": 3055,
      "uxelles": 3056,
      "ayer": 3057,
      "Ġaiment": 3058,
      "Ġdevenu": 3059,
      "Ġflics": 3060,
      "Ġcapte": 3061,
      "ĠposÃ©": 3062,
      "Ġconcert": 3063,
      "Ġtox": 3064,
      "Ġsport": 3065,
      "Ġhistoire": 3066,
      "Ġreufs": 3067,
      "Ġfreest": 3068,
      "dÃ©solÃ©": 3069,
      "Ġjaloux": 3070,
      "col": 3071,
      "cine": 3072,
      "dess": 3073,
      "ep": 3074,
      "fum": 3075,
      "iel": 3076,
      "ji": 3077,
      "mÃ¨re": 3078,
      "rom": 3079,
      "sin": 3080,
      "voi": 3081,
      "voit": 3082,
      "ys": 3083,
      "zi": 3084,
      "Ġel": 3085,
      "Ġie": 3086,
      "ĠmÃ©r": 3087,
      "Ġsoi": 3088,
      "ĠtÃ´t": 3089,
      "quettes": 3090,
      "quatre": 3091,
      "reu": 3092,
      "rein": 3093,
      "Ġfan": 3094,
      "Ġfric": 3095,
      "Ġnig": 3096,
      "Ġgro": 3097,
      "aura": 3098,
      "cha": 3099,
      "dez": 3100,
      "Ġparfait": 3101,
      "ĠparaÃ®t": 3102,
      "apprÃ©cie": 3103,
      "rip": 3104,
      "Ġkick": 3105,
      "Ġprin": 3106,
      "Ã¨ses": 3107,
      "Ġavancer": 3108,
      "comprends": 3109,
      "ills": 3110,
      "ĠzÃ©ro": 3111,
      "ĠcrÃ¢ne": 3112,
      "Ġclonez": 3113,
      "Ġnike": 3114,
      "arrÃªter": 3115,
      "Ġvisages": 3116,
      "Ġminimum": 3117,
      "Ġpenser": 3118,
      "Ġblagues": 3119,
      "Ġweek": 3120,
      "Ġkho": 3121,
      "Ġ?,": 3122,
      "Ġbanque": 3123,
      "ĠpoussiÃ¨re": 3124,
      "Ġsemaine": 3125,
      "ĠgagnÃ©": 3126,
      "itiÃ©": 3127,
      "Ġstream": 3128,
      "Ġgentil": 3129,
      "beaucoup": 3130,
      "Ġlourd": 3131,
      "nouveau": 3132,
      "ĠlÃ¨vres": 3133,
      "16": 3134,
      "bitch": 3135,
      "gar": 3136,
      "ky": 3137,
      "line": 3138,
      "mh": 3139,
      "rant": 3140,
      "som": 3141,
      "xy": 3142,
      "Ġdose": 3143,
      "Ġmom": 3144,
      "ĠmÃ©lange": 3145,
      "onse": 3146,
      "Ġteuf": 3147,
      "quin": 3148,
      "Ġjac": 3149,
      "ret": 3150,
      "Ġfocus": 3151,
      "Ġvac": 3152,
      "uni": 3153,
      "ilitÃ©": 3154,
      "Ġresp": 3155,
      "Ġrhum": 3156,
      "ind": 3157,
      "Ġnoire": 3158,
      "Ã¨tre": 3159,
      "Ġpourrait": 3160,
      "Ġha": 3161,
      "ĠhaÃ¯": 3162,
      "Ġplomb": 3163,
      "Ġautour": 3164,
      "Ġoeil": 3165,
      "Ġtristes": 3166,
      "imaux": 3167,
      "Ġvibe": 3168,
      "Ġken": 3169,
      "Ġarrache": 3170,
      "Ã»t": 3171,
      "Ġfinal": 3172,
      "cks": 3173,
      "Ġplafond": 3174,
      "Ġgrandes": 3175,
      "Ġbalance": 3176,
      "Ġcali": 3177,
      "finis": 3178,
      "Ġtomber": 3179,
      "Ã©rique": 3180,
      "Ġenfant": 3181,
      "Ġcauche": 3182,
      "Ġdoigt": 3183,
      "Ġmilli": 3184,
      "ĠderniÃ¨re": 3185,
      "Ġfeat": 3186,
      "quelques": 3187,
      "ĠratÃ©": 3188,
      "mettre": 3189,
      "Ġennemis": 3190,
      "papa": 3191,
      "imagine": 3192,
      "Ġslide": 3193,
      "Ġvaisseau": 3194,
      "bu": 3195,
      "cour": 3196,
      "ible": 3197,
      "ja": 3198,
      "neuf": 3199,
      "pat": 3200,
      "tom": 3201,
      "uie": 3202,
      "Ġ8": 3203,
      "Ġos": 3204,
      "Ġdam": 3205,
      "aies": 3206,
      "Ġmaud": 3207,
      "Ġmiroir": 3208,
      "Ġsable": 3209,
      "Ġtur": 3210,
      "Ġtim": 3211,
      "Ġtemp": 3212,
      "Ġfile": 3213,
      "Ġvenir": 3214,
      "Ġach": 3215,
      "estes": 3216,
      "Ġrad": 3217,
      "Ġrob": 3218,
      "Ġna": 3219,
      "Ġner": 3220,
      "ĠgÃ¨re": 3221,
      "Ã¨se": 3222,
      "album": 3223,
      "lat": 3224,
      "Ġpourra": 3225,
      "Ġhand": 3226,
      "Ġpars": 3227,
      "Ġdure": 3228,
      "rier": 3229,
      "Ġsurv": 3230,
      "site": 3231,
      "jean": 3232,
      "aga": 3233,
      "Ġcouler": 3234,
      "ucci": 3235,
      "Ã´me": 3236,
      "Ġtoit": 3237,
      "Ġclub": 3238,
      "Ġshoot": 3239,
      "attaque": 3240,
      "Ġbibi": 3241,
      "ĠÃªtes": 3242,
      "Ġquelqu": 3243,
      "Ġcolle": 3244,
      "Ġposer": 3245,
      "Ġcabine": 3246,
      "fiÃ©": 3247,
      "Ġvouloir": 3248,
      "Ġconnaissent": 3249,
      "effet": 3250,
      "Ġvitre": 3251,
      "Ġrendez": 3252,
      "ĠsuccÃ¨s": 3253,
      "continue": 3254,
      "Ġoim": 3255,
      "laisser": 3256,
      "ĠhonnÃªte": 3257,
      "commence": 3258,
      "cin": 3259,
      "ieux": 3260,
      "pan": 3261,
      "pÃ©t": 3262,
      "pers": 3263,
      "pÃ¨te": 3264,
      "Ġain": 3265,
      "Ġdoll": 3266,
      "ĠlÃ©": 3267,
      "Ġpes": 3268,
      "Ġpier": 3269,
      "Ġpage": 3270,
      "Ġpleur": 3271,
      "Ġpure": 3272,
      "ouse": 3273,
      "Ġmens": 3274,
      "Ġspl": 3275,
      "Ġtieks": 3276,
      "ĠaÃ¯e": 3277,
      "telle": 3278,
      "indre": 3279,
      "Ġglo": 3280,
      "Ġguit": 3281,
      "Ġhor": 3282,
      "ateur": 3283,
      "osse": 3284,
      "irais": 3285,
      "acle": 3286,
      "avent": 3287,
      "avoue": 3288,
      "pec": 3289,
      "igue": 3290,
      "irer": 3291,
      "angent": 3292,
      "Ġproches": 3293,
      "ĠbrÃ»": 3294,
      "ĠÃ©l": 3295,
      "Ġsache": 3296,
      "ĠarrÃª": 3297,
      "ings": 3298,
      "idÃ©e": 3299,
      "Ġaimer": 3300,
      "Ã©loig": 3301,
      "Ġplease": 3302,
      "Ġrappel": 3303,
      "ĠÃ©crire": 3304,
      "Ġcaf": 3305,
      "espace": 3306,
      "Ġmoves": 3307,
      "Ġthat": 3308,
      "Ġdouce": 3309,
      "brÃ»le": 3310,
      "ĠmÃ©rite": 3311,
      "Ġvert": 3312,
      "Ġrouges": 3313,
      "Ġemp": 3314,
      "Ġplug": 3315,
      "ateau": 3316,
      "Ġmillion": 3317,
      "Ġquitte": 3318,
      "Ġmeilleurs": 3319,
      "Ġjeanjass": 3320,
      "Ġarriver": 3321,
      "Ġfootbal": 3322,
      "Ġconseils": 3323,
      "Ġmadame": 3324,
      "Ġpolice": 3325,
      "dessus": 3326,
      "grÃ©": 3327,
      "har": 3328,
      "honn": 3329,
      "sal": 3330,
      "toute": 3331,
      "Ġpsy": 3332,
      "Ġsun": 3333,
      "Ġtop": 3334,
      "eries": 3335,
      "Ġbomb": 3336,
      "Ġviennent": 3337,
      "oires": 3338,
      "enterre": 3339,
      "Ġralph": 3340,
      "Ġneuf": 3341,
      "Ġnature": 3342,
      "Ġgh": 3343,
      "Ġgor": 3344,
      "uise": 3345,
      "rape": 3346,
      "Ġhit": 3347,
      "Ġplume": 3348,
      "Ġyour": 3349,
      "Ġsurtout": 3350,
      "amÃ¨ne": 3351,
      "Ġrec": 3352,
      "Ġprennent": 3353,
      "Ġwave": 3354,
      "raient": 3355,
      "Ġcoeurs": 3356,
      "Ġinter": 3357,
      "Ġstar": 3358,
      "Ġliasses": 3359,
      "ordre": 3360,
      "cteur": 3361,
      "Ġfly": 3362,
      "croise": 3363,
      "achet": 3364,
      "Ġcourt": 3365,
      "ickel": 3366,
      "Ġnoirs": 3367,
      "Ġmagnif": 3368,
      "Ġbosse": 3369,
      "hÃ©site": 3370,
      "ĠlÃ©gend": 3371,
      "maman": 3372,
      "ĠarrÃªt": 3373,
      "genre": 3374,
      "Ġsaigne": 3375,
      "raÃ®ne": 3376,
      "Ġennemi": 3377,
      "Ġtechnique": 3378,
      "Ġlangue": 3379,
      "ĠfantÃ´mes": 3380,
      "petit": 3381,
      "Ġbeurre": 3382,
      "gal": 3383,
      "loin": 3384,
      "pousse": 3385,
      "Ġout": 3386,
      "Ġessaye": 3387,
      "Ġerreur": 3388,
      "Ġdj": 3389,
      "Ġlis": 3390,
      "Ġpoule": 3391,
      "ĠpÃ©n": 3392,
      "ĠcassÃ©": 3393,
      "Ġmeu": 3394,
      "enc": 3395,
      "Ġtoc": 3396,
      "Ġfans": 3397,
      "Ġby": 3398,
      "Ġbanc": 3399,
      "arme": 3400,
      "Ġvag": 3401,
      "Ġdebout": 3402,
      "Ġrav": 3403,
      "Ġrends": 3404,
      "Ġrace": 3405,
      "aus": 3406,
      "auras": 3407,
      "ition": 3408,
      "aly": 3409,
      "urÃ©": 3410,
      "Ãªts": 3411,
      "ram": 3412,
      "Ġone": 3413,
      "ĠhÃ©l": 3414,
      "oter": 3415,
      "otos": 3416,
      "Ġoff": 3417,
      "ĠdÃ©but": 3418,
      "ĠdÃ©sert": 3419,
      "tif": 3420,
      "tive": 3421,
      "ada": 3422,
      "Ġprojets": 3423,
      "Ġpoche": 3424,
      "Ġliasse": 3425,
      "Ġice": 3426,
      "Ġ100": 3427,
      "Ġamour": 3428,
      "explique": 3429,
      "Ġverte": 3430,
      "Ġattends": 3431,
      "ĠannÃ©e": 3432,
      "Ġbec": 3433,
      "Ġsoeurs": 3434,
      "Ġpensent": 3435,
      "Ġregards": 3436,
      "Ġsauver": 3437,
      "pliquer": 3438,
      "Ġdaronne": 3439,
      "crache": 3440,
      "Ġpoumons": 3441,
      "ĠidÃ©e": 3442,
      "ĠquittÃ©": 3443,
      "ĠbloquÃ©": 3444,
      "Ġcrew": 3445,
      "Ġsmok": 3446,
      "Ġvotre": 3447,
      "Ġsteak": 3448,
      "Ġchoisi": 3449,
      "Ġdimanche": 3450,
      "histoire": 3451,
      "ction": 3452,
      "den": 3453,
      "fil": 3454,
      "fils": 3455,
      "gles": 3456,
      "ive": 3457,
      "iment": 3458,
      "joue": 3459,
      "mÃ©e": 3460,
      "mpl": 3461,
      "mage": 3462,
      "vÃ©s": 3463,
      "Ġang": 3464,
      "Ġdoute": 3465,
      "Ġcu": 3466,
      "Ġsat": 3467,
      "Ġsab": 3468,
      "erde": 3469,
      "Ġquar": 3470,
      "Ġquelle": 3471,
      "Ġfri": 3472,
      "Ġfonc": 3473,
      "Ġfoudre": 3474,
      "Ġaf": 3475,
      "ĠrÃ©t": 3476,
      "Ġroul": 3477,
      "Ġrare": 3478,
      "Ġgout": 3479,
      "chette": 3480,
      "orage": 3481,
      "Ġcomprendre": 3482,
      "dehors": 3483,
      "demain": 3484,
      "rave": 3485,
      "cem": 3486,
      "Ġhall": 3487,
      "Ġmam": 3488,
      "ambi": 3489,
      "Ã©ton": 3490,
      "sions": 3491,
      "ĠvidÃ©": 3492,
      "Ġke": 3493,
      "Ġsept": 3494,
      "aillent": 3495,
      "ader": 3496,
      "Ġstop": 3497,
      "Ġmif": 3498,
      "combien": 3499,
      "Ġcrise": 3500,
      "perds": 3501,
      "ancienne": 3502,
      "Ġboulot": 3503,
      "monte": 3504,
      "instant": 3505,
      "Ġpleure": 3506,
      "Ġchef": 3507,
      "Ġbases": 3508,
      "Ġpotos": 3509,
      "oney": 3510,
      "Ġami": 3511,
      "observe": 3512,
      "Ġsouh": 3513,
      "bÃ©bÃ©": 3514,
      "Ġregarder": 3515,
      "Ġfeuilles": 3516,
      "Ġconcu": 3517,
      "ĠpressÃ©": 3518,
      "Ġpression": 3519,
      "Ġpousse": 3520,
      "ĠsystÃ¨me": 3521,
      "ĠboÃ®": 3522,
      "Ġmauvaise": 3523,
      "Ġbenz": 3524,
      "Ġflemme": 3525,
      "Ġfake": 3526,
      "invest": 3527,
      "croyaux": 3528,
      "Ġsilence": 3529,
      "Ġtranquille": 3530,
      "Ġfootballeur": 3531,
      "Ġmagnifique": 3532,
      "acher": 3533,
      "fre": 3534,
      "ieurs": 3535,
      "nt": 3536,
      "noir": 3537,
      "off": 3538,
      "ope": 3539,
      "pin": 3540,
      "rÃ©c": 3541,
      "vrai": 3542,
      "esprit": 3543,
      "Ġlig": 3544,
      "Ġput": 3545,
      "Ġmol": 3546,
      "Ġmette": 3547,
      "Ġtin": 3548,
      "Ġjette": 3549,
      "Ġbol": 3550,
      "Ġak": 3551,
      "Ġlame": 3552,
      "Ġrig": 3553,
      "Ġnar": 3554,
      "change": 3555,
      "rages": 3556,
      "ama": 3557,
      "amp": 3558,
      "Ã©cu": 3559,
      "aces": 3560,
      "abe": 3561,
      "Ġod": 3562,
      "ĠdÃ©part": 3563,
      "ignent": 3564,
      "Ġway": 3565,
      "Ġinst": 3566,
      "Ġdiam": 3567,
      "ĠÃ©n": 3568,
      "ides": 3569,
      "Ġsuisse": 3570,
      "Ġboucle": 3571,
      "ĠconnaÃ®t": 3572,
      "Ġbip": 3573,
      "Ġbiatch": 3574,
      "bile": 3575,
      "Ġmorts": 3576,
      "Ġgratu": 3577,
      "Ġdemi": 3578,
      "Ã§ois": 3579,
      "Ġmission": 3580,
      "ĠprÃ©fÃ©": 3581,
      "alement": 3582,
      "Ġbarres": 3583,
      "ifs": 3584,
      "Ġvisage": 3585,
      "Ġpeines": 3586,
      "Ġblanche": 3587,
      "Ġsud": 3588,
      "Ġjoues": 3589,
      "Ġsouri": 3590,
      "Ġblaze": 3591,
      "Ġchauds": 3592,
      "Ġfeuille": 3593,
      "Ġesqui": 3594,
      "Ġokay": 3595,
      "forme": 3596,
      "ĠdÃ©teste": 3597,
      "Ġimages": 3598,
      "Ġboom": 3599,
      "Ġcroy": 3600,
      "ĠÃ©poque": 3601,
      "Ġpromesses": 3602,
      "Ġrock": 3603,
      "Ġvoiture": 3604,
      "ĠgalÃ¨re": 3605,
      "Ġobserve": 3606,
      "Ġmurs": 3607,
      "Ġblanches": 3608,
      "Ġcigare": 3609,
      "tellement": 3610,
      "conc": 3611,
      "haut": 3612,
      "ivÃ©": 3613,
      "ese": 3614,
      "Ġdors": 3615,
      "Ġdormir": 3616,
      "Ġcentre": 3617,
      "ĠmÃ©g": 3618,
      "Ã©ros": 3619,
      "Ġfis": 3620,
      "Ġbis": 3621,
      "Ġachet": 3622,
      "Ġdeg": 3623,
      "Ġpasses": 3624,
      "Ġrire": 3625,
      "iness": 3626,
      "chets": 3627,
      "Ġcompl": 3628,
      "Ġchatte": 3629,
      "ĠchaÃ®ne": 3630,
      "Ġhard": 3631,
      "Ġhuit": 3632,
      "Ġplait": 3633,
      "appar": 3634,
      "chemin": 3635,
      "Ġrecherche": 3636,
      "illeure": 3637,
      "Ġvive": 3638,
      "Ġvides": 3639,
      "Ġtaf": 3640,
      "Ġcouche": 3641,
      "Ġdisque": 3642,
      "Ġprot": 3643,
      "Ġbruxelles": 3644,
      "ĠÃ©le": 3645,
      "ĠÃ©mot": 3646,
      "Ġstor": 3647,
      "Ġstres": 3648,
      "blÃ©": 3649,
      "illent": 3650,
      "Ġcroix": 3651,
      "audra": 3652,
      "Ġgratter": 3653,
      "Ġconf": 3654,
      "Ġmoche": 3655,
      "okay": 3656,
      "Ġnana": 3657,
      "Ġexpl": 3658,
      "ĠmÃ©chant": 3659,
      "Ġcherches": 3660,
      "phÃ¨re": 3661,
      "Ġcerti": 3662,
      "hiver": 3663,
      "Ġdarons": 3664,
      "Ġpropos": 3665,
      "ĠrÃ©pond": 3666,
      "Ġchantent": 3667,
      "Ġmillions": 3668,
      "Ġpays": 3669,
      "Ġsucer": 3670,
      "Ġassis": 3671,
      "demment": 3672,
      "ĠgalÃ¨res": 3673,
      "Ġfilms": 3674,
      "allero": 3675,
      "Ġsommeil": 3676,
      "Ġrisque": 3677,
      "Ġmontrer": 3678,
      "Ġvoudrais": 3679,
      "Ġbelgique": 3680,
      "ĠprÃ©cis": 3681,
      "Ġsuffit": 3682,
      "Ġporcs": 3683,
      "Ġrebeu": 3684,
      "ĠcompliquÃ©": 3685,
      "Ġnigga": 3686,
      "Ġspliff": 3687,
      "Ġguitare": 3688,
      "acheter": 3689,
      "by": 3690,
      "baise": 3691,
      "cit": 3692,
      "dv": 3693,
      "dÃ¨s": 3694,
      "ec": 3695,
      "eviens": 3696,
      "fout": 3697,
      "fasse": 3698,
      "gon": 3699,
      "gner": 3700,
      "hal": 3701,
      "nel": 3702,
      "pÃ¨re": 3703,
      "pÃ©cial": 3704,
      "sance": 3705,
      "sente": 3706,
      "seul": 3707,
      "Ġir": 3708,
      "Ġord": 3709,
      "Ġoli": 3710,
      "Ġdestin": 3711,
      "Ġluc": 3712,
      "Ġloc": 3713,
      "Ġcd": 3714,
      "Ġcail": 3715,
      "ouer": 3716,
      "Ġmien": 3717,
      "ench": 3718,
      "Ġten": 3719,
      "Ġtent": 3720,
      "Ġjnou": 3721,
      "asc": 3722,
      "Ġfoule": 3723,
      "Ġbob": 3724,
      "Ġlac": 3725,
      "tez": 3726,
      "Ġraj": 3727,
      "ourne": 3728,
      "Ġgun": 3729,
      "aule": 3730,
      "Ã¨de": 3731,
      "uses": 3732,
      "Ġcharg": 3733,
      "Ġchances": 3734,
      "Ġhash": 3735,
      "Ġmac": 3736,
      "aper": 3737,
      "rible": 3738,
      "Ġmessage": 3739,
      "olent": 3740,
      "icat": 3741,
      "Ġmeilleure": 3742,
      "abil": 3743,
      "averse": 3744,
      "Ġtrente": 3745,
      "jecti": 3746,
      "Ġvif": 3747,
      "Ġkat": 3748,
      "coacher": 3749,
      "Ġfront": 3750,
      "ades": 3751,
      "essence": 3752,
      "Ġstates": 3753,
      "ĠrÃ©uss": 3754,
      "Ġfinit": 3755,
      "Ġbouffe": 3756,
      "Ġtrace": 3757,
      "ĠrÃªver": 3758,
      "Ġgratte": 3759,
      "Ġbeaux": 3760,
      "ĠpÃ©tÃ©": 3761,
      "ĠplanÃ¨te": 3762,
      "Ġblague": 3763,
      "fini": 3764,
      "ĠdÃ©fonce": 3765,
      "Ġcrime": 3766,
      "Ġtrip": 3767,
      "Ġpause": 3768,
      "Ġappelle": 3769,
      "ĠfrÃ©rots": 3770,
      "ĠdÃ©solÃ©": 3771,
      "enfoirÃ©": 3772,
      "culer": 3773,
      "Ġveille": 3774,
      "gnac": 3775,
      "ssens": 3776,
      "ennemis": 3777,
      "ĠbourrÃ©": 3778,
      "posÃ©": 3779,
      "Ġvoudrait": 3780,
      "super": 3781,
      "poumon": 3782,
      "Ġrider": 3783,
      "Ġanciens": 3784,
      "ĠmÃ©lodie": 3785,
      "Ġclassique": 3786,
      "honneur": 3787,
      "investis": 3788,
      "?,": 3789,
      "bs": 3790,
      "besoin": 3791,
      "celle": 3792,
      "ddy": 3793,
      "fonce": 3794,
      "fumer": 3795,
      "hale": 3796,
      "ij": 3797,
      "jack": 3798,
      "nant": 3799,
      "plo": 3800,
      "roi": 3801,
      "tos": 3802,
      "ug": 3803,
      "val": 3804,
      "Ġ0": 3805,
      "ĠcÃ¢": 3806,
      "ouf": 3807,
      "Ġmut": 3808,
      "Ġsers": 3809,
      "Ġshe": 3810,
      "Ġsaint": 3811,
      "Ġtend": 3812,
      "Ġtem": 3813,
      "Ġtac": 3814,
      "Ġtits": 3815,
      "Ġtrem": 3816,
      "quelle": 3817,
      "quimaux": 3818,
      "isÃ©e": 3819,
      "ĠvÃ©": 3820,
      "ention": 3821,
      "Ġpassion": 3822,
      "Ġrom": 3823,
      "inter": 3824,
      "Ġnum": 3825,
      "Ġgui": 3826,
      "Ã¨ce": 3827,
      "alk": 3828,
      "Ġcombat": 3829,
      "lage": 3830,
      "Ġchier": 3831,
      "Ġparl": 3832,
      "appart": 3833,
      "rique": 3834,
      "Ġrefrain": 3835,
      "icke": 3836,
      "ĠdÃ©m": 3837,
      "ortant": 3838,
      "oirs": 3839,
      "igÃ©": 3840,
      "Ġtec": 3841,
      "Ġserein": 3842,
      "Ġtaffe": 3843,
      "Ġrapide": 3844,
      "Ġdispar": 3845,
      "Ġdisques": 3846,
      "Ã´ne": 3847,
      "Ġprods": 3848,
      "Ġstr": 3849,
      "icile": 3850,
      "videmment": 3851,
      "toire": 3852,
      "Ġpleins": 3853,
      "Ġappro": 3854,
      "Ġdirect": 3855,
      "appy": 3856,
      "Ã§ons": 3857,
      "ĠprÃ©vu": 3858,
      "Ġflingue": 3859,
      "Ġform": 3860,
      "Ġmojo": 3861,
      "Ġphone": 3862,
      "ĠthÃ©": 3863,
      "ĠdÃ©col": 3864,
      "ĠblÃ©": 3865,
      "vision": 3866,
      "Ġembr": 3867,
      "Ġasb": 3868,
      "Ġentendre": 3869,
      "oublier": 3870,
      "Ġpoumon": 3871,
      "habitude": 3872,
      "Ġraconte": 3873,
      "Ġaurait": 3874,
      "cupe": 3875,
      "astique": 3876,
      "ĠÃ©couter": 3877,
      "ĠgarÃ§on": 3878,
      "ĠdiffÃ©r": 3879,
      "appeler": 3880,
      "Ġremplir": 3881,
      "Ġmeurt": 3882,
      "Ġsapes": 3883,
      "Ġclark": 3884,
      "ĠfranÃ§ais": 3885,
      "ĠsirÃ¨nes": 3886,
      "Ġtabac": 3887,
      "Ġplaisir": 3888,
      "ake": 3889,
      "bra": 3890,
      "fut": 3891,
      "fallait": 3892,
      "gg": 3893,
      "iche": 3894,
      "lÃ¨": 3895,
      "nom": 3896,
      "pu": 3897,
      "pent": 3898,
      "rie": 3899,
      "tit": 3900,
      "top": 3901,
      "uche": 3902,
      "vos": 3903,
      "voud": 3904,
      "Ġq": 3905,
      "Ġanges": 3906,
      "Ġdil": 3907,
      "Ġdort": 3908,
      "Ġding": 3909,
      "ĠcÃ©": 3910,
      "Ġcet": 3911,
      "ĠcÃ´t": 3912,
      "Ġcup": 3913,
      "Ġmit": 3914,
      "ĠmÃ©l": 3915,
      "ones": 3916,
      "ĠsÃ©rie": 3917,
      "Ġtest": 3918,
      "Ġtat": 3919,
      "ank": 3920,
      "Ġjim": 3921,
      "Ġjoin": 3922,
      "isser": 3923,
      "Ġfar": 3924,
      "Ġfleurs": 3925,
      "ley": 3926,
      "Ġbest": 3927,
      "eue": 3928,
      "tex": 3929,
      "Ġrose": 3930,
      "Ġraf": 3931,
      "Ġrendu": 3932,
      "ourire": 3933,
      "chaine": 3934,
      "vez": 3935,
      "lab": 3936,
      "Ġchap": 3937,
      "Ġhain": 3938,
      "rieur": 3939,
      "Ġplusieurs": 3940,
      "aindre": 3941,
      "Ġobl": 3942,
      "ĠdÃ©gueu": 3943,
      "paradis": 3944,
      "Ġdiscours": 3945,
      "tile": 3946,
      "tice": 3947,
      "tiÃ¨re": 3948,
      "Ġcode": 3949,
      "ĠdiÃ¨ses": 3950,
      "Ġmich": 3951,
      "Ġfinis": 3952,
      "perdu": 3953,
      "Ġvraies": 3954,
      "Ġcli": 3955,
      "ĠclÃ©": 3956,
      "Ġclique": 3957,
      "Ġbouger": 3958,
      "allais": 3959,
      "ĠÃ©tu": 3960,
      "cite": 3961,
      "Ġbite": 3962,
      "Ġlivre": 3963,
      "ĠprÃ©sent": 3964,
      "Ġcontin": 3965,
      "ifor": 3966,
      "own": 3967,
      "Ġpira": 3968,
      "Ġmatch": 3969,
      "Ġressemble": 3970,
      "Ġrouler": 3971,
      "Ġpensais": 3972,
      "Ġeuros": 3973,
      "ĠbaisÃ©": 3974,
      "cert": 3975,
      "ĠcÃ´te": 3976,
      "Ġbabe": 3977,
      "Ġculture": 3978,
      "effrite": 3979,
      "Ġimag": 3980,
      "barque": 3981,
      "affaire": 3982,
      "ĠpiÃ¨ces": 3983,
      "Ġfaibles": 3984,
      "Ġgava": 3985,
      "ĠvoilÃł": 3986,
      "ĠgÃ©nÃ©": 3987,
      "Ġflammes": 3988,
      "Ġpassage": 3989,
      "ĠsoignÃ©": 3990,
      "ĠcollÃ¨": 3991,
      "esquive": 3992,
      "peut": 3993,
      "arriver": 3994,
      "pensais": 3995,
      "Ġbitume": 3996,
      "Ġjaune": 3997,
      "Ġzeb": 3998,
      "Ġmachine": 3999
    },
    "merges": [
      [
        "e",
        "s"
      ],
      [
        "Ġ",
        "d"
      ],
      [
        "Ġ",
        "l"
      ],
      [
        "Ġ",
        "p"
      ],
      [
        "a",
        "i"
      ],
      [
        "Ġ",
        "c"
      ],
      [
        "o",
        "u"
      ],
      [
        "Ġ",
        "m"
      ],
      [
        "e",
        "n"
      ],
      [
        "o",
        "n"
      ],
      [
        "Ġ",
        "s"
      ],
      [
        "Ġ",
        "t"
      ],
      [
        "q",
        "u"
      ],
      [
        "Ã",
        "©"
      ],
      [
        "a",
        "n"
      ],
      [
        "Ġ",
        "j"
      ],
      [
        "r",
        "e"
      ],
      [
        "e",
        "r"
      ],
      [
        "a",
        "s"
      ],
      [
        "Ġ",
        "qu"
      ],
      [
        "i",
        "s"
      ],
      [
        "Ġ",
        "f"
      ],
      [
        "l",
        "e"
      ],
      [
        "ai",
        "s"
      ],
      [
        "Ġ",
        "b"
      ],
      [
        "a",
        "r"
      ],
      [
        "e",
        "u"
      ],
      [
        "Ġ",
        "v"
      ],
      [
        "Ġ",
        "a"
      ],
      [
        "es",
        "t"
      ],
      [
        "Ġl",
        "a"
      ],
      [
        "o",
        "i"
      ],
      [
        "u",
        "n"
      ],
      [
        "m",
        "e"
      ],
      [
        "t",
        "e"
      ],
      [
        "en",
        "t"
      ],
      [
        "Ġd",
        "e"
      ],
      [
        "e",
        "t"
      ],
      [
        "Ġ",
        "Ã"
      ],
      [
        "Ġp",
        "as"
      ],
      [
        "i",
        "l"
      ],
      [
        "Ġ",
        "r"
      ],
      [
        "ou",
        "r"
      ],
      [
        "o",
        "m"
      ],
      [
        "an",
        "s"
      ],
      [
        "Ġl",
        "es"
      ],
      [
        "i",
        "n"
      ],
      [
        "Ġ",
        "un"
      ],
      [
        "Ġ",
        "n"
      ],
      [
        "Ġl",
        "e"
      ],
      [
        "Ġ",
        "g"
      ],
      [
        "a",
        "u"
      ],
      [
        "c",
        "h"
      ],
      [
        "Ã",
        "¨"
      ],
      [
        "r",
        "o"
      ],
      [
        "'",
        "s"
      ],
      [
        "Ġd",
        "ans"
      ],
      [
        "i",
        "t"
      ],
      [
        "Ġd",
        "es"
      ],
      [
        "o",
        "r"
      ],
      [
        "ĠÃ",
        "ł"
      ],
      [
        "v",
        "e"
      ],
      [
        "a",
        "l"
      ],
      [
        "Ġc",
        "om"
      ],
      [
        "u",
        "s"
      ],
      [
        "u",
        "is"
      ],
      [
        "u",
        "r"
      ],
      [
        "s",
        "e"
      ],
      [
        "e",
        "l"
      ],
      [
        "Ġ",
        "en"
      ],
      [
        "Ã",
        "ª"
      ],
      [
        "Î",
        "³"
      ],
      [
        "Ġ",
        "et"
      ],
      [
        "l",
        "a"
      ],
      [
        "ai",
        "t"
      ],
      [
        "ou",
        "s"
      ],
      [
        "d",
        "e"
      ],
      [
        "Ġcom",
        "me"
      ],
      [
        "r",
        "a"
      ],
      [
        "eu",
        "x"
      ],
      [
        "'",
        "m"
      ],
      [
        "Ġc",
        "h"
      ],
      [
        "c",
        "e"
      ],
      [
        "Ġ",
        "on"
      ],
      [
        "i",
        "en"
      ],
      [
        "Ġp",
        "our"
      ],
      [
        "Ġ",
        "h"
      ],
      [
        "n",
        "e"
      ],
      [
        "§",
        "a"
      ],
      [
        "'",
        "t"
      ],
      [
        "an",
        "t"
      ],
      [
        "Ġqu",
        "e"
      ],
      [
        "Ġm",
        "a"
      ],
      [
        "l",
        "es"
      ],
      [
        "Ġp",
        "l"
      ],
      [
        "i",
        "e"
      ],
      [
        "ou",
        "t"
      ],
      [
        "Ġ",
        "y"
      ],
      [
        "qu",
        "e"
      ],
      [
        "Ġp",
        "ar"
      ],
      [
        "Ġm",
        "on"
      ],
      [
        "Ġd",
        "u"
      ],
      [
        "Î",
        "µ"
      ],
      [
        "eu",
        "r"
      ],
      [
        "a",
        "t"
      ],
      [
        "a",
        "p"
      ],
      [
        "an",
        "d"
      ],
      [
        "Ġqu",
        "i"
      ],
      [
        "Ġt",
        "u"
      ],
      [
        "ĠÃ",
        "§a"
      ],
      [
        "Ġj",
        "e"
      ],
      [
        "r",
        "i"
      ],
      [
        "Ġs",
        "ur"
      ],
      [
        "o",
        "s"
      ],
      [
        "Ġa",
        "u"
      ],
      [
        "a",
        "m"
      ],
      [
        "Ġ",
        "est"
      ],
      [
        "en",
        "d"
      ],
      [
        "Ġpl",
        "us"
      ],
      [
        "r",
        "es"
      ],
      [
        "Ġs",
        "i"
      ],
      [
        "ai",
        "re"
      ],
      [
        "Ã©",
        "t"
      ],
      [
        "el",
        "le"
      ],
      [
        "Ġ",
        "ou"
      ],
      [
        "o",
        "is"
      ],
      [
        "on",
        "t"
      ],
      [
        "Ġm",
        "es"
      ],
      [
        "o",
        "l"
      ],
      [
        "Ã©",
        "c"
      ],
      [
        "Ġun",
        "e"
      ],
      [
        "g",
        "e"
      ],
      [
        "Ã",
        "ł"
      ],
      [
        "ai",
        "n"
      ],
      [
        "t",
        "re"
      ],
      [
        "ch",
        "e"
      ],
      [
        "Ġ",
        "re"
      ],
      [
        "i",
        "r"
      ],
      [
        "Ã¨",
        "re"
      ],
      [
        "Ġm",
        "ais"
      ],
      [
        "e",
        "m"
      ],
      [
        "'",
        "d"
      ],
      [
        "Ġt",
        "out"
      ],
      [
        "r",
        "Ã©"
      ],
      [
        "i",
        "c"
      ],
      [
        "au",
        "t"
      ],
      [
        "s",
        "i"
      ],
      [
        "Ġm",
        "e"
      ],
      [
        "a",
        "h"
      ],
      [
        "il",
        "le"
      ],
      [
        "o",
        "t"
      ],
      [
        "il",
        "s"
      ],
      [
        "a",
        "c"
      ],
      [
        "Ġf",
        "ait"
      ],
      [
        "m",
        "ent"
      ],
      [
        "a",
        "b"
      ],
      [
        "f",
        "f"
      ],
      [
        "Ġm",
        "oi"
      ],
      [
        "t",
        "u"
      ],
      [
        "a",
        "v"
      ],
      [
        "Ġ",
        "o"
      ],
      [
        "ve",
        "c"
      ],
      [
        "p",
        "e"
      ],
      [
        "Ġd",
        "Ã©"
      ],
      [
        "or",
        "t"
      ],
      [
        "oi",
        "r"
      ],
      [
        "on",
        "n"
      ],
      [
        "i",
        "g"
      ],
      [
        "Ġt",
        "r"
      ],
      [
        "j",
        "e"
      ],
      [
        "Ġf",
        "aire"
      ],
      [
        "ro",
        "p"
      ],
      [
        "i",
        "m"
      ],
      [
        "on",
        "s"
      ],
      [
        "Ġqu",
        "and"
      ],
      [
        "t",
        "es"
      ],
      [
        "Ãª",
        "te"
      ],
      [
        "Ãª",
        "me"
      ],
      [
        "Ġa",
        "vec"
      ],
      [
        "i",
        "er"
      ],
      [
        "Ġv",
        "i"
      ],
      [
        "ar",
        "d"
      ],
      [
        "Ġ",
        "k"
      ],
      [
        "a",
        "g"
      ],
      [
        "Ġp",
        "r"
      ],
      [
        "m",
        "es"
      ],
      [
        "p",
        "r"
      ],
      [
        "p",
        "s"
      ],
      [
        "en",
        "s"
      ],
      [
        "i",
        "re"
      ],
      [
        "oi",
        "n"
      ],
      [
        "as",
        "s"
      ],
      [
        "Ġb",
        "ien"
      ],
      [
        "p",
        "ar"
      ],
      [
        "'",
        "re"
      ],
      [
        "e",
        "ah"
      ],
      [
        "on",
        "ne"
      ],
      [
        "our",
        "s"
      ],
      [
        "Ġt",
        "e"
      ],
      [
        "er",
        "s"
      ],
      [
        "l",
        "er"
      ],
      [
        "Ġs",
        "e"
      ],
      [
        "Ġv",
        "ie"
      ],
      [
        "u",
        "e"
      ],
      [
        "Ġ",
        "w"
      ],
      [
        "Ġm",
        "Ãªme"
      ],
      [
        "u",
        "t"
      ],
      [
        "Ġt",
        "rop"
      ],
      [
        "ro",
        "s"
      ],
      [
        "an",
        "g"
      ],
      [
        "Ġt",
        "a"
      ],
      [
        "i",
        "que"
      ],
      [
        "Ġr",
        "ap"
      ],
      [
        "l",
        "o"
      ],
      [
        "v",
        "ais"
      ],
      [
        "r",
        "ai"
      ],
      [
        "u",
        "x"
      ],
      [
        "Ġc",
        "ou"
      ],
      [
        "Ã©",
        "s"
      ],
      [
        "as",
        "se"
      ],
      [
        "'",
        "ve"
      ],
      [
        "c",
        "o"
      ],
      [
        "Î",
        "±"
      ],
      [
        "Î",
        "¸"
      ],
      [
        "Ã©",
        "e"
      ],
      [
        "Ġ",
        ","
      ],
      [
        "u",
        "m"
      ],
      [
        "Ġv",
        "a"
      ],
      [
        "Ġ",
        "il"
      ],
      [
        "f",
        "ais"
      ],
      [
        "t",
        "s"
      ],
      [
        "Ã¨",
        "s"
      ],
      [
        "in",
        "e"
      ],
      [
        "u",
        "c"
      ],
      [
        "p",
        "l"
      ],
      [
        "Ġd",
        "is"
      ],
      [
        "Ġn",
        "ous"
      ],
      [
        "Ã",
        "´"
      ],
      [
        "et",
        "te"
      ],
      [
        "t",
        "i"
      ],
      [
        "on",
        "c"
      ],
      [
        "ien",
        "s"
      ],
      [
        "Ġc",
        "o"
      ],
      [
        "ou",
        "te"
      ],
      [
        "m",
        "oi"
      ],
      [
        "ai",
        "l"
      ],
      [
        "Ġ",
        "e"
      ],
      [
        "Ġf",
        "r"
      ],
      [
        "ro",
        "is"
      ],
      [
        "m",
        "ais"
      ],
      [
        "a",
        "d"
      ],
      [
        "u",
        "i"
      ],
      [
        "Ġa",
        "l"
      ],
      [
        "es",
        "s"
      ],
      [
        "a",
        "y"
      ],
      [
        "Ġa",
        "v"
      ],
      [
        "Ġp",
        "ro"
      ],
      [
        "Ġp",
        "eu"
      ],
      [
        "end",
        "s"
      ],
      [
        "t",
        "er"
      ],
      [
        "Ġc",
        "e"
      ],
      [
        "Ã",
        "¢"
      ],
      [
        "Ġs",
        "ans"
      ],
      [
        "Ġt",
        "on"
      ],
      [
        "Ġf",
        "aut"
      ],
      [
        "p",
        "our"
      ],
      [
        "Ġ",
        "in"
      ],
      [
        "Ġy",
        "eah"
      ],
      [
        "Ġn",
        "e"
      ],
      [
        "qu",
        "i"
      ],
      [
        "Ġg",
        "r"
      ],
      [
        "or",
        "s"
      ],
      [
        "Ġt",
        "Ãªte"
      ],
      [
        "eur",
        "s"
      ],
      [
        "Î",
        "²"
      ],
      [
        "Ã",
        "§a"
      ],
      [
        "Ġt",
        "oi"
      ],
      [
        "Ġou",
        "ais"
      ],
      [
        "Ġb",
        "r"
      ],
      [
        "Ġt",
        "ous"
      ],
      [
        "Ġ",
        "elle"
      ],
      [
        "an",
        "ce"
      ],
      [
        "Ġf",
        "ais"
      ],
      [
        "v",
        "er"
      ],
      [
        "Î",
        "¶"
      ],
      [
        "Ġd",
        "i"
      ],
      [
        "a",
        "ge"
      ],
      [
        "Ġ",
        "Ã©"
      ],
      [
        "un",
        "e"
      ],
      [
        "Ġs",
        "ont"
      ],
      [
        "Ġr",
        "ien"
      ],
      [
        "Ġs",
        "t"
      ],
      [
        "on",
        "d"
      ],
      [
        "Ġm",
        "i"
      ],
      [
        "b",
        "l"
      ],
      [
        "Ġs",
        "a"
      ],
      [
        "em",
        "ps"
      ],
      [
        "i",
        "on"
      ],
      [
        "Ġd",
        "it"
      ],
      [
        "am",
        "ais"
      ],
      [
        "c",
        "om"
      ],
      [
        "Î",
        "·"
      ],
      [
        "Ġ",
        "ar"
      ],
      [
        "Ġr",
        "Ã©"
      ],
      [
        "Ġv",
        "eu"
      ],
      [
        "ra",
        "p"
      ],
      [
        "u",
        "l"
      ],
      [
        "Ġd",
        "eux"
      ],
      [
        "Ġs",
        "ous"
      ],
      [
        "il",
        "l"
      ],
      [
        "in",
        "g"
      ],
      [
        "Ġg",
        "ros"
      ],
      [
        "Ã",
        "»"
      ],
      [
        "Ã",
        "®"
      ],
      [
        "Ġt",
        "ou"
      ],
      [
        "t",
        "Ã©"
      ],
      [
        "Ġ",
        "ils"
      ],
      [
        "Ġl",
        "Ãł"
      ],
      [
        "Ġ",
        "z"
      ],
      [
        "Ã",
        "¹"
      ],
      [
        "i",
        "d"
      ],
      [
        "u",
        "me"
      ],
      [
        "Ġs",
        "uis"
      ],
      [
        "Ġj",
        "us"
      ],
      [
        "h",
        "e"
      ],
      [
        "Ġp",
        "er"
      ],
      [
        "u",
        "it"
      ],
      [
        "m",
        "a"
      ],
      [
        "s",
        "er"
      ],
      [
        "Ġm",
        "al"
      ],
      [
        "Ġf",
        "in"
      ],
      [
        "j",
        "ours"
      ],
      [
        "Ġm",
        "er"
      ],
      [
        "Ġ",
        "ai"
      ],
      [
        "Ġc",
        "r"
      ],
      [
        "qu",
        "es"
      ],
      [
        "Ġj",
        "amais"
      ],
      [
        "Ġpar",
        "t"
      ],
      [
        "e",
        "au"
      ],
      [
        "p",
        "er"
      ],
      [
        "Ġv",
        "eux"
      ],
      [
        "er",
        "re"
      ],
      [
        "ais",
        "se"
      ],
      [
        "Ġv",
        "rai"
      ],
      [
        "Ġs",
        "on"
      ],
      [
        "Ġc",
        "l"
      ],
      [
        "ar",
        "s"
      ],
      [
        "an",
        "c"
      ],
      [
        "Ġb",
        "ou"
      ],
      [
        "b",
        "le"
      ],
      [
        "om",
        "b"
      ],
      [
        "Ġt",
        "es"
      ],
      [
        "Ġh",
        "e"
      ],
      [
        "Ġs",
        "ais"
      ],
      [
        "Ġp",
        "o"
      ],
      [
        "is",
        "e"
      ],
      [
        "ent",
        "re"
      ],
      [
        "ou",
        "ve"
      ],
      [
        "c",
        "k"
      ],
      [
        "Ġp",
        "la"
      ],
      [
        "d",
        "es"
      ],
      [
        "al",
        "l"
      ],
      [
        "Ġ",
        "Ã©t"
      ],
      [
        "le",
        "ur"
      ],
      [
        "c",
        "i"
      ],
      [
        "oi",
        "t"
      ],
      [
        "u",
        "re"
      ],
      [
        "Ġc",
        "ar"
      ],
      [
        "d",
        "ans"
      ],
      [
        "'",
        ","
      ],
      [
        "et",
        "s"
      ],
      [
        "Ġg",
        "u"
      ],
      [
        "p",
        "uis"
      ],
      [
        "f",
        "aut"
      ],
      [
        "ou",
        "v"
      ],
      [
        "Ġm",
        "ar"
      ],
      [
        "end",
        "re"
      ],
      [
        "m",
        "on"
      ],
      [
        "d",
        "i"
      ],
      [
        "ai",
        "me"
      ],
      [
        "Ġs",
        "h"
      ],
      [
        "ch",
        "er"
      ],
      [
        "r",
        "ais"
      ],
      [
        "Ġo",
        "Ã¹"
      ],
      [
        "Ġt",
        "emps"
      ],
      [
        "ar",
        "de"
      ],
      [
        "an",
        "ge"
      ],
      [
        "co",
        "re"
      ],
      [
        "au",
        "x"
      ],
      [
        "ic",
        "i"
      ],
      [
        "o",
        "le"
      ],
      [
        "an",
        "de"
      ],
      [
        "Ġs",
        "eu"
      ],
      [
        "Ġc",
        "onn"
      ],
      [
        "n",
        "Ã©"
      ],
      [
        "v",
        "i"
      ],
      [
        "ou",
        "l"
      ],
      [
        "in",
        "s"
      ],
      [
        "Ġc",
        "es"
      ],
      [
        "at",
        "t"
      ],
      [
        "m",
        "er"
      ],
      [
        "p",
        "as"
      ],
      [
        "qu",
        "and"
      ],
      [
        "Ã©",
        "l"
      ],
      [
        "est",
        "e"
      ],
      [
        "t",
        "oi"
      ],
      [
        "Ġb",
        "i"
      ],
      [
        "Ġy",
        "eux"
      ],
      [
        "Ġveu",
        "t"
      ],
      [
        "Ġl",
        "i"
      ],
      [
        "Ġv",
        "u"
      ],
      [
        "ch",
        "es"
      ],
      [
        "Ã¨",
        "res"
      ],
      [
        "v",
        "ois"
      ],
      [
        "Ġtou",
        "jours"
      ],
      [
        "Ġp",
        "le"
      ],
      [
        "Ġt",
        "ra"
      ],
      [
        "Ġau",
        "x"
      ],
      [
        "Ġrap",
        "p"
      ],
      [
        "Ġch",
        "e"
      ],
      [
        "a",
        "ce"
      ],
      [
        "Ġper",
        "d"
      ],
      [
        "Ãª",
        "tre"
      ],
      [
        ".",
        "."
      ],
      [
        "k",
        "e"
      ],
      [
        "n",
        "es"
      ],
      [
        "or",
        "d"
      ],
      [
        "n",
        "er"
      ],
      [
        "Ġgr",
        "and"
      ],
      [
        "Ġg",
        "o"
      ],
      [
        "b",
        "i"
      ],
      [
        "Ġ",
        "Ã©c"
      ],
      [
        "Ġm",
        "ort"
      ],
      [
        "au",
        "d"
      ],
      [
        "o",
        "p"
      ],
      [
        "Ġde",
        "v"
      ],
      [
        "t",
        "r"
      ],
      [
        "Ġm",
        "ain"
      ],
      [
        "Ġqu",
        "oi"
      ],
      [
        "Ġr",
        "Ãª"
      ],
      [
        "Ġn",
        "i"
      ],
      [
        "Ġn",
        "os"
      ],
      [
        "p",
        "le"
      ],
      [
        "ou",
        "le"
      ],
      [
        "Ġg",
        "ra"
      ],
      [
        "Ã©t",
        "ais"
      ],
      [
        "a",
        "re"
      ],
      [
        "Ġmon",
        "de"
      ],
      [
        "ab",
        "le"
      ],
      [
        "qu",
        "oi"
      ],
      [
        "Ġg",
        "ars"
      ],
      [
        "o",
        "se"
      ],
      [
        "Ġj",
        "our"
      ],
      [
        "Ġb",
        "al"
      ],
      [
        "Ġa",
        "p"
      ],
      [
        "il",
        "les"
      ],
      [
        "g",
        "arde"
      ],
      [
        "o",
        "y"
      ],
      [
        "eu",
        "f"
      ],
      [
        "Ã¨",
        "te"
      ],
      [
        "Ġd",
        "ire"
      ],
      [
        "as",
        "h"
      ],
      [
        "Ġb",
        "on"
      ],
      [
        "or",
        "te"
      ],
      [
        "Ã©",
        "g"
      ],
      [
        "Ġon",
        "t"
      ],
      [
        "c",
        "ou"
      ],
      [
        "it",
        "Ã©"
      ],
      [
        "en",
        "se"
      ],
      [
        "ĠÃ",
        "ª"
      ],
      [
        "ap",
        "p"
      ],
      [
        "Ã¨",
        "ne"
      ],
      [
        "Ġen",
        "core"
      ],
      [
        "l",
        "ent"
      ],
      [
        "o",
        "c"
      ],
      [
        "Ġ",
        "i"
      ],
      [
        "Ġc",
        "a"
      ],
      [
        "Ġjus",
        "te"
      ],
      [
        "Ġde",
        "m"
      ],
      [
        "Ġs",
        "al"
      ],
      [
        "Ġd",
        "onc"
      ],
      [
        "Ġr",
        "i"
      ],
      [
        "es",
        "p"
      ],
      [
        "Ã",
        "§"
      ],
      [
        "Ġv",
        "ous"
      ],
      [
        "v",
        "es"
      ],
      [
        "a",
        "que"
      ],
      [
        "Ġp",
        "u"
      ],
      [
        "it",
        "s"
      ],
      [
        "Ġmer",
        "de"
      ],
      [
        "Ġ",
        "Ċ"
      ],
      [
        "Ġm",
        "an"
      ],
      [
        "uc",
        "k"
      ],
      [
        "t",
        "t"
      ],
      [
        "v",
        "iens"
      ],
      [
        "Ġ",
        "1"
      ],
      [
        "Ġm",
        "is"
      ],
      [
        "Ã©",
        "p"
      ],
      [
        "c",
        "t"
      ],
      [
        "Ã©",
        "r"
      ],
      [
        "j",
        "Ãł"
      ],
      [
        "g",
        "u"
      ],
      [
        "t",
        "res"
      ],
      [
        "Ġp",
        "rÃ©"
      ],
      [
        "ai",
        "r"
      ],
      [
        "Ġb",
        "as"
      ],
      [
        "Ġc",
        "ont"
      ],
      [
        "Ġj",
        "eu"
      ],
      [
        "Ġf",
        "ois"
      ],
      [
        "ĠÃª",
        "tre"
      ],
      [
        "f",
        "aire"
      ],
      [
        "a",
        "le"
      ],
      [
        "b",
        "e"
      ],
      [
        "ou",
        "ais"
      ],
      [
        "Ġb",
        "ar"
      ],
      [
        "Ġt",
        "our"
      ],
      [
        "t",
        "out"
      ],
      [
        "Ġc",
        "on"
      ],
      [
        "ig",
        "h"
      ],
      [
        "ri",
        "ve"
      ],
      [
        "Ġs",
        "er"
      ],
      [
        "Ġmi",
        "eux"
      ],
      [
        "Ġav",
        "ant"
      ],
      [
        "Ġpar",
        "le"
      ],
      [
        "i",
        "f"
      ],
      [
        "Ġb",
        "eau"
      ],
      [
        "ers",
        "onne"
      ],
      [
        "p",
        "eux"
      ],
      [
        "Ġf",
        "l"
      ],
      [
        "ar",
        "r"
      ],
      [
        "Ã´",
        "t"
      ],
      [
        "u",
        "p"
      ],
      [
        "i",
        "te"
      ],
      [
        "s",
        "es"
      ],
      [
        "v",
        "re"
      ],
      [
        "Ġf",
        "or"
      ],
      [
        "Ġc",
        "ette"
      ],
      [
        "Ġg",
        "ens"
      ],
      [
        "s",
        "Ã©"
      ],
      [
        "ai",
        "ne"
      ],
      [
        "y",
        "eah"
      ],
      [
        "Ġp",
        "ot"
      ],
      [
        "Ġqu",
        "el"
      ],
      [
        "el",
        "les"
      ],
      [
        "s",
        "ent"
      ],
      [
        "c",
        "rois"
      ],
      [
        "Ġv",
        "is"
      ],
      [
        "o",
        "w"
      ],
      [
        "t",
        "en"
      ],
      [
        "Ġp",
        "i"
      ],
      [
        "on",
        "e"
      ],
      [
        "Ġm",
        "o"
      ],
      [
        "qu",
        "er"
      ],
      [
        "z",
        "e"
      ],
      [
        "ail",
        "le"
      ],
      [
        "Ġp",
        "h"
      ],
      [
        "Ã¨",
        "me"
      ],
      [
        "c",
        "es"
      ],
      [
        "lo",
        "w"
      ],
      [
        "Ġv",
        "ois"
      ],
      [
        "ent",
        "s"
      ],
      [
        "Ġpeu",
        "t"
      ],
      [
        "Ġp",
        "e"
      ],
      [
        "Ġc",
        "ap"
      ],
      [
        "im",
        "p"
      ],
      [
        "eu",
        "re"
      ],
      [
        "Ġa",
        "m"
      ],
      [
        "Ġs",
        "ort"
      ],
      [
        "Ġt",
        "h"
      ],
      [
        "Ġcom",
        "p"
      ],
      [
        "com",
        "me"
      ],
      [
        "Ġd",
        "Ã©c"
      ],
      [
        "Ġd",
        "ou"
      ],
      [
        "i",
        "Ã¨re"
      ],
      [
        "Ġv",
        "oir"
      ],
      [
        "l",
        "Ãł"
      ],
      [
        "b",
        "r"
      ],
      [
        "t",
        "ant"
      ],
      [
        "oi",
        "re"
      ],
      [
        "o",
        "k"
      ],
      [
        "Ġp",
        "eur"
      ],
      [
        "ais",
        "e"
      ],
      [
        "Ġb",
        "l"
      ],
      [
        "o",
        "b"
      ],
      [
        "en",
        "ir"
      ],
      [
        "Ġs",
        "ens"
      ],
      [
        "e",
        "x"
      ],
      [
        "on",
        "g"
      ],
      [
        "oi",
        "g"
      ],
      [
        "d",
        "Ã©"
      ],
      [
        "t",
        "a"
      ],
      [
        "f",
        "ait"
      ],
      [
        "a",
        "me"
      ],
      [
        "ac",
        "k"
      ],
      [
        "ut",
        "ain"
      ],
      [
        "Ġl",
        "eur"
      ],
      [
        "Ġc",
        "i"
      ],
      [
        "Ã©",
        "es"
      ],
      [
        "i",
        "es"
      ],
      [
        "Ġs",
        "u"
      ],
      [
        "Ġpas",
        "se"
      ],
      [
        "Ã©t",
        "ait"
      ],
      [
        "Ġseu",
        "l"
      ],
      [
        "Ġp",
        "et"
      ],
      [
        "Ġf",
        "er"
      ],
      [
        "Ġn",
        "an"
      ],
      [
        "Ġe",
        "x"
      ],
      [
        "a",
        "Ã®"
      ],
      [
        "n",
        "s"
      ],
      [
        "Ġm",
        "Ã©"
      ],
      [
        "a",
        "k"
      ],
      [
        "g",
        "ard"
      ],
      [
        "Ġs",
        "es"
      ],
      [
        "om",
        "me"
      ],
      [
        "Ġl",
        "o"
      ],
      [
        "Ġv",
        "er"
      ],
      [
        "Ġc",
        "al"
      ],
      [
        "Ġm",
        "et"
      ],
      [
        "Ġn",
        "ouve"
      ],
      [
        "Ġo",
        "h"
      ],
      [
        "Ġj",
        "ou"
      ],
      [
        "ag",
        "es"
      ],
      [
        "pr",
        "Ã¨s"
      ],
      [
        "f",
        "er"
      ],
      [
        "l",
        "le"
      ],
      [
        "Ġc",
        "ol"
      ],
      [
        "re",
        "m"
      ],
      [
        "d",
        "s"
      ],
      [
        "Ġco",
        "eur"
      ],
      [
        "Ġp",
        "eux"
      ],
      [
        "Ġc",
        "ra"
      ],
      [
        "i",
        "le"
      ],
      [
        "rap",
        "pe"
      ],
      [
        "en",
        "ce"
      ],
      [
        "Ġa",
        "tt"
      ],
      [
        "Ġch",
        "er"
      ],
      [
        "b",
        "re"
      ],
      [
        "n",
        "ent"
      ],
      [
        "m",
        "Ãªme"
      ],
      [
        "ten",
        "ant"
      ],
      [
        "o",
        "h"
      ],
      [
        "is",
        "te"
      ],
      [
        "oi",
        "x"
      ],
      [
        "Ġl",
        "oin"
      ],
      [
        "Ġf",
        "ond"
      ],
      [
        "Ġp",
        "uis"
      ],
      [
        "ar",
        "t"
      ],
      [
        "Ġn",
        "uit"
      ],
      [
        "Ġme",
        "c"
      ],
      [
        "Ġl",
        "aisse"
      ],
      [
        "Ġf",
        "ont"
      ],
      [
        "Ġtr",
        "Ã¨s"
      ],
      [
        "end",
        "ant"
      ],
      [
        "pr",
        "ends"
      ],
      [
        "Ġa",
        "prÃ¨s"
      ],
      [
        "cou",
        "p"
      ],
      [
        "t",
        "te"
      ],
      [
        "Ã©",
        "n"
      ],
      [
        "Ġde",
        "puis"
      ],
      [
        "Ġe",
        "h"
      ],
      [
        "p",
        "h"
      ],
      [
        "Ġ",
        "an"
      ],
      [
        "l",
        "i"
      ],
      [
        "v",
        "ous"
      ],
      [
        "Ãª",
        "t"
      ],
      [
        "ang",
        "er"
      ],
      [
        "en",
        "te"
      ],
      [
        "on",
        "de"
      ],
      [
        "Ġs",
        "c"
      ],
      [
        "ĠdÃ©",
        "jÃł"
      ],
      [
        "Ġhe",
        "y"
      ],
      [
        "Ġm",
        "Ã¨re"
      ],
      [
        "es",
        "oin"
      ],
      [
        "Ġv",
        "ille"
      ],
      [
        "av",
        "ais"
      ],
      [
        "oin",
        "t"
      ],
      [
        "i",
        "ons"
      ],
      [
        "Ġn",
        "o"
      ],
      [
        "ant",
        "s"
      ],
      [
        "an",
        "te"
      ],
      [
        "Ġma",
        "t"
      ],
      [
        "Ã©c",
        "oute"
      ],
      [
        "si",
        "on"
      ],
      [
        "Ġh",
        "an"
      ],
      [
        "en",
        "v"
      ],
      [
        "in",
        "es"
      ],
      [
        "Ġv",
        "as"
      ],
      [
        "it",
        "ch"
      ],
      [
        "Ġp",
        "os"
      ],
      [
        "Ġc",
        "eux"
      ],
      [
        "oi",
        "e"
      ],
      [
        "g",
        "ue"
      ],
      [
        "o",
        "o"
      ],
      [
        "Ġp",
        "Ã©t"
      ],
      [
        "Ġcou",
        "p"
      ],
      [
        "ar",
        "rive"
      ],
      [
        "Ġche",
        "z"
      ],
      [
        "Ġp",
        "ersonne"
      ],
      [
        "Ġfr",
        "Ã¨re"
      ],
      [
        "a",
        "ch"
      ],
      [
        "i",
        "ff"
      ],
      [
        "r",
        "is"
      ],
      [
        "Ġs",
        "oir"
      ],
      [
        "Ġs",
        "our"
      ],
      [
        "Ġtout",
        "es"
      ],
      [
        "Ġd",
        "er"
      ],
      [
        "c",
        "onn"
      ],
      [
        "p",
        "ense"
      ],
      [
        "pl",
        "us"
      ],
      [
        "a",
        "vec"
      ],
      [
        "Ġr",
        "este"
      ],
      [
        "Ġmoi",
        "ns"
      ],
      [
        "ass",
        "er"
      ],
      [
        "l",
        "Ã©"
      ],
      [
        "s",
        "a"
      ],
      [
        "Ġs",
        "ou"
      ],
      [
        "Ġt",
        "oute"
      ],
      [
        "Ġdi",
        "x"
      ],
      [
        "e",
        "d"
      ],
      [
        "Ã",
        "¯"
      ],
      [
        "Ġ",
        "2"
      ],
      [
        "Ġ",
        "ici"
      ],
      [
        "Ġc",
        "or"
      ],
      [
        "Ġs",
        "Ã»"
      ],
      [
        "Ġf",
        "ort"
      ],
      [
        "ay",
        "e"
      ],
      [
        "n",
        "Ã©e"
      ],
      [
        "eu",
        "le"
      ],
      [
        "Ġen",
        "v"
      ],
      [
        "r",
        "as"
      ],
      [
        "Ġc",
        "ab"
      ],
      [
        "Ġtr",
        "uc"
      ],
      [
        "Ġple",
        "in"
      ],
      [
        "Ġpl",
        "an"
      ],
      [
        "ol",
        "o"
      ],
      [
        "Ġb",
        "esoin"
      ],
      [
        "m",
        "an"
      ],
      [
        "Ġl",
        "ong"
      ],
      [
        "Ġt",
        "he"
      ],
      [
        "Ġm",
        "in"
      ],
      [
        "Ġf",
        "um"
      ],
      [
        "m",
        "Ã©"
      ],
      [
        "v",
        "ent"
      ],
      [
        "Ġch",
        "aque"
      ],
      [
        "Ġvi",
        "te"
      ],
      [
        "Ġc",
        "our"
      ],
      [
        "Ġpr",
        "is"
      ],
      [
        "par",
        "le"
      ],
      [
        "t",
        "our"
      ],
      [
        "Ġn",
        "on"
      ],
      [
        "ri",
        "Ã¨re"
      ],
      [
        "re",
        "r"
      ],
      [
        "at",
        "s"
      ],
      [
        "..",
        "."
      ],
      [
        "f",
        "i"
      ],
      [
        "v",
        "Ã©"
      ],
      [
        "qu",
        "Ã©"
      ],
      [
        "Ġr",
        "es"
      ],
      [
        "t",
        "ou"
      ],
      [
        "Ġt",
        "rois"
      ],
      [
        "Ġb",
        "e"
      ],
      [
        "Ġcom",
        "ment"
      ],
      [
        "Ġsh",
        "it"
      ],
      [
        "o",
        "que"
      ],
      [
        "Ġj",
        "ours"
      ],
      [
        "ai",
        "ent"
      ],
      [
        "Ġr",
        "ou"
      ],
      [
        "leur",
        "s"
      ],
      [
        "Ġf",
        "out"
      ],
      [
        "Ġv",
        "oul"
      ],
      [
        "Ġp",
        "utain"
      ],
      [
        "att",
        "ends"
      ],
      [
        "b",
        "Ã©"
      ],
      [
        "Ġs",
        "ent"
      ],
      [
        "Ġre",
        "m"
      ],
      [
        "r",
        "ait"
      ],
      [
        "Ġd",
        "r"
      ],
      [
        "Ġc",
        "as"
      ],
      [
        "Ġhe",
        "in"
      ],
      [
        "Ġc",
        "rois"
      ],
      [
        "Ġs",
        "o"
      ],
      [
        "Ġg",
        "en"
      ],
      [
        "os",
        "es"
      ],
      [
        "Ġc",
        "er"
      ],
      [
        "l",
        "ui"
      ],
      [
        "Ġp",
        "ens"
      ],
      [
        "Ġt",
        "i"
      ],
      [
        "ou",
        "d"
      ],
      [
        "Ġa",
        "c"
      ],
      [
        "Ġr",
        "est"
      ],
      [
        "it",
        "es"
      ],
      [
        "Ġpour",
        "quoi"
      ],
      [
        "p",
        "rÃ©"
      ],
      [
        "Ġs",
        "av"
      ],
      [
        "ic",
        "k"
      ],
      [
        "Ġt",
        "erre"
      ],
      [
        "Ġb",
        "la"
      ],
      [
        "a",
        "de"
      ],
      [
        "Ġpro",
        "d"
      ],
      [
        "v",
        "is"
      ],
      [
        "Ġ",
        "ans"
      ],
      [
        "m",
        "i"
      ],
      [
        "Ã¨",
        "ve"
      ],
      [
        "Ġgu",
        "eule"
      ],
      [
        "p",
        "asse"
      ],
      [
        "Ġf",
        "il"
      ],
      [
        "ar",
        "g"
      ],
      [
        "Ġv",
        "ers"
      ],
      [
        "Ġau",
        "tres"
      ],
      [
        "ier",
        "s"
      ],
      [
        "f",
        "r"
      ],
      [
        "Ġc",
        "ons"
      ],
      [
        "e",
        "h"
      ],
      [
        "Ġp",
        "ap"
      ],
      [
        "Ġb",
        "ille"
      ],
      [
        "ien",
        "ne"
      ],
      [
        "arr",
        "Ãªte"
      ],
      [
        "ai",
        "e"
      ],
      [
        "Ġc",
        "ash"
      ],
      [
        "Ġf",
        "uck"
      ],
      [
        "onn",
        "er"
      ],
      [
        "Ġ",
        "em"
      ],
      [
        "Ġl",
        "ui"
      ],
      [
        "Ġs",
        "tu"
      ],
      [
        "ent",
        "Ã´t"
      ],
      [
        "al",
        "le"
      ],
      [
        "t",
        "on"
      ],
      [
        "Ġ",
        "as"
      ],
      [
        "av",
        "ant"
      ],
      [
        "f",
        "in"
      ],
      [
        "Ġ",
        "eu"
      ],
      [
        "Ġ",
        "eux"
      ],
      [
        "Ġconn",
        "ais"
      ],
      [
        "ĠrÃª",
        "ves"
      ],
      [
        "p",
        "ro"
      ],
      [
        "Ġn",
        "oir"
      ],
      [
        "am",
        "our"
      ],
      [
        "b",
        "ien"
      ],
      [
        "f",
        "ume"
      ],
      [
        "h",
        "eure"
      ],
      [
        "Ġl",
        "eurs"
      ],
      [
        "Ġb",
        "ais"
      ],
      [
        "Ġr",
        "entre"
      ],
      [
        "Ġw",
        "e"
      ],
      [
        "ti",
        "on"
      ],
      [
        "Ġpla",
        "ce"
      ],
      [
        "c",
        "er"
      ],
      [
        "Ġd",
        "o"
      ],
      [
        "Ġs",
        "ac"
      ],
      [
        "Ġb",
        "Ã©"
      ],
      [
        "Ġte",
        "x"
      ],
      [
        "t",
        "ous"
      ],
      [
        "Ġpar",
        "ler"
      ],
      [
        "Ġm",
        "ot"
      ],
      [
        "Ġs",
        "ait"
      ],
      [
        "Ġt",
        "omb"
      ],
      [
        "Ġf",
        "am"
      ],
      [
        "Ġre",
        "gard"
      ],
      [
        "ff",
        "e"
      ],
      [
        "Ġquel",
        "ques"
      ],
      [
        "s",
        "t"
      ],
      [
        "Ġ",
        "ent"
      ],
      [
        "Ġc",
        "an"
      ],
      [
        "Ġmain",
        "tenant"
      ],
      [
        "g",
        "o"
      ],
      [
        "p",
        "i"
      ],
      [
        "Ġf",
        "ace"
      ],
      [
        "y",
        "le"
      ],
      [
        "Ġf",
        "ils"
      ],
      [
        "Ġdev",
        "ant"
      ],
      [
        "Ġch",
        "aud"
      ],
      [
        "ĠdÃ©",
        "f"
      ],
      [
        "Ġveu",
        "lent"
      ],
      [
        "0",
        "0"
      ],
      [
        "n",
        "ous"
      ],
      [
        "Ġs",
        "au"
      ],
      [
        "Ġf",
        "eu"
      ],
      [
        "par",
        "t"
      ],
      [
        "Ġ",
        "es"
      ],
      [
        "he",
        "y"
      ],
      [
        "Ġp",
        "ri"
      ],
      [
        "ai",
        "res"
      ],
      [
        "ille",
        "ur"
      ],
      [
        "Ġjus",
        "qu"
      ],
      [
        "Ġf",
        "low"
      ],
      [
        "et",
        "tes"
      ],
      [
        "tu",
        "re"
      ],
      [
        "ĠsÃ»",
        "r"
      ],
      [
        "Ġc",
        "Ã´"
      ],
      [
        "ch",
        "Ã©"
      ],
      [
        "us",
        "si"
      ],
      [
        "pe",
        "ct"
      ],
      [
        "Ġfr",
        "Ã¨res"
      ],
      [
        "Ġv",
        "os"
      ],
      [
        "Ġd",
        "ro"
      ],
      [
        "Ġl",
        "ais"
      ],
      [
        "at",
        "ion"
      ],
      [
        "Ġo",
        "k"
      ],
      [
        "a",
        "z"
      ],
      [
        "g",
        "ros"
      ],
      [
        "u",
        "le"
      ],
      [
        "Ġb",
        "elle"
      ],
      [
        "d",
        "onc"
      ],
      [
        "j",
        "eu"
      ],
      [
        "m",
        "is"
      ],
      [
        "n",
        "i"
      ],
      [
        "s",
        "ur"
      ],
      [
        "im",
        "es"
      ],
      [
        "Ġvi",
        "ent"
      ],
      [
        "eur",
        "es"
      ],
      [
        "ou",
        "bl"
      ],
      [
        "Ġt",
        "er"
      ],
      [
        "Ã©",
        "ri"
      ],
      [
        "ole",
        "il"
      ],
      [
        "o",
        "d"
      ],
      [
        "Ġ",
        "entre"
      ],
      [
        "Ġm",
        "euf"
      ],
      [
        "Ġb",
        "ab"
      ],
      [
        "pl",
        "i"
      ],
      [
        "f",
        "or"
      ],
      [
        "Ġd",
        "ir"
      ],
      [
        "Ġm",
        "y"
      ],
      [
        "ol",
        "i"
      ],
      [
        "asse",
        "z"
      ],
      [
        "h",
        "i"
      ],
      [
        "m",
        "o"
      ],
      [
        "Ġc",
        "ul"
      ],
      [
        "f",
        "Ã¨re"
      ],
      [
        "Ġd",
        "ar"
      ],
      [
        "Ġt",
        "ap"
      ],
      [
        "t",
        "h"
      ],
      [
        "Ġd",
        "Ã©t"
      ],
      [
        "Ġv",
        "iens"
      ],
      [
        "Ġv",
        "ais"
      ],
      [
        "oi",
        "rÃ©"
      ],
      [
        "Ġh",
        "eures"
      ],
      [
        "Ġci",
        "el"
      ],
      [
        "conn",
        "ais"
      ],
      [
        "Ġc",
        "onc"
      ],
      [
        "Ġm",
        "ets"
      ],
      [
        "Ġj",
        "oint"
      ],
      [
        "is",
        "toi"
      ],
      [
        "Ġen",
        "f"
      ],
      [
        "Ġh",
        "aut"
      ],
      [
        "Ġp",
        "rem"
      ],
      [
        "Ãª",
        "mes"
      ],
      [
        "at",
        "re"
      ],
      [
        "Ġal",
        "ler"
      ],
      [
        "Ġpe",
        "ine"
      ],
      [
        "Ġf",
        "ac"
      ],
      [
        "Ġma",
        "g"
      ],
      [
        "Ġal",
        "l"
      ],
      [
        "Ġjeu",
        "ne"
      ],
      [
        "Ġbeau",
        "coup"
      ],
      [
        "x",
        "x"
      ],
      [
        "Ġl",
        "ar"
      ],
      [
        "Ġm",
        "au"
      ],
      [
        "Ġt",
        "ard"
      ],
      [
        "g",
        "es"
      ],
      [
        "Ġp",
        "rop"
      ],
      [
        "Ġgra",
        "ve"
      ],
      [
        "o",
        "ot"
      ],
      [
        "s",
        "te"
      ],
      [
        "v",
        "ers"
      ],
      [
        "Ġd",
        "ur"
      ],
      [
        "Ġt",
        "o"
      ],
      [
        "Ġau",
        "tre"
      ],
      [
        "Ġvrai",
        "ment"
      ],
      [
        "p",
        "es"
      ],
      [
        "Ġc",
        "au"
      ],
      [
        "is",
        "se"
      ],
      [
        "Ġch",
        "ance"
      ],
      [
        "ig",
        "n"
      ],
      [
        "e",
        "ff"
      ],
      [
        "g",
        "ra"
      ],
      [
        "h",
        "an"
      ],
      [
        "h",
        "ors"
      ],
      [
        "Ġp",
        "res"
      ],
      [
        "Ġf",
        "ou"
      ],
      [
        "Ġr",
        "am"
      ],
      [
        "Ġch",
        "ar"
      ],
      [
        "Ġ",
        "assez"
      ],
      [
        "Ġm",
        "us"
      ],
      [
        "Ġv",
        "ol"
      ],
      [
        "ac",
        "c"
      ],
      [
        "im",
        "sa"
      ],
      [
        "Ġgen",
        "re"
      ],
      [
        "Ġs",
        "p"
      ],
      [
        "Ġs",
        "ang"
      ],
      [
        "Ġt",
        "ant"
      ],
      [
        "ass",
        "es"
      ],
      [
        "ĠÃ©t",
        "ait"
      ],
      [
        "Ġperd",
        "u"
      ],
      [
        "b",
        "ou"
      ],
      [
        "j",
        "o"
      ],
      [
        "Ġf",
        "rÃ©"
      ],
      [
        "Ġa",
        "ussi"
      ],
      [
        "l",
        "aisse"
      ],
      [
        "Ġb",
        "le"
      ],
      [
        "Ġpro",
        "bl"
      ],
      [
        "d",
        "is"
      ],
      [
        "m",
        "ain"
      ],
      [
        "se",
        "m"
      ],
      [
        "ot",
        "o"
      ],
      [
        "Ġk",
        "h"
      ],
      [
        "Ġpr",
        "endre"
      ],
      [
        "Ġfam",
        "ille"
      ],
      [
        "d",
        "o"
      ],
      [
        "d",
        "er"
      ],
      [
        "Ġ",
        "im"
      ],
      [
        "Ġb",
        "onne"
      ],
      [
        "ĠrÃª",
        "ve"
      ],
      [
        "c",
        "s"
      ],
      [
        "j",
        "our"
      ],
      [
        "Ġp",
        "orte"
      ],
      [
        "Ġc",
        "ri"
      ],
      [
        "a",
        "f"
      ],
      [
        "es",
        "h"
      ],
      [
        "tou",
        "jours"
      ],
      [
        "ou",
        "ver"
      ],
      [
        "Ġb",
        "itch"
      ],
      [
        "Ġh",
        "aine"
      ],
      [
        "ard",
        "s"
      ],
      [
        "pour",
        "quoi"
      ],
      [
        "app",
        "elle"
      ],
      [
        "Ã©p",
        "oque"
      ],
      [
        "igh",
        "t"
      ],
      [
        "Ġpot",
        "o"
      ],
      [
        "c",
        "ra"
      ],
      [
        "n",
        "o"
      ],
      [
        "Ġm",
        "Ãªmes"
      ],
      [
        "Ġs",
        "oit"
      ],
      [
        "Ġf",
        "em"
      ],
      [
        "Ġb",
        "at"
      ],
      [
        "Ġre",
        "garde"
      ],
      [
        "pr",
        "is"
      ],
      [
        "Ġperd",
        "re"
      ],
      [
        "Ġdem",
        "ande"
      ],
      [
        "Ġdro",
        "gue"
      ],
      [
        "Ġp",
        "ou"
      ],
      [
        "Ġp",
        "at"
      ],
      [
        "Ã¨",
        "mes"
      ],
      [
        "Ġpl",
        "u"
      ],
      [
        "Ġpar",
        "ce"
      ],
      [
        "ain",
        "s"
      ],
      [
        "Ġfin",
        "ir"
      ],
      [
        "Ã§",
        "on"
      ],
      [
        "r",
        "ien"
      ],
      [
        "r",
        "oule"
      ],
      [
        "ai",
        "mer"
      ],
      [
        "Ġch",
        "am"
      ],
      [
        "Ġou",
        "i"
      ],
      [
        "omb",
        "re"
      ],
      [
        "p",
        "la"
      ],
      [
        "u",
        "es"
      ],
      [
        "Ġs",
        "ouv"
      ],
      [
        "is",
        "s"
      ],
      [
        "Ġf",
        "ume"
      ],
      [
        "me",
        "ts"
      ],
      [
        "Ġr",
        "ue"
      ],
      [
        "Ġr",
        "imes"
      ],
      [
        "ang",
        "Ã©"
      ],
      [
        "a",
        "te"
      ],
      [
        "Ġ",
        "?"
      ],
      [
        "Ġm",
        "ent"
      ],
      [
        "on",
        "ce"
      ],
      [
        "Ġt",
        "ri"
      ],
      [
        "il",
        "ler"
      ],
      [
        "b",
        "ar"
      ],
      [
        "n",
        "ique"
      ],
      [
        "Ġb",
        "an"
      ],
      [
        "Ġv",
        "ont"
      ],
      [
        "rÃ©",
        "s"
      ],
      [
        "a",
        "ve"
      ],
      [
        "Ġp",
        "au"
      ],
      [
        "on",
        "te"
      ],
      [
        "an",
        "che"
      ],
      [
        "Ġb",
        "os"
      ],
      [
        "Ġa",
        "b"
      ],
      [
        "Ãª",
        "tes"
      ],
      [
        "Ġcou",
        "ple"
      ],
      [
        "Ġrapp",
        "eurs"
      ],
      [
        "Ġpet",
        "it"
      ],
      [
        "Ġbille",
        "ts"
      ],
      [
        "Ġch",
        "ose"
      ],
      [
        "ess",
        "es"
      ],
      [
        "Ġenv",
        "ie"
      ],
      [
        "d",
        "u"
      ],
      [
        "t",
        "rop"
      ],
      [
        "om",
        "mes"
      ],
      [
        "us",
        "e"
      ],
      [
        "onn",
        "es"
      ],
      [
        "Ġdem",
        "ain"
      ],
      [
        "Ġfor",
        "ce"
      ],
      [
        "c",
        "ette"
      ],
      [
        "Ġsa",
        "le"
      ],
      [
        "g",
        "ne"
      ],
      [
        "h",
        "ab"
      ],
      [
        "m",
        "m"
      ],
      [
        "Ġd",
        "onne"
      ],
      [
        "Ġm",
        "ic"
      ],
      [
        "Ġy",
        "ou"
      ],
      [
        "ol",
        "l"
      ],
      [
        "Ã¢",
        "t"
      ],
      [
        "Ġnouve",
        "au"
      ],
      [
        "f",
        "uck"
      ],
      [
        "p",
        "Ã©"
      ],
      [
        "Ġp",
        "ort"
      ],
      [
        "Ġc",
        "asse"
      ],
      [
        "Ġr",
        "ac"
      ],
      [
        "Ġin",
        "s"
      ],
      [
        "anc",
        "es"
      ],
      [
        "b",
        "er"
      ],
      [
        "Ġ",
        "3"
      ],
      [
        "Ġs",
        "oleil"
      ],
      [
        "ra",
        "c"
      ],
      [
        "Ã©c",
        "ris"
      ],
      [
        "ĠrÃ©",
        "p"
      ],
      [
        "Ġap",
        "p"
      ],
      [
        "Ġcont",
        "re"
      ],
      [
        "jeu",
        "ne"
      ],
      [
        "c",
        "ar"
      ],
      [
        "o",
        "Ã¹"
      ],
      [
        "t",
        "ent"
      ],
      [
        "Ġd",
        "oig"
      ],
      [
        "Ġb",
        "ut"
      ],
      [
        "Ġv",
        "it"
      ],
      [
        "Ġmet",
        "tre"
      ],
      [
        "a",
        "Ã¯"
      ],
      [
        "Ġp",
        "endant"
      ],
      [
        "Ġb",
        "out"
      ],
      [
        "Ġr",
        "oule"
      ],
      [
        "Ġtr",
        "ain"
      ],
      [
        "Ġbas",
        "e"
      ],
      [
        "ĠfrÃ©",
        "ro"
      ],
      [
        "c",
        "r"
      ],
      [
        "f",
        "s"
      ],
      [
        "Ġ",
        "id"
      ],
      [
        "Ġch",
        "ant"
      ],
      [
        "Ġal",
        "ors"
      ],
      [
        "Ġst",
        "yle"
      ],
      [
        "h",
        "Ã©"
      ],
      [
        "Ġp",
        "ous"
      ],
      [
        "Ġm",
        "ill"
      ],
      [
        "an",
        "e"
      ],
      [
        "Ġv",
        "en"
      ],
      [
        "Ġn",
        "u"
      ],
      [
        "or",
        "m"
      ],
      [
        "ri",
        "r"
      ],
      [
        "Ġau",
        "c"
      ],
      [
        "d",
        "re"
      ],
      [
        "d",
        "eux"
      ],
      [
        "Ġp",
        "ie"
      ],
      [
        "Ġs",
        "y"
      ],
      [
        "Ġb",
        "o"
      ],
      [
        "te",
        "m"
      ],
      [
        "Ġn",
        "om"
      ],
      [
        "aÃ®",
        "t"
      ],
      [
        "Ġc",
        "ro"
      ],
      [
        "Ġs",
        "em"
      ],
      [
        "qui",
        "pe"
      ],
      [
        "Ġseu",
        "le"
      ],
      [
        "r",
        "Ãª"
      ],
      [
        "Ġj",
        "j"
      ],
      [
        "Ġqu",
        "it"
      ],
      [
        "Ġf",
        "aux"
      ],
      [
        "Ġb",
        "u"
      ],
      [
        "Ġg",
        "os"
      ],
      [
        "au",
        "tre"
      ],
      [
        "Ġch",
        "oses"
      ],
      [
        "ig",
        "ne"
      ],
      [
        "Ġdi",
        "eu"
      ],
      [
        "c",
        "l"
      ],
      [
        "Ġa",
        "ff"
      ],
      [
        "Ġr",
        "en"
      ],
      [
        "Ġvi",
        "de"
      ],
      [
        "f",
        "ois"
      ],
      [
        "f",
        "ond"
      ],
      [
        "Ġ",
        "up"
      ],
      [
        "ĠdÃ©",
        "s"
      ],
      [
        "Ġpu",
        "te"
      ],
      [
        "g",
        "r"
      ],
      [
        "Ġp",
        "an"
      ],
      [
        "Ġc",
        "lo"
      ],
      [
        "in",
        "qui"
      ],
      [
        "Ġg",
        "ag"
      ],
      [
        "Ġou",
        "h"
      ],
      [
        "Ġpo",
        "te"
      ],
      [
        "Ġres",
        "pect"
      ],
      [
        "Ġmau",
        "vais"
      ],
      [
        "i",
        "p"
      ],
      [
        "Ġp",
        "ai"
      ],
      [
        "Ġp",
        "ay"
      ],
      [
        "Ġs",
        "uc"
      ],
      [
        "Ġqu",
        "atre"
      ],
      [
        "arg",
        "ent"
      ],
      [
        "is",
        "tes"
      ],
      [
        "te",
        "l"
      ],
      [
        "Ġpar",
        "les"
      ],
      [
        "em",
        "p"
      ],
      [
        "Ġme",
        "illeur"
      ],
      [
        "com",
        "p"
      ],
      [
        "Ġdir",
        "ait"
      ],
      [
        "Ġmus",
        "ique"
      ],
      [
        "v",
        "ant"
      ],
      [
        "Ġs",
        "ol"
      ],
      [
        "Ġh",
        "istoi"
      ],
      [
        "ĠÃ©",
        "p"
      ],
      [
        "all",
        "ume"
      ],
      [
        "Ġcab",
        "a"
      ],
      [
        "f",
        "e"
      ],
      [
        "t",
        "rois"
      ],
      [
        "Ġv",
        "oix"
      ],
      [
        "Ġa",
        "d"
      ],
      [
        "in",
        "q"
      ],
      [
        "Ġje",
        "an"
      ],
      [
        "Ġrap",
        "pe"
      ],
      [
        "Ġcou",
        "illes"
      ],
      [
        "a",
        "ff"
      ],
      [
        "b",
        "les"
      ],
      [
        "o",
        "re"
      ],
      [
        "r",
        "ent"
      ],
      [
        "Ġl",
        "ou"
      ],
      [
        "Ġt",
        "ire"
      ],
      [
        "Ã©",
        "v"
      ],
      [
        "ĠÃ",
        "¢"
      ],
      [
        "au",
        "rais"
      ],
      [
        "Ġy",
        "o"
      ],
      [
        "Ġpr",
        "ends"
      ],
      [
        "Ġse",
        "c"
      ],
      [
        "ess",
        "aye"
      ],
      [
        "Ġcomp",
        "te"
      ],
      [
        "c",
        "a"
      ],
      [
        "Ġ",
        "ass"
      ],
      [
        "ar",
        "i"
      ],
      [
        "Ġh",
        "eure"
      ],
      [
        "Ġpar",
        "is"
      ],
      [
        "Ġn",
        "Ã©g"
      ],
      [
        "ment",
        "s"
      ],
      [
        "Ġvi",
        "vre"
      ],
      [
        "Ã¢",
        "che"
      ],
      [
        "anc",
        "er"
      ],
      [
        "Ġd",
        "on"
      ],
      [
        "is",
        "t"
      ],
      [
        "Ġb",
        "ah"
      ],
      [
        "nÃ©",
        "es"
      ],
      [
        "b",
        "al"
      ],
      [
        "i",
        "de"
      ],
      [
        "v",
        "oul"
      ],
      [
        "Ġl",
        "Ã©g"
      ],
      [
        "as",
        "e"
      ],
      [
        "Ġa",
        "h"
      ],
      [
        "Ġdis",
        "ent"
      ],
      [
        "Ġpu",
        "tes"
      ],
      [
        "sem",
        "ble"
      ],
      [
        "Ġ",
        "4"
      ],
      [
        "Ġc",
        "ent"
      ],
      [
        "Ġc",
        "it"
      ],
      [
        "en",
        "f"
      ],
      [
        "Ġb",
        "ig"
      ],
      [
        "ur",
        "es"
      ],
      [
        "Ġal",
        "le"
      ],
      [
        "Ġfin",
        "i"
      ],
      [
        "Ġpot",
        "es"
      ],
      [
        "Ġpi",
        "Ã¨"
      ],
      [
        "Ġsour",
        "ire"
      ],
      [
        "prÃ©",
        "fÃ¨re"
      ],
      [
        "ĠcÃ´",
        "tÃ©"
      ],
      [
        "oubl",
        "ie"
      ],
      [
        "Ġlar",
        "mes"
      ],
      [
        "c",
        "ont"
      ],
      [
        "e",
        "y"
      ],
      [
        "Ġ",
        "imp"
      ],
      [
        "Ġf",
        "ai"
      ],
      [
        "eu",
        "h"
      ],
      [
        "Ġv",
        "erre"
      ],
      [
        "Ġma",
        "man"
      ],
      [
        "ui",
        "te"
      ],
      [
        "Ġprobl",
        "Ã¨mes"
      ],
      [
        "s",
        "us"
      ],
      [
        "Ġg",
        "av"
      ],
      [
        "it",
        "u"
      ],
      [
        "Ġbab",
        "y"
      ],
      [
        "Ġh",
        "o"
      ],
      [
        "Ġou",
        "bl"
      ],
      [
        "di",
        "o"
      ],
      [
        "Ġder",
        "n"
      ],
      [
        "b",
        "on"
      ],
      [
        "m",
        "ar"
      ],
      [
        "p",
        "ersonne"
      ],
      [
        "t",
        "tes"
      ],
      [
        "Ġc",
        "el"
      ],
      [
        "Ġpas",
        "ser"
      ],
      [
        "Ġn",
        "ique"
      ],
      [
        "al",
        "ent"
      ],
      [
        "elle",
        "ment"
      ],
      [
        "rÃ©",
        "p"
      ],
      [
        "Ġm",
        "Ã©t"
      ],
      [
        "Ġf",
        "i"
      ],
      [
        "Ġf",
        "Ãªte"
      ],
      [
        "ch",
        "ent"
      ],
      [
        "Ġmain",
        "s"
      ],
      [
        "Ġbal",
        "le"
      ],
      [
        "Ġjeu",
        "nes"
      ],
      [
        "Ġlo",
        "ve"
      ],
      [
        "tem",
        "ps"
      ],
      [
        "h",
        "ui"
      ],
      [
        "m",
        "Ã¨ne"
      ],
      [
        "v",
        "a"
      ],
      [
        "Ġl",
        "imsa"
      ],
      [
        "Ġc",
        "la"
      ],
      [
        "Ã©",
        "ch"
      ],
      [
        "Ġb",
        "ra"
      ],
      [
        "ass",
        "Ã©"
      ],
      [
        "bi",
        "entÃ´t"
      ],
      [
        "Ġfac",
        "ile"
      ],
      [
        "Ġcau",
        "se"
      ],
      [
        "g",
        "re"
      ],
      [
        "j",
        "us"
      ],
      [
        "m",
        "me"
      ],
      [
        "Ġ",
        "esp"
      ],
      [
        "Ġt",
        "y"
      ],
      [
        "Ġb",
        "lo"
      ],
      [
        "it",
        "er"
      ],
      [
        "res",
        "s"
      ],
      [
        "av",
        "oir"
      ],
      [
        "Ġpr",
        "om"
      ],
      [
        "Ġav",
        "ait"
      ],
      [
        "voul",
        "ais"
      ],
      [
        "l",
        "n"
      ],
      [
        "u",
        "b"
      ],
      [
        "Ġ",
        "it"
      ],
      [
        "Ġp",
        "Ã¨re"
      ],
      [
        "Ġf",
        "au"
      ],
      [
        "Ġb",
        "les"
      ],
      [
        "Ġb",
        "ail"
      ],
      [
        "Ġr",
        "o"
      ],
      [
        "Ġsi",
        "x"
      ],
      [
        "Ã©c",
        "out"
      ],
      [
        "ill",
        "Ã©"
      ],
      [
        "Ġgu",
        "erre"
      ],
      [
        "Ġrapp",
        "elle"
      ],
      [
        "Ġgo",
        "Ã»"
      ],
      [
        "Ġrest",
        "er"
      ],
      [
        "c",
        "ours"
      ],
      [
        "g",
        "er"
      ],
      [
        "j",
        "et"
      ],
      [
        "n",
        "an"
      ],
      [
        "s",
        "ous"
      ],
      [
        "Ġd",
        "ra"
      ],
      [
        "Ġqu",
        "art"
      ],
      [
        "Ġf",
        "e"
      ],
      [
        "Ġpr",
        "end"
      ],
      [
        "k",
        "s"
      ],
      [
        "Ġm",
        "il"
      ],
      [
        "Ġv",
        "ent"
      ],
      [
        "oi",
        "d"
      ],
      [
        "il",
        "la"
      ],
      [
        "Ġg",
        "l"
      ],
      [
        "Ġch",
        "angÃ©"
      ],
      [
        "Ġvi",
        "eux"
      ],
      [
        "Ġpr",
        "Ãªt"
      ],
      [
        "pr",
        "endre"
      ],
      [
        "ad",
        "is"
      ],
      [
        "vi",
        "te"
      ],
      [
        "b",
        "es"
      ],
      [
        "b",
        "ut"
      ],
      [
        "v",
        "oir"
      ],
      [
        "ent",
        "ends"
      ],
      [
        "Ġdans",
        "e"
      ],
      [
        "Ġh",
        "igh"
      ],
      [
        "Ġder",
        "riÃ¨re"
      ],
      [
        "ln",
        "ay"
      ],
      [
        "Ġ",
        "or"
      ],
      [
        "Ġd",
        "os"
      ],
      [
        "Ġm",
        "or"
      ],
      [
        "Ġv",
        "oi"
      ],
      [
        "Ġde",
        "hors"
      ],
      [
        "co",
        "eur"
      ],
      [
        "Ġcr",
        "oire"
      ],
      [
        "Ġpo",
        "p"
      ],
      [
        "d",
        "ent"
      ],
      [
        "h",
        "eur"
      ],
      [
        "Ġb",
        "ag"
      ],
      [
        "onn",
        "Ã©"
      ],
      [
        "Ġar",
        "ri"
      ],
      [
        "oo",
        "f"
      ],
      [
        "f",
        "l"
      ],
      [
        "n",
        "tre"
      ],
      [
        "p",
        "t"
      ],
      [
        "Ġs",
        "ons"
      ],
      [
        "qu",
        "el"
      ],
      [
        "Ġa",
        "ur"
      ],
      [
        "Ġr",
        "at"
      ],
      [
        "de",
        "m"
      ],
      [
        "si",
        "ble"
      ],
      [
        "ul",
        "l"
      ],
      [
        "Ġno",
        "tre"
      ],
      [
        "jour",
        "d"
      ],
      [
        "b",
        "um"
      ],
      [
        "m",
        "in"
      ],
      [
        "en",
        "n"
      ],
      [
        "Ġb",
        "en"
      ],
      [
        "Ġr",
        "oute"
      ],
      [
        "it",
        "i"
      ],
      [
        "ĠÃ©t",
        "oi"
      ],
      [
        "Ġbais",
        "er"
      ],
      [
        "Ġprem",
        "ier"
      ],
      [
        "c",
        "u"
      ],
      [
        "i",
        "Ã¨me"
      ],
      [
        "Ġt",
        "ellement"
      ],
      [
        "er",
        "t"
      ],
      [
        "Ġta",
        "ff"
      ],
      [
        "rap",
        "p"
      ],
      [
        "esp",
        "Ã¨re"
      ],
      [
        "Ġjou",
        "e"
      ],
      [
        "c",
        "le"
      ],
      [
        "h",
        "er"
      ],
      [
        "r",
        "ain"
      ],
      [
        "ou",
        "e"
      ],
      [
        "as",
        "t"
      ],
      [
        "al",
        "itÃ©"
      ],
      [
        "res",
        "se"
      ],
      [
        "Ġsi",
        "m"
      ],
      [
        "Ġtra",
        "Ã®"
      ],
      [
        "gu",
        "es"
      ],
      [
        "Ġcher",
        "che"
      ],
      [
        "Ġwe",
        "ed"
      ],
      [
        "Ġtex",
        "tes"
      ],
      [
        "Ġpai",
        "x"
      ],
      [
        "c",
        "ro"
      ],
      [
        "j",
        "amais"
      ],
      [
        "n",
        "os"
      ],
      [
        "r",
        "it"
      ],
      [
        "Ġp",
        "ense"
      ],
      [
        "en",
        "fer"
      ],
      [
        "Ġb",
        "aise"
      ],
      [
        "Ġch",
        "ange"
      ],
      [
        "ri",
        "c"
      ],
      [
        "ĠdÃ©",
        "p"
      ],
      [
        "ing",
        "t"
      ],
      [
        "Ġcor",
        "ps"
      ],
      [
        "b",
        "at"
      ],
      [
        "Ġs",
        "k"
      ],
      [
        "Ġqu",
        "est"
      ],
      [
        "un",
        "k"
      ],
      [
        "Ġr",
        "Ã©c"
      ],
      [
        "Ġg",
        "al"
      ],
      [
        "Ġre",
        "u"
      ],
      [
        "Ġpr",
        "Ã¨s"
      ],
      [
        "Ġco",
        "p"
      ],
      [
        "Ġav",
        "oir"
      ],
      [
        "gu",
        "eu"
      ],
      [
        "Ġrentre",
        "r"
      ],
      [
        "c",
        "Ã©"
      ],
      [
        "g",
        "ique"
      ],
      [
        "m",
        "ons"
      ],
      [
        "u",
        "er"
      ],
      [
        "Ġb",
        "euh"
      ],
      [
        "Ġr",
        "ais"
      ],
      [
        "Ġg",
        "Ã©"
      ],
      [
        "Ġcom",
        "m"
      ],
      [
        "pr",
        "end"
      ],
      [
        "um",
        "iÃ¨re"
      ],
      [
        "Ġai",
        "r"
      ],
      [
        "ĠÃ©c",
        "out"
      ],
      [
        "tr",
        "u"
      ],
      [
        "Ġtap",
        "e"
      ],
      [
        "Ġalle",
        "z"
      ],
      [
        "Ġc",
        "re"
      ],
      [
        "Ġc",
        "ours"
      ],
      [
        "Ġs",
        "tre"
      ],
      [
        "Ġf",
        "re"
      ],
      [
        "Ġf",
        "la"
      ],
      [
        "Ġf",
        "ous"
      ],
      [
        "de",
        "au"
      ],
      [
        "Ġh",
        "um"
      ],
      [
        "Ġo",
        "b"
      ],
      [
        "cher",
        "che"
      ],
      [
        "Ġri",
        "me"
      ],
      [
        "Ġfil",
        "m"
      ],
      [
        "aimer",
        "ais"
      ],
      [
        "Ġdoig",
        "ts"
      ],
      [
        "d",
        "ic"
      ],
      [
        "h",
        "um"
      ],
      [
        "r",
        "Ã¨s"
      ],
      [
        "Ġm",
        "ois"
      ],
      [
        "Ġs",
        "ors"
      ],
      [
        "Ġv",
        "e"
      ],
      [
        "Ġpas",
        "s"
      ],
      [
        "Ġpas",
        "sÃ©"
      ],
      [
        "in",
        "t"
      ],
      [
        "al",
        "ler"
      ],
      [
        "Ġch",
        "anger"
      ],
      [
        "Ġe",
        "ff"
      ],
      [
        "Ġsc",
        "Ã¨ne"
      ],
      [
        "w",
        "e"
      ],
      [
        "Ġd",
        "onner"
      ],
      [
        "Ġb",
        "Ã¢t"
      ],
      [
        "Ġa",
        "g"
      ],
      [
        "Ġg",
        "ar"
      ],
      [
        "ĠfrÃ©ro",
        "t"
      ],
      [
        "s",
        "h"
      ],
      [
        "Ġs",
        "m"
      ],
      [
        "er",
        "ai"
      ],
      [
        "Ġf",
        "le"
      ],
      [
        "Ġv",
        "al"
      ],
      [
        "ve",
        "au"
      ],
      [
        "de",
        "puis"
      ],
      [
        "Ġh",
        "er"
      ],
      [
        "ol",
        "Ã©"
      ],
      [
        "em",
        "ent"
      ],
      [
        "Ġcou",
        "ps"
      ],
      [
        "Ġai",
        "me"
      ],
      [
        "Ġnouve",
        "lle"
      ],
      [
        "env",
        "oie"
      ],
      [
        "g",
        "n"
      ],
      [
        "m",
        "am"
      ],
      [
        "s",
        "s"
      ],
      [
        "Ġt",
        "Ã©"
      ],
      [
        "Ġj",
        "et"
      ],
      [
        "Ġv",
        "o"
      ],
      [
        "Ġv",
        "rais"
      ],
      [
        "Ġtr",
        "ouv"
      ],
      [
        "pour",
        "rais"
      ],
      [
        "Ġbi",
        "z"
      ],
      [
        "Ġmot",
        "s"
      ],
      [
        "b",
        "o"
      ],
      [
        "r",
        "y"
      ],
      [
        "Ġp",
        "ire"
      ],
      [
        "Ġs",
        "omme"
      ],
      [
        "Ã©",
        "ro"
      ],
      [
        "Ġb",
        "ord"
      ],
      [
        "ag",
        "ne"
      ],
      [
        "Ġgr",
        "is"
      ],
      [
        "Ġar",
        "r"
      ],
      [
        "Ġar",
        "rive"
      ],
      [
        "vi",
        "ent"
      ],
      [
        "Ġjou",
        "er"
      ],
      [
        "Ġstu",
        "dio"
      ],
      [
        "mo",
        "ke"
      ],
      [
        "c",
        "al"
      ],
      [
        "e",
        "il"
      ],
      [
        "l",
        "ou"
      ],
      [
        "Ġp",
        "ig"
      ],
      [
        "en",
        "ne"
      ],
      [
        "Ġt",
        "Ãªtes"
      ],
      [
        "Ġf",
        "ol"
      ],
      [
        "Ġb",
        "oy"
      ],
      [
        "un",
        "es"
      ],
      [
        "om",
        "ent"
      ],
      [
        "ch",
        "et"
      ],
      [
        "ap",
        "rÃ¨s"
      ],
      [
        "ri",
        "te"
      ],
      [
        "end",
        "u"
      ],
      [
        "Ġtr",
        "iste"
      ],
      [
        "Ġco",
        "ol"
      ],
      [
        "Ġgros",
        "se"
      ],
      [
        "Ġbi",
        "entÃ´t"
      ],
      [
        "Ġ1",
        "6"
      ],
      [
        "Ġsav",
        "ent"
      ],
      [
        "Ġpap",
        "a"
      ],
      [
        "c",
        "ent"
      ],
      [
        "d",
        "onne"
      ],
      [
        "g",
        "en"
      ],
      [
        "i",
        "o"
      ],
      [
        "p",
        "utain"
      ],
      [
        "v",
        "u"
      ],
      [
        "an",
        "a"
      ],
      [
        "as",
        "si"
      ],
      [
        "Ġg",
        "rai"
      ],
      [
        "Ġpar",
        "lent"
      ],
      [
        "Ġtr",
        "ou"
      ],
      [
        "Ġjour",
        "nÃ©e"
      ],
      [
        "euf",
        "s"
      ],
      [
        "Ġcal",
        "me"
      ],
      [
        "Ġmec",
        "s"
      ],
      [
        "Ġan",
        "nÃ©es"
      ],
      [
        "Ġtruc",
        "s"
      ],
      [
        "b",
        "a"
      ],
      [
        "g",
        "a"
      ],
      [
        "ou",
        "i"
      ],
      [
        "Ġm",
        "iens"
      ],
      [
        "en",
        "core"
      ],
      [
        "Ġb",
        "er"
      ],
      [
        "Ġv",
        "oit"
      ],
      [
        "in",
        "er"
      ],
      [
        "Ġg",
        "ent"
      ],
      [
        "ic",
        "o"
      ],
      [
        "Ġtr",
        "ans"
      ],
      [
        "Ã´",
        "le"
      ],
      [
        "Ġni",
        "quer"
      ],
      [
        "Ġbal",
        "les"
      ],
      [
        "Ġfem",
        "me"
      ],
      [
        "inqui",
        "Ã¨te"
      ],
      [
        "Ġcit",
        "y"
      ],
      [
        "b",
        "el"
      ],
      [
        "c",
        "re"
      ],
      [
        "h",
        "o"
      ],
      [
        "i",
        "al"
      ],
      [
        "Ġ",
        "7"
      ],
      [
        "Ġs",
        "ai"
      ],
      [
        "Ġs",
        "in"
      ],
      [
        "Ġs",
        "ois"
      ],
      [
        "Ġr",
        "is"
      ],
      [
        "Ġr",
        "Ã©s"
      ],
      [
        "ch",
        "ant"
      ],
      [
        "ra",
        "t"
      ],
      [
        "ail",
        "leurs"
      ],
      [
        "Ġpart",
        "ir"
      ],
      [
        "ouv",
        "re"
      ],
      [
        "Ġlong",
        "temps"
      ],
      [
        "Ġlais",
        "ser"
      ],
      [
        "c",
        "el"
      ],
      [
        "i",
        "eu"
      ],
      [
        "p",
        "o"
      ],
      [
        "Ġl",
        "une"
      ],
      [
        "Ġc",
        "am"
      ],
      [
        "Ġs",
        "ch"
      ],
      [
        "Ġs",
        "olo"
      ],
      [
        "Ġf",
        "esses"
      ],
      [
        "Ã¨",
        "ge"
      ],
      [
        "ra",
        "Ã®"
      ],
      [
        "os",
        "ma"
      ],
      [
        "Ġmais",
        "on"
      ],
      [
        "co",
        "ol"
      ],
      [
        "ser",
        "ve"
      ],
      [
        "Ġpart",
        "out"
      ],
      [
        "all",
        "ait"
      ],
      [
        "aud",
        "rait"
      ],
      [
        "main",
        "tenant"
      ],
      [
        "b",
        "ab"
      ],
      [
        "Ġ",
        "and"
      ],
      [
        "Ġm",
        "ur"
      ],
      [
        "Ġb",
        "re"
      ],
      [
        "Ġb",
        "ons"
      ],
      [
        "Ġv",
        "Ã©r"
      ],
      [
        "Ġg",
        "au"
      ],
      [
        "Ġmon",
        "tre"
      ],
      [
        "Ġre",
        "tour"
      ],
      [
        "Ġk",
        "iff"
      ],
      [
        "pr",
        "Ã©c"
      ],
      [
        "Ġgrand",
        "i"
      ],
      [
        "Ġ1",
        "0"
      ],
      [
        "ĠpÃ©t",
        "er"
      ],
      [
        "Ġauc",
        "un"
      ],
      [
        "Ġhistoi",
        "res"
      ],
      [
        "c",
        "eux"
      ],
      [
        "n",
        "a"
      ],
      [
        "v",
        "as"
      ],
      [
        "v",
        "res"
      ],
      [
        "w",
        "esh"
      ],
      [
        "z",
        "z"
      ],
      [
        "Ġp",
        "are"
      ],
      [
        "Ġc",
        "rÃ©"
      ],
      [
        "Ġs",
        "oirÃ©"
      ],
      [
        "qu",
        "ent"
      ],
      [
        "ar",
        "re"
      ],
      [
        "me",
        "t"
      ],
      [
        "Ġn",
        "Ã©"
      ],
      [
        "Ġn",
        "ight"
      ],
      [
        "Ġdi",
        "ff"
      ],
      [
        "Ġvis",
        "ion"
      ],
      [
        "Ġmat",
        "in"
      ],
      [
        "i",
        "ze"
      ],
      [
        "u",
        "h"
      ],
      [
        "Ġp",
        "il"
      ],
      [
        "Ġs",
        "oig"
      ],
      [
        "Ġt",
        "as"
      ],
      [
        "Ġt",
        "ar"
      ],
      [
        "Ġt",
        "el"
      ],
      [
        "Ġt",
        "Ã©l"
      ],
      [
        "ch",
        "aque"
      ],
      [
        "Ġcom",
        "bien"
      ],
      [
        "ra",
        "che"
      ],
      [
        "Ġch",
        "oix"
      ],
      [
        "Ġmer",
        "ci"
      ],
      [
        "ĠÃ©c",
        "oute"
      ],
      [
        "d",
        "y"
      ],
      [
        "k",
        "a"
      ],
      [
        "r",
        "on"
      ],
      [
        "v",
        "en"
      ],
      [
        "x",
        "e"
      ],
      [
        "Ġ",
        "x"
      ],
      [
        "Ġp",
        "aye"
      ],
      [
        "Ġc",
        "inq"
      ],
      [
        "ou",
        "h"
      ],
      [
        "ou",
        "pe"
      ],
      [
        "Ġv",
        "oy"
      ],
      [
        "res",
        "sion"
      ],
      [
        "ĠÃ©",
        "quipe"
      ],
      [
        "Ã»",
        "le"
      ],
      [
        "ĠÃ©t",
        "Ã©"
      ],
      [
        "Ġrou",
        "ge"
      ],
      [
        "Ġfout",
        "re"
      ],
      [
        "Ġti",
        "me"
      ],
      [
        "Ġgav",
        "as"
      ],
      [
        "d",
        "on"
      ],
      [
        "i",
        "ch"
      ],
      [
        "m",
        "mes"
      ],
      [
        "Ġp",
        "al"
      ],
      [
        "ou",
        "x"
      ],
      [
        "Ġt",
        "able"
      ],
      [
        "Ġg",
        "am"
      ],
      [
        "Ã¨",
        "rent"
      ],
      [
        "ve",
        "ille"
      ],
      [
        "ĠdÃ©",
        "l"
      ],
      [
        "ail",
        "les"
      ],
      [
        "Ġbou",
        "le"
      ],
      [
        "Ġser",
        "a"
      ],
      [
        "Ġsort",
        "ir"
      ],
      [
        "Ġsav",
        "oir"
      ],
      [
        "d",
        "ie"
      ],
      [
        "Ġ",
        "9"
      ],
      [
        "Ġ",
        "oi"
      ],
      [
        "Ġp",
        "ers"
      ],
      [
        "Ġc",
        "oin"
      ],
      [
        "Ġb",
        "ro"
      ],
      [
        "av",
        "ance"
      ],
      [
        "ti",
        "Ã©"
      ],
      [
        "Ġfr",
        "oid"
      ],
      [
        "ond",
        "s"
      ],
      [
        "Ġman",
        "que"
      ],
      [
        "Ġdou",
        "ble"
      ],
      [
        "Ġapp",
        "el"
      ],
      [
        "Ġpie",
        "ds"
      ],
      [
        "Ġd",
        "Ã»"
      ],
      [
        "Ġs",
        "moke"
      ],
      [
        "er",
        "ais"
      ],
      [
        "Ġf",
        "a"
      ],
      [
        "Ġb",
        "our"
      ],
      [
        "Ġb",
        "Ãªte"
      ],
      [
        "et",
        "t"
      ],
      [
        "Ġg",
        "ang"
      ],
      [
        "Ġmon",
        "ey"
      ],
      [
        "aut",
        "res"
      ],
      [
        "ĠdÃ©",
        "g"
      ],
      [
        "ess",
        "aie"
      ],
      [
        "Ġbr",
        "uit"
      ],
      [
        "Ġbou",
        "che"
      ],
      [
        "Ġperd",
        "s"
      ],
      [
        "Ġri",
        "che"
      ],
      [
        "Ġcol",
        "l"
      ],
      [
        "fi",
        "ance"
      ],
      [
        "xx",
        "x"
      ],
      [
        "b",
        "la"
      ],
      [
        "n",
        "aie"
      ],
      [
        "u",
        "tes"
      ],
      [
        "Ġt",
        "ours"
      ],
      [
        "Ġf",
        "u"
      ],
      [
        "Ġf",
        "ier"
      ],
      [
        "Ġb",
        "ack"
      ],
      [
        "eu",
        "m"
      ],
      [
        "Ġen",
        "ne"
      ],
      [
        "Ġpar",
        "ti"
      ],
      [
        "ri",
        "re"
      ],
      [
        "Ġtr",
        "ouve"
      ],
      [
        "Ġw",
        "h"
      ],
      [
        "Ġpo",
        "ches"
      ],
      [
        "ci",
        "el"
      ],
      [
        "e",
        "k"
      ],
      [
        "i",
        "k"
      ],
      [
        "n",
        "d"
      ],
      [
        "p",
        "os"
      ],
      [
        "Ġd",
        "Ã¨s"
      ],
      [
        "Ġc",
        "elle"
      ],
      [
        "Ġf",
        "oot"
      ],
      [
        "Ġv",
        "oud"
      ],
      [
        "ch",
        "o"
      ],
      [
        "ien",
        "nent"
      ],
      [
        "Ã©t",
        "er"
      ],
      [
        "ut",
        "Ã´t"
      ],
      [
        "app",
        "el"
      ],
      [
        "Ġfum",
        "er"
      ],
      [
        "Ġtex",
        "te"
      ],
      [
        "Ġplu",
        "ie"
      ],
      [
        "Ġaff",
        "aires"
      ],
      [
        "Ġsim",
        "ple"
      ],
      [
        "p",
        "endant"
      ],
      [
        "r",
        "ouve"
      ],
      [
        "Ġ",
        "elles"
      ],
      [
        "Ġd",
        "ents"
      ],
      [
        "Ġl",
        "Ã¨ve"
      ],
      [
        "Ġp",
        "aire"
      ],
      [
        "Ġc",
        "le"
      ],
      [
        "Ġm",
        "c"
      ],
      [
        "Ġs",
        "Ã©"
      ],
      [
        "as",
        "es"
      ],
      [
        "Ġf",
        "ut"
      ],
      [
        "Ġv",
        "este"
      ],
      [
        "Ġtu",
        "e"
      ],
      [
        "Ġmoi",
        "tiÃ©"
      ],
      [
        "um",
        "er"
      ],
      [
        "onc",
        "Ã©"
      ],
      [
        "Ġfum",
        "Ã©e"
      ],
      [
        "ĠÃ¢",
        "me"
      ],
      [
        "Ġpig",
        "es"
      ],
      [
        "Ġgau",
        "che"
      ],
      [
        "l",
        "ais"
      ],
      [
        "l",
        "les"
      ],
      [
        "p",
        "ort"
      ],
      [
        "Ġd",
        "ois"
      ],
      [
        "Ġl",
        "umiÃ¨re"
      ],
      [
        "Ġp",
        "ur"
      ],
      [
        "en",
        "de"
      ],
      [
        "Ġch",
        "em"
      ],
      [
        "Ġpar",
        "adis"
      ],
      [
        "Ġmon",
        "naie"
      ],
      [
        "ic",
        "es"
      ],
      [
        "ig",
        "o"
      ],
      [
        "Ġpro",
        "f"
      ],
      [
        "Ġpla",
        "y"
      ],
      [
        "Ġmar",
        "che"
      ],
      [
        "Ġtour",
        "ne"
      ],
      [
        "Ġam",
        "is"
      ],
      [
        "Ġsu",
        "per"
      ],
      [
        "Ġrem",
        "pl"
      ],
      [
        "Ġsouv",
        "enir"
      ],
      [
        "c",
        "ons"
      ],
      [
        "l",
        "ot"
      ],
      [
        "n",
        "ow"
      ],
      [
        "re",
        "garde"
      ],
      [
        "is",
        "sent"
      ],
      [
        "le",
        "t"
      ],
      [
        "Ã¨",
        "tes"
      ],
      [
        "Ġen",
        "semble"
      ],
      [
        "ir",
        "ai"
      ],
      [
        "ag",
        "er"
      ],
      [
        "Ġtra",
        "v"
      ],
      [
        "Ġgrand",
        "s"
      ],
      [
        "Ġsal",
        "es"
      ],
      [
        "Ã©r",
        "ie"
      ],
      [
        "Ġsou",
        "ff"
      ],
      [
        "rÃª",
        "ve"
      ],
      [
        "ĠÃ©toi",
        "les"
      ],
      [
        "c",
        "ul"
      ],
      [
        "t",
        "eur"
      ],
      [
        "Ġ",
        "5"
      ],
      [
        "ai",
        "ro"
      ],
      [
        "Ġm",
        "en"
      ],
      [
        "an",
        "o"
      ],
      [
        "Ġj",
        "am"
      ],
      [
        "is",
        "es"
      ],
      [
        "Ġf",
        "our"
      ],
      [
        "Ġf",
        "rappe"
      ],
      [
        "Ġg",
        "arde"
      ],
      [
        "Ġdans",
        "er"
      ],
      [
        "ous",
        "se"
      ],
      [
        "Ġh",
        "ommes"
      ],
      [
        "ac",
        "un"
      ],
      [
        "par",
        "s"
      ],
      [
        "Ġw",
        "oof"
      ],
      [
        "ure",
        "r"
      ],
      [
        "Ġseu",
        "m"
      ],
      [
        "Ġtour",
        "ner"
      ],
      [
        "orm",
        "al"
      ],
      [
        "c",
        "te"
      ],
      [
        "f",
        "a"
      ],
      [
        "ai",
        "te"
      ],
      [
        "an",
        "Ã§"
      ],
      [
        "Ġf",
        "us"
      ],
      [
        "Ġv",
        "ingt"
      ],
      [
        "oi",
        "ent"
      ],
      [
        "Ġr",
        "ess"
      ],
      [
        "our",
        "ir"
      ],
      [
        "Ġn",
        "ot"
      ],
      [
        "Ġch",
        "ans"
      ],
      [
        "Ġpour",
        "tant"
      ],
      [
        "Ġh",
        "ab"
      ],
      [
        "ang",
        "es"
      ],
      [
        "Ġche",
        "v"
      ],
      [
        "ose",
        "ille"
      ],
      [
        "Ġbon",
        "heur"
      ],
      [
        "igh",
        "ts"
      ],
      [
        "Ġpet",
        "its"
      ],
      [
        "fer",
        "me"
      ],
      [
        "Ġvoul",
        "ait"
      ],
      [
        "ĠbÃ©",
        "bÃ©"
      ],
      [
        "Ġtomb",
        "e"
      ],
      [
        "Ġpri",
        "x"
      ],
      [
        "for",
        "ce"
      ],
      [
        "Ġcouple",
        "t"
      ],
      [
        "jus",
        "te"
      ],
      [
        "c",
        "on"
      ],
      [
        "d",
        "it"
      ],
      [
        "d",
        "Ã©s"
      ],
      [
        "s",
        "on"
      ],
      [
        "u",
        "te"
      ],
      [
        "es",
        "qui"
      ],
      [
        "Ġt",
        "osma"
      ],
      [
        "Ġb",
        "us"
      ],
      [
        "Ġb",
        "el"
      ],
      [
        "Ġb",
        "ri"
      ],
      [
        "oi",
        "te"
      ],
      [
        "Ġg",
        "e"
      ],
      [
        "Ġg",
        "ame"
      ],
      [
        "att",
        "end"
      ],
      [
        "Ġli",
        "fe"
      ],
      [
        "esp",
        "oir"
      ],
      [
        "aÃ®",
        "tre"
      ],
      [
        "j",
        "j"
      ],
      [
        "l",
        "is"
      ],
      [
        "Ġd",
        "out"
      ],
      [
        "Ġp",
        "ol"
      ],
      [
        "in",
        "Ã©"
      ],
      [
        "ic",
        "s"
      ],
      [
        "Ġcou",
        "pe"
      ],
      [
        "ing",
        "ue"
      ],
      [
        "Ã®",
        "t"
      ],
      [
        "Ã©l",
        "ange"
      ],
      [
        "Ġcon",
        "fiance"
      ],
      [
        "Ġcra",
        "ck"
      ],
      [
        "Ġstu",
        "d"
      ],
      [
        "itu",
        "de"
      ],
      [
        "b",
        "eau"
      ],
      [
        "p",
        "eu"
      ],
      [
        "Ġl",
        "y"
      ],
      [
        "Ġl",
        "our"
      ],
      [
        "Ġc",
        "asser"
      ],
      [
        "al",
        "es"
      ],
      [
        "ant",
        "Ã©"
      ],
      [
        "Ġpl",
        "utÃ´t"
      ],
      [
        "at",
        "te"
      ],
      [
        "ain",
        "es"
      ],
      [
        "Ġo",
        "p"
      ],
      [
        "Ġvi",
        "es"
      ],
      [
        "Ġpr",
        "Ã©c"
      ],
      [
        "imp",
        "orte"
      ],
      [
        "c",
        "asse"
      ],
      [
        "g",
        "Ã©"
      ],
      [
        "g",
        "le"
      ],
      [
        "i",
        "z"
      ],
      [
        "i",
        "me"
      ],
      [
        "r",
        "ou"
      ],
      [
        "s",
        "u"
      ],
      [
        "es",
        "se"
      ],
      [
        "Ġd",
        "om"
      ],
      [
        "Ġd",
        "or"
      ],
      [
        "Ġd",
        "ie"
      ],
      [
        "Ġd",
        "alle"
      ],
      [
        "Ġl",
        "it"
      ],
      [
        "Ġl",
        "igne"
      ],
      [
        "Ġl",
        "ights"
      ],
      [
        "Ġm",
        "aille"
      ],
      [
        "Ġs",
        "w"
      ],
      [
        "Ġb",
        "ad"
      ],
      [
        "Ġb",
        "ande"
      ],
      [
        "ar",
        "ri"
      ],
      [
        "Ġv",
        "endre"
      ],
      [
        "Ã¨",
        "nes"
      ],
      [
        "Ġcom",
        "pris"
      ],
      [
        "rÃ©",
        "e"
      ],
      [
        "pr",
        "it"
      ],
      [
        "Ġw",
        "esh"
      ],
      [
        "Ġrap",
        "per"
      ],
      [
        "br",
        "ou"
      ],
      [
        "Ġsu",
        "ff"
      ],
      [
        "Ã¯",
        "e"
      ],
      [
        "ĠvÃ©r",
        "itÃ©"
      ],
      [
        "Ġpare",
        "il"
      ],
      [
        "c",
        "ap"
      ],
      [
        "d",
        "ou"
      ],
      [
        "m",
        "at"
      ],
      [
        "m",
        "Ã©s"
      ],
      [
        "r",
        "uc"
      ],
      [
        "v",
        "ie"
      ],
      [
        "Ġc",
        "ass"
      ],
      [
        "Ġm",
        "ou"
      ],
      [
        "Ġn",
        "ah"
      ],
      [
        "em",
        "ande"
      ],
      [
        "Ġbr",
        "ille"
      ],
      [
        "he",
        "in"
      ],
      [
        "Ġgu",
        "ette"
      ],
      [
        "di",
        "eu"
      ],
      [
        "Ġbos",
        "s"
      ],
      [
        "Ġcouple",
        "ts"
      ],
      [
        "Ġgos",
        "ses"
      ],
      [
        "Ġho",
        "la"
      ],
      [
        "Ġrais",
        "on"
      ],
      [
        "a",
        "w"
      ],
      [
        "t",
        "in"
      ],
      [
        "Ġ",
        "is"
      ],
      [
        "Ġl",
        "et"
      ],
      [
        "Ġs",
        "n"
      ],
      [
        "qu",
        "ette"
      ],
      [
        "an",
        "nÃ©e"
      ],
      [
        "Ġb",
        "ois"
      ],
      [
        "au",
        "rai"
      ],
      [
        "Ġdes",
        "sus"
      ],
      [
        "al",
        "ors"
      ],
      [
        "Ġh",
        "om"
      ],
      [
        "at",
        "ch"
      ],
      [
        "and",
        "es"
      ],
      [
        "os",
        "s"
      ],
      [
        "Ġre",
        "f"
      ],
      [
        "ac",
        "t"
      ],
      [
        "Ġte",
        "am"
      ],
      [
        "Ġbi",
        "ff"
      ],
      [
        "Ġid",
        "Ã©es"
      ],
      [
        "Ġdern",
        "ier"
      ],
      [
        "c",
        "ti"
      ],
      [
        "e",
        "z"
      ],
      [
        "h",
        "omme"
      ],
      [
        "p",
        "ri"
      ],
      [
        "p",
        "oto"
      ],
      [
        "r",
        "ont"
      ],
      [
        "t",
        "ter"
      ],
      [
        "Ġf",
        "ille"
      ],
      [
        "Ġv",
        "end"
      ],
      [
        "il",
        "es"
      ],
      [
        "Ġr",
        "ent"
      ],
      [
        "Ġdes",
        "c"
      ],
      [
        "ra",
        "mÃ¨ne"
      ],
      [
        "che",
        "ck"
      ],
      [
        "ab",
        "les"
      ],
      [
        "Ġo",
        "g"
      ],
      [
        "Ġk",
        "il"
      ],
      [
        "Ġte",
        "ch"
      ],
      [
        "Ġbr",
        "as"
      ],
      [
        "Ġpo",
        "se"
      ],
      [
        "Ġconn",
        "u"
      ],
      [
        "Ġli",
        "bre"
      ],
      [
        "Ġrapp",
        "eur"
      ],
      [
        "Ġbar",
        "re"
      ],
      [
        "Ġquel",
        "que"
      ],
      [
        "Ġbl",
        "anc"
      ],
      [
        "Ġfer",
        "me"
      ],
      [
        "Ġdo",
        "jo"
      ],
      [
        "Ġdar",
        "on"
      ],
      [
        "rac",
        "onte"
      ],
      [
        "Ġpan",
        "ame"
      ],
      [
        "Ġfau",
        "te"
      ],
      [
        "ĠsoirÃ©",
        "e"
      ],
      [
        "Ġcle",
        "an"
      ],
      [
        "2",
        "0"
      ],
      [
        "b",
        "as"
      ],
      [
        "g",
        "ie"
      ],
      [
        "k",
        "i"
      ],
      [
        "m",
        "ot"
      ],
      [
        "n",
        "ouve"
      ],
      [
        "p",
        "a"
      ],
      [
        "r",
        "ange"
      ],
      [
        "Ġ",
        "-"
      ],
      [
        "Ġl",
        "ang"
      ],
      [
        "Ġp",
        "Ã©"
      ],
      [
        "er",
        "a"
      ],
      [
        "Ġf",
        "en"
      ],
      [
        "Ġb",
        "oute"
      ],
      [
        "est",
        "in"
      ],
      [
        "Ġde",
        "dans"
      ],
      [
        "in",
        "v"
      ],
      [
        "in",
        "ue"
      ],
      [
        "Ġn",
        "es"
      ],
      [
        "Ġch",
        "iff"
      ],
      [
        "Ġh",
        "Ã©"
      ],
      [
        "Ġh",
        "ier"
      ],
      [
        "Ġau",
        "tant"
      ],
      [
        "Ġfait",
        "es"
      ],
      [
        "av",
        "enir"
      ],
      [
        "Ġk",
        "eufs"
      ],
      [
        "Ġte",
        "h"
      ],
      [
        "Ġfr",
        "ance"
      ],
      [
        "mer",
        "ci"
      ],
      [
        "oud",
        "re"
      ],
      [
        "pla",
        "ce"
      ],
      [
        "Ġmil",
        "ieu"
      ],
      [
        "c",
        "an"
      ],
      [
        "d",
        "a"
      ],
      [
        "p",
        "ap"
      ],
      [
        "Ġ",
        "ess"
      ],
      [
        "Ġp",
        "is"
      ],
      [
        "Ġp",
        "Ã¢"
      ],
      [
        "Ġm",
        "as"
      ],
      [
        "Ġs",
        "pe"
      ],
      [
        "Ġt",
        "or"
      ],
      [
        "Ġt",
        "iens"
      ],
      [
        "Ġde",
        "ad"
      ],
      [
        "Ġh",
        "onn"
      ],
      [
        "Ġh",
        "ors"
      ],
      [
        "os",
        "t"
      ],
      [
        "Ġo",
        "re"
      ],
      [
        "im",
        "ag"
      ],
      [
        "Ġar",
        "t"
      ],
      [
        "Ġpart",
        "ie"
      ],
      [
        "Ġconn",
        "ait"
      ],
      [
        "imp",
        "ression"
      ],
      [
        "Ġlais",
        "sÃ©"
      ],
      [
        "Ġble",
        "u"
      ],
      [
        "Ġfem",
        "mes"
      ],
      [
        "Ġclo",
        "pe"
      ],
      [
        "comp",
        "te"
      ],
      [
        "Ġbail",
        "s"
      ],
      [
        "cro",
        "y"
      ],
      [
        "prÃ©c",
        "ie"
      ],
      [
        "c",
        "Ã¨s"
      ],
      [
        "g",
        "eu"
      ],
      [
        "g",
        "ent"
      ],
      [
        "n",
        "on"
      ],
      [
        "p",
        "ose"
      ],
      [
        "t",
        "y"
      ],
      [
        "Ġp",
        "ois"
      ],
      [
        "Ġp",
        "ouv"
      ],
      [
        "Ġp",
        "Ã¨te"
      ],
      [
        "Ġs",
        "te"
      ],
      [
        "Ġf",
        "once"
      ],
      [
        "au",
        "lnay"
      ],
      [
        "au",
        "jourd"
      ],
      [
        "Ã¨",
        "le"
      ],
      [
        "it",
        "al"
      ],
      [
        "Ãª",
        "ter"
      ],
      [
        "Ġch",
        "o"
      ],
      [
        "Ġpar",
        "fois"
      ],
      [
        "pl",
        "ique"
      ],
      [
        "Ġal",
        "bum"
      ],
      [
        "Ġpla",
        "Ã®t"
      ],
      [
        "Ġcar",
        "rÃ©"
      ],
      [
        "Ġca",
        "ch"
      ],
      [
        "Ġdr",
        "oit"
      ],
      [
        "alle",
        "z"
      ],
      [
        "Ġvol",
        "er"
      ],
      [
        "gr",
        "and"
      ],
      [
        "Ġcel",
        "ui"
      ],
      [
        "l",
        "y"
      ],
      [
        "p",
        "ens"
      ],
      [
        "y",
        "e"
      ],
      [
        "Ġ",
        "xxx"
      ],
      [
        "ai",
        "mes"
      ],
      [
        "Ġm",
        "ille"
      ],
      [
        "Ġb",
        "it"
      ],
      [
        "Ġb",
        "ous"
      ],
      [
        "Ġv",
        "an"
      ],
      [
        "Ġv",
        "aut"
      ],
      [
        "Ġg",
        "la"
      ],
      [
        "ch",
        "ar"
      ],
      [
        "us",
        "ement"
      ],
      [
        "Ġre",
        "t"
      ],
      [
        "Ġst",
        "ress"
      ],
      [
        "omb",
        "res"
      ],
      [
        "mer",
        "de"
      ],
      [
        "Ġca",
        "che"
      ],
      [
        "Ġrem",
        "pli"
      ],
      [
        "Ġdon",
        "ut"
      ],
      [
        "b",
        "ois"
      ],
      [
        "b",
        "ah"
      ],
      [
        "c",
        "ab"
      ],
      [
        "e",
        "illeur"
      ],
      [
        "f",
        "Ã©"
      ],
      [
        "h",
        "a"
      ],
      [
        "p",
        "ou"
      ],
      [
        "v",
        "o"
      ],
      [
        "Ġd",
        "oit"
      ],
      [
        "Ġl",
        "Ã¨"
      ],
      [
        "en",
        "nent"
      ],
      [
        "Ġs",
        "el"
      ],
      [
        "Ġj",
        "a"
      ],
      [
        "Ġf",
        "ant"
      ],
      [
        "Ġr",
        "end"
      ],
      [
        "Ġr",
        "age"
      ],
      [
        "Ġg",
        "ard"
      ],
      [
        "us",
        "s"
      ],
      [
        "che",
        "z"
      ],
      [
        "Ġre",
        "v"
      ],
      [
        "si",
        "dent"
      ],
      [
        "ĠdÃ©",
        "mons"
      ],
      [
        "ort",
        "s"
      ],
      [
        "Ġcou",
        "leur"
      ],
      [
        "Ġdis",
        "t"
      ],
      [
        "Ã¢",
        "ne"
      ],
      [
        "ĠÃ©",
        "v"
      ],
      [
        "Ġgros",
        "ses"
      ],
      [
        "Ġz",
        "e"
      ],
      [
        "Ġvrai",
        "e"
      ],
      [
        "Ġca",
        "deau"
      ],
      [
        "Ġcomp",
        "ter"
      ],
      [
        "fr",
        "ain"
      ],
      [
        "ĠdÃ©f",
        "oncÃ©"
      ],
      [
        "ĠnÃ©g",
        "ro"
      ],
      [
        "Ġgrai",
        "lle"
      ],
      [
        "e",
        "ille"
      ],
      [
        "g",
        "h"
      ],
      [
        "i",
        "ent"
      ],
      [
        "p",
        "asser"
      ],
      [
        "Ġp",
        "or"
      ],
      [
        "Ġc",
        "ous"
      ],
      [
        "Ġc",
        "aisse"
      ],
      [
        "Ġf",
        "illes"
      ],
      [
        "Ġch",
        "Ã¨"
      ],
      [
        "Ġch",
        "ois"
      ],
      [
        "at",
        "ure"
      ],
      [
        "ot",
        "s"
      ],
      [
        "ot",
        "te"
      ],
      [
        "Ġche",
        "ck"
      ],
      [
        "Ġsal",
        "le"
      ],
      [
        "Ġcon",
        "se"
      ],
      [
        "Ġbille",
        "t"
      ],
      [
        "Ġcham",
        "bre"
      ],
      [
        "ĠpiÃ¨",
        "ce"
      ],
      [
        "-",
        "-"
      ],
      [
        "b",
        "res"
      ],
      [
        "c",
        "as"
      ],
      [
        "i",
        "ques"
      ],
      [
        "j",
        "ass"
      ],
      [
        "m",
        "y"
      ],
      [
        "p",
        "et"
      ],
      [
        "p",
        "ir"
      ],
      [
        "Ġ",
        "6"
      ],
      [
        "Ġ",
        "ailleurs"
      ],
      [
        "Ġd",
        "onnÃ©"
      ],
      [
        "ai",
        "de"
      ],
      [
        "Ġc",
        "ents"
      ],
      [
        "Ġm",
        "eur"
      ],
      [
        "Ġm",
        "Ã¨res"
      ],
      [
        "Ġs",
        "il"
      ],
      [
        "Ġs",
        "oin"
      ],
      [
        "Ġs",
        "ombre"
      ],
      [
        "Ġt",
        "aille"
      ],
      [
        "qu",
        "et"
      ],
      [
        "Ã©",
        "te"
      ],
      [
        "eu",
        "se"
      ],
      [
        "al",
        "cool"
      ],
      [
        "Ġen",
        "d"
      ],
      [
        "ce",
        "p"
      ],
      [
        "Ġh",
        "omme"
      ],
      [
        "Ġh",
        "mm"
      ],
      [
        "ie",
        "ks"
      ],
      [
        "at",
        "es"
      ],
      [
        "Ġtr",
        "ouver"
      ],
      [
        "Ã¢",
        "ce"
      ],
      [
        "ĠrÃ©",
        "veille"
      ],
      [
        "Ġz",
        "in"
      ],
      [
        "Ġconn",
        "ard"
      ],
      [
        "ins",
        "tru"
      ],
      [
        "Ġri",
        "ches"
      ],
      [
        "ack",
        "s"
      ],
      [
        "Ġpet",
        "ite"
      ],
      [
        "ites",
        "se"
      ],
      [
        "Ġenf",
        "ants"
      ],
      [
        "Ġram",
        "Ã¨ne"
      ],
      [
        "Ġven",
        "u"
      ],
      [
        "Ġprom",
        "is"
      ],
      [
        "bab",
        "y"
      ],
      [
        "b",
        "us"
      ],
      [
        "s",
        "age"
      ],
      [
        "t",
        "ra"
      ],
      [
        "Ġ",
        "u"
      ],
      [
        "Ġl",
        "un"
      ],
      [
        "Ġp",
        "a"
      ],
      [
        "Ġc",
        "ad"
      ],
      [
        "Ġs",
        "ap"
      ],
      [
        "Ġt",
        "al"
      ],
      [
        "re",
        "ux"
      ],
      [
        "Ġb",
        "ang"
      ],
      [
        "in",
        "tÃ©"
      ],
      [
        "Ġn",
        "ormal"
      ],
      [
        "Ã¨",
        "che"
      ],
      [
        "Ġh",
        "y"
      ],
      [
        "Ġma",
        "ch"
      ],
      [
        "par",
        "fois"
      ],
      [
        "Ġbr",
        "iller"
      ],
      [
        "com",
        "m"
      ],
      [
        "com",
        "ment"
      ],
      [
        "Ã»",
        "te"
      ],
      [
        "ĠÃ©c",
        "rit"
      ],
      [
        "Ġmis",
        "s"
      ],
      [
        "ĠprÃ©",
        "fÃ¨re"
      ],
      [
        "Ġph",
        "ases"
      ],
      [
        "ign",
        "on"
      ],
      [
        "Ġcham",
        "p"
      ],
      [
        "Ġtrouv",
        "Ã©"
      ],
      [
        "Ġfen",
        "Ãªtre"
      ],
      [
        "e",
        "v"
      ],
      [
        "y",
        "o"
      ],
      [
        "Ġl",
        "Ã¢"
      ],
      [
        "Ġp",
        "om"
      ],
      [
        "en",
        "u"
      ],
      [
        "Ġs",
        "am"
      ],
      [
        "Ġf",
        "asse"
      ],
      [
        "Ġf",
        "allait"
      ],
      [
        "Ġb",
        "ats"
      ],
      [
        "est",
        "er"
      ],
      [
        "Ġr",
        "u"
      ],
      [
        "Ġr",
        "id"
      ],
      [
        "it",
        "h"
      ],
      [
        "Ġmon",
        "t"
      ],
      [
        "Ġne",
        "w"
      ],
      [
        "Ġgr",
        "ande"
      ],
      [
        "Ġsa",
        "me"
      ],
      [
        "Ġz",
        "one"
      ],
      [
        "omb",
        "e"
      ],
      [
        "ĠprÃ©",
        "sident"
      ],
      [
        "Ġfl",
        "ash"
      ],
      [
        "Ġcap",
        "tÃ©"
      ],
      [
        "Ġmin",
        "utes"
      ],
      [
        "oli",
        "de"
      ],
      [
        "Ġsouv",
        "ent"
      ],
      [
        "Ġgos",
        "se"
      ],
      [
        "Ġfle",
        "x"
      ],
      [
        "Ġchem",
        "in"
      ],
      [
        "b",
        "it"
      ],
      [
        "h",
        "or"
      ],
      [
        "h",
        "ier"
      ],
      [
        "Ġp",
        "eau"
      ],
      [
        "Ġp",
        "oint"
      ],
      [
        "Ġm",
        "anger"
      ],
      [
        "Ġm",
        "ourir"
      ],
      [
        "Ġs",
        "aut"
      ],
      [
        "Ġb",
        "elles"
      ],
      [
        "eu",
        "l"
      ],
      [
        "Ġv",
        "in"
      ],
      [
        "ch",
        "ain"
      ],
      [
        "ri",
        "ce"
      ],
      [
        "Ġsi",
        "g"
      ],
      [
        "Ġre",
        "b"
      ],
      [
        "Ġre",
        "gre"
      ],
      [
        "Ġtr",
        "ous"
      ],
      [
        "par",
        "ce"
      ],
      [
        "Ġne",
        "z"
      ],
      [
        "ĠrÃ©",
        "el"
      ],
      [
        "Ġcr",
        "u"
      ],
      [
        "Ġdev",
        "enir"
      ],
      [
        "Ġph",
        "oto"
      ],
      [
        "Ġfum",
        "Ã©"
      ],
      [
        "i",
        "Ã¨res"
      ],
      [
        "Ġ",
        "anc"
      ],
      [
        "Ġp",
        "oin"
      ],
      [
        "Ġc",
        "av"
      ],
      [
        "Ġm",
        "ange"
      ],
      [
        "Ġs",
        "qu"
      ],
      [
        "Ġs",
        "li"
      ],
      [
        "Ġj",
        "u"
      ],
      [
        "is",
        "ent"
      ],
      [
        "Ġb",
        "oire"
      ],
      [
        "te",
        "au"
      ],
      [
        "it",
        "Ã©s"
      ],
      [
        "Ġch",
        "acun"
      ],
      [
        "Ġh",
        "un"
      ],
      [
        "Ã©t",
        "Ã©"
      ],
      [
        "ol",
        "er"
      ],
      [
        "Ġre",
        "tr"
      ],
      [
        "ab",
        "ord"
      ],
      [
        "Ġtr",
        "an"
      ],
      [
        "ass",
        "ent"
      ],
      [
        "par",
        "ler"
      ],
      [
        "ĠrÃ©",
        "f"
      ],
      [
        "ĠrÃ©",
        "g"
      ],
      [
        "Ġcl",
        "ar"
      ],
      [
        "Ġi",
        "k"
      ],
      [
        "ĠmÃ©",
        "lo"
      ],
      [
        "Ġatt",
        "end"
      ],
      [
        "Ġsent",
        "i"
      ],
      [
        "Ġsau",
        "f"
      ],
      [
        "Ġnu",
        "ages"
      ],
      [
        "ĠgoÃ»",
        "t"
      ],
      [
        "Ġstre",
        "et"
      ],
      [
        "Ġfut",
        "ur"
      ],
      [
        "Ġspe",
        "ed"
      ],
      [
        "c",
        "is"
      ],
      [
        "f",
        "eu"
      ],
      [
        "f",
        "ie"
      ],
      [
        "f",
        "ont"
      ],
      [
        "f",
        "low"
      ],
      [
        "i",
        "Ã©"
      ],
      [
        "n",
        "u"
      ],
      [
        "o",
        "eil"
      ],
      [
        "Ġs",
        "ommes"
      ],
      [
        "Ġt",
        "ch"
      ],
      [
        "Ã©",
        "quipe"
      ],
      [
        "Ġj",
        "al"
      ],
      [
        "Ġde",
        "vient"
      ],
      [
        "Ġg",
        "Ã©n"
      ],
      [
        "Ġma",
        "ma"
      ],
      [
        "Ġtu",
        "er"
      ],
      [
        "Ã´",
        "mes"
      ],
      [
        "Ġfr",
        "anÃ§"
      ],
      [
        "Ġpro",
        "jet"
      ],
      [
        "bl",
        "ant"
      ],
      [
        "Ġcl",
        "assi"
      ],
      [
        "Ġbou",
        "ff"
      ],
      [
        "Ġdou",
        "ze"
      ],
      [
        "Ġ2",
        "0"
      ],
      [
        "Ġvoul",
        "u"
      ],
      [
        "Ġdr",
        "oite"
      ],
      [
        "Ġmeuf",
        "s"
      ],
      [
        "Ġprop",
        "re"
      ],
      [
        "Ġpie",
        "d"
      ],
      [
        "Ġbiz",
        "arre"
      ],
      [
        "Ġore",
        "illes"
      ],
      [
        "b",
        "ler"
      ],
      [
        "d",
        "Ã©c"
      ],
      [
        "h",
        "Ã´"
      ],
      [
        "l",
        "imsa"
      ],
      [
        "n",
        "ou"
      ],
      [
        "p",
        "ire"
      ],
      [
        "p",
        "rem"
      ],
      [
        "v",
        "ise"
      ],
      [
        "y",
        "a"
      ],
      [
        "Ġp",
        "oi"
      ],
      [
        "Ġc",
        "uis"
      ],
      [
        "Ġt",
        "it"
      ],
      [
        "in",
        "o"
      ],
      [
        "Ġn",
        "et"
      ],
      [
        "Ġn",
        "ord"
      ],
      [
        "Ġg",
        "ue"
      ],
      [
        "al",
        "la"
      ],
      [
        "ien",
        "d"
      ],
      [
        "ant",
        "es"
      ],
      [
        "Ġma",
        "d"
      ],
      [
        "Ġma",
        "Ã®"
      ],
      [
        "Ġpar",
        "ents"
      ],
      [
        "Ġou",
        "f"
      ],
      [
        "av",
        "ait"
      ],
      [
        "im",
        "um"
      ],
      [
        "pour",
        "tant"
      ],
      [
        "Ġcl",
        "air"
      ],
      [
        "all",
        "on"
      ],
      [
        "Ġli",
        "ke"
      ],
      [
        "oy",
        "er"
      ],
      [
        "aÃ®",
        "ne"
      ],
      [
        "ach",
        "Ã¨te"
      ],
      [
        "Ġprod",
        "uit"
      ],
      [
        "orm",
        "ir"
      ],
      [
        "Ġauc",
        "une"
      ],
      [
        "Ġty",
        "pes"
      ],
      [
        "Ġaur",
        "a"
      ],
      [
        "Ġfol",
        "ie"
      ],
      [
        "Ġsin",
        "on"
      ],
      [
        "b",
        "out"
      ],
      [
        "b",
        "ig"
      ],
      [
        "c",
        "ule"
      ],
      [
        "l",
        "Ã¨ve"
      ],
      [
        "r",
        "an"
      ],
      [
        "Ġ",
        "ant"
      ],
      [
        "Ġp",
        "oli"
      ],
      [
        "Ġm",
        "u"
      ],
      [
        "Ġt",
        "ro"
      ],
      [
        "qu",
        "it"
      ],
      [
        "er",
        "se"
      ],
      [
        "Ġf",
        "at"
      ],
      [
        "Ġv",
        "aisse"
      ],
      [
        "Ġg",
        "re"
      ],
      [
        "Ġg",
        "az"
      ],
      [
        "ro",
        "che"
      ],
      [
        "Ġy",
        "es"
      ],
      [
        "at",
        "ions"
      ],
      [
        "ap",
        "e"
      ],
      [
        "ont",
        "er"
      ],
      [
        "Ã©c",
        "ole"
      ],
      [
        "ass",
        "ure"
      ],
      [
        "ail",
        "ler"
      ],
      [
        "id",
        "ent"
      ],
      [
        "ser",
        "t"
      ],
      [
        "Ġcl",
        "asse"
      ],
      [
        "Ġsh",
        "ow"
      ],
      [
        "vi",
        "de"
      ],
      [
        "Ġsal",
        "aire"
      ],
      [
        "one",
        "z"
      ],
      [
        "Ġmo",
        "de"
      ],
      [
        "ĠsÃ»",
        "re"
      ],
      [
        "Ġenf",
        "oirÃ©"
      ],
      [
        "Ġmag",
        "ie"
      ],
      [
        "Ġcri",
        "er"
      ],
      [
        "Ġport",
        "es"
      ],
      [
        "Ġquit",
        "ter"
      ],
      [
        "Ġreu",
        "f"
      ],
      [
        "Ġarr",
        "Ãªte"
      ],
      [
        "Ġboute",
        "ille"
      ],
      [
        "a",
        "j"
      ],
      [
        "a",
        "ffe"
      ],
      [
        "b",
        "lo"
      ],
      [
        "i",
        "v"
      ],
      [
        "n",
        "et"
      ],
      [
        "n",
        "ie"
      ],
      [
        "r",
        "r"
      ],
      [
        "s",
        "ans"
      ],
      [
        "w",
        "ow"
      ],
      [
        "Ġd",
        "im"
      ],
      [
        "Ġc",
        "ond"
      ],
      [
        "Ġs",
        "onne"
      ],
      [
        "Ġt",
        "w"
      ],
      [
        "qu",
        "ille"
      ],
      [
        "Ġj",
        "ack"
      ],
      [
        "is",
        "Ã©"
      ],
      [
        "is",
        "er"
      ],
      [
        "Ġf",
        "oi"
      ],
      [
        "Ġv",
        "ue"
      ],
      [
        "Ġr",
        "ues"
      ],
      [
        "Ġn",
        "ul"
      ],
      [
        "ra",
        "ge"
      ],
      [
        "Ġch",
        "au"
      ],
      [
        "am",
        "i"
      ],
      [
        "ti",
        "ons"
      ],
      [
        "Ġdi",
        "able"
      ],
      [
        "erre",
        "ur"
      ],
      [
        "Ġfor",
        "me"
      ],
      [
        "Ġsort",
        "i"
      ],
      [
        "Ġbla",
        "ck"
      ],
      [
        "Ġquart",
        "iers"
      ],
      [
        "her",
        "be"
      ],
      [
        "Ġquest",
        "ions"
      ],
      [
        "ĠbÃ¢t",
        "ard"
      ],
      [
        "h",
        "un"
      ],
      [
        "r",
        "oit"
      ],
      [
        "u",
        "les"
      ],
      [
        "Ġp",
        "ain"
      ],
      [
        "Ġm",
        "oment"
      ],
      [
        "is",
        "me"
      ],
      [
        "Ġb",
        "av"
      ],
      [
        "Ġg",
        "ot"
      ],
      [
        "al",
        "a"
      ],
      [
        "Ġch",
        "ien"
      ],
      [
        "and",
        "er"
      ],
      [
        "Ġsi",
        "r"
      ],
      [
        "ir",
        "Ã©"
      ],
      [
        "ir",
        "oir"
      ],
      [
        "ff",
        "re"
      ],
      [
        "onn",
        "el"
      ],
      [
        "Ġbr",
        "ill"
      ],
      [
        "Ġple",
        "ine"
      ],
      [
        "oc",
        "us"
      ],
      [
        "Ġser",
        "t"
      ],
      [
        "Ġcap",
        "tes"
      ],
      [
        "ĠpÃ©t",
        "asse"
      ],
      [
        "tour",
        "ne"
      ],
      [
        "Ġso",
        "eur"
      ],
      [
        "Ġcer",
        "t"
      ],
      [
        "Ġac",
        "c"
      ],
      [
        "heure",
        "usement"
      ],
      [
        "gra",
        "tte"
      ],
      [
        "Ġsem",
        "blant"
      ],
      [
        "Ġpay",
        "er"
      ],
      [
        "rÃ©p",
        "onds"
      ],
      [
        "Ġpouv",
        "oir"
      ],
      [
        "'",
        "-"
      ],
      [
        "b",
        "onne"
      ],
      [
        "f",
        "ace"
      ],
      [
        "o",
        "te"
      ],
      [
        "s",
        "y"
      ],
      [
        "t",
        "o"
      ],
      [
        "Ġl",
        "Ã¢che"
      ],
      [
        "Ġm",
        "airo"
      ],
      [
        "Ġs",
        "antÃ©"
      ],
      [
        "Ġt",
        "ort"
      ],
      [
        "Ġj",
        "ob"
      ],
      [
        "Ġb",
        "ul"
      ],
      [
        "Ġb",
        "onnes"
      ],
      [
        "Ġr",
        "endre"
      ],
      [
        "Ġmon",
        "ter"
      ],
      [
        "Ġau",
        "lnay"
      ],
      [
        "ain",
        "t"
      ],
      [
        "ab",
        "ri"
      ],
      [
        "Ã¢",
        "me"
      ],
      [
        "Ġst",
        "y"
      ],
      [
        "Ġap",
        "pris"
      ],
      [
        "Ã§",
        "u"
      ],
      [
        "Ġth",
        "unes"
      ],
      [
        "Ġpos",
        "sible"
      ],
      [
        "Ġcour",
        "se"
      ],
      [
        "Ġti",
        "ent"
      ],
      [
        "ĠbÃ©",
        "nÃ©"
      ],
      [
        "Ġfai",
        "m"
      ],
      [
        "Ġoubl",
        "ier"
      ],
      [
        "ĠtÃ©l",
        "Ã©"
      ],
      [
        "c",
        "Ã´"
      ],
      [
        "d",
        "am"
      ],
      [
        "h",
        "istoi"
      ],
      [
        "i",
        "b"
      ],
      [
        "j",
        "ets"
      ],
      [
        "p",
        "are"
      ],
      [
        "p",
        "orte"
      ],
      [
        "Ġp",
        "ue"
      ],
      [
        "Ġc",
        "end"
      ],
      [
        "Ġt",
        "ab"
      ],
      [
        "le",
        "k"
      ],
      [
        "eu",
        "s"
      ],
      [
        "Ġv",
        "ic"
      ],
      [
        "Ġv",
        "ise"
      ],
      [
        "Ġv",
        "itesse"
      ],
      [
        "se",
        "au"
      ],
      [
        "Ġch",
        "iens"
      ],
      [
        "Ġpl",
        "ais"
      ],
      [
        "end",
        "ors"
      ],
      [
        "Ġou",
        "ver"
      ],
      [
        "lo",
        "p"
      ],
      [
        "Ġav",
        "ance"
      ],
      [
        "Ġpeu",
        "vent"
      ],
      [
        "ver",
        "se"
      ],
      [
        "Ġcr",
        "oit"
      ],
      [
        "Ġcar",
        "te"
      ],
      [
        "Ġgra",
        "mmes"
      ],
      [
        "Ġcont",
        "r"
      ],
      [
        "Ġcont",
        "ent"
      ],
      [
        "Ġph",
        "ras"
      ],
      [
        "Ġbl",
        "an"
      ],
      [
        "env",
        "ers"
      ],
      [
        "lÃ©",
        "ch"
      ],
      [
        "Ġenv",
        "oie"
      ],
      [
        "Ġprem",
        "iÃ¨re"
      ],
      [
        "Ġgag",
        "ner"
      ],
      [
        "Ġty",
        "pe"
      ],
      [
        "Ġquest",
        "ion"
      ],
      [
        "fa",
        "Ã§on"
      ],
      [
        "prem",
        "ier"
      ],
      [
        "c",
        "la"
      ],
      [
        "f",
        "ou"
      ],
      [
        "g",
        "s"
      ],
      [
        "l",
        "Ã¢che"
      ],
      [
        "m",
        "en"
      ],
      [
        "s",
        "ter"
      ],
      [
[...]
